{
  "version": "1.0",
  "truncation": null,
  "padding": {
    "strategy": {
      "Fixed": 1000
    },
    "direction": "Right",
    "pad_to_multiple_of": null,
    "pad_id": 3,
    "pad_type_id": 0,
    "pad_token": "[PAD]"
  },
  "added_tokens": [
    {
      "id": 0,
      "content": "[UNK]",
      "single_word": false,
      "lstrip": false,
      "rstrip": false,
      "normalized": false,
      "special": true
    },
    {
      "id": 1,
      "content": "[CLS]",
      "single_word": false,
      "lstrip": false,
      "rstrip": false,
      "normalized": false,
      "special": true
    },
    {
      "id": 2,
      "content": "[SEP]",
      "single_word": false,
      "lstrip": false,
      "rstrip": false,
      "normalized": false,
      "special": true
    },
    {
      "id": 3,
      "content": "[PAD]",
      "single_word": false,
      "lstrip": false,
      "rstrip": false,
      "normalized": false,
      "special": true
    },
    {
      "id": 4,
      "content": "[MASK]",
      "single_word": false,
      "lstrip": false,
      "rstrip": false,
      "normalized": false,
      "special": true
    }
  ],
  "normalizer": null,
  "pre_tokenizer": {
    "type": "Whitespace"
  },
  "post_processor": {
    "type": "TemplateProcessing",
    "single": [
      {
        "SpecialToken": {
          "id": "[CLS]",
          "type_id": 0
        }
      },
      {
        "Sequence": {
          "id": "A",
          "type_id": 0
        }
      },
      {
        "SpecialToken": {
          "id": "[SEP]",
          "type_id": 0
        }
      }
    ],
    "pair": [
      {
        "SpecialToken": {
          "id": "[CLS]",
          "type_id": 0
        }
      },
      {
        "Sequence": {
          "id": "A",
          "type_id": 0
        }
      },
      {
        "SpecialToken": {
          "id": "[SEP]",
          "type_id": 0
        }
      },
      {
        "Sequence": {
          "id": "B",
          "type_id": 1
        }
      },
      {
        "SpecialToken": {
          "id": "[SEP]",
          "type_id": 1
        }
      }
    ],
    "special_tokens": {
      "[CLS]": {
        "id": "[CLS]",
        "ids": [
          1
        ],
        "tokens": [
          "[CLS]"
        ]
      },
      "[SEP]": {
        "id": "[SEP]",
        "ids": [
          2
        ],
        "tokens": [
          "[SEP]"
        ]
      }
    }
  },
  "decoder": null,
  "model": {
    "type": "BPE",
    "dropout": null,
    "unk_token": "[UNK]",
    "continuing_subword_prefix": null,
    "end_of_word_suffix": null,
    "fuse_unk": false,
    "byte_fallback": false,
    "vocab": {
      "[UNK]": 0,
      "[CLS]": 1,
      "[SEP]": 2,
      "[PAD]": 3,
      "[MASK]": 4,
      "\u0002": 5,
      "!": 6,
      "\"": 7,
      "#": 8,
      "%": 9,
      "&": 10,
      "'": 11,
      "(": 12,
      ")": 13,
      "*": 14,
      "+": 15,
      ",": 16,
      "-": 17,
      ".": 18,
      "/": 19,
      "0": 20,
      "1": 21,
      "2": 22,
      "3": 23,
      "4": 24,
      "5": 25,
      "6": 26,
      "7": 27,
      "8": 28,
      "9": 29,
      ":": 30,
      ";": 31,
      "=": 32,
      "?": 33,
      "@": 34,
      "A": 35,
      "B": 36,
      "C": 37,
      "D": 38,
      "E": 39,
      "F": 40,
      "G": 41,
      "H": 42,
      "I": 43,
      "J": 44,
      "K": 45,
      "L": 46,
      "M": 47,
      "N": 48,
      "O": 49,
      "P": 50,
      "Q": 51,
      "R": 52,
      "S": 53,
      "T": 54,
      "U": 55,
      "V": 56,
      "W": 57,
      "X": 58,
      "Y": 59,
      "Z": 60,
      "[": 61,
      "]": 62,
      "^": 63,
      "_": 64,
      "`": 65,
      "a": 66,
      "b": 67,
      "c": 68,
      "d": 69,
      "e": 70,
      "f": 71,
      "g": 72,
      "h": 73,
      "i": 74,
      "j": 75,
      "k": 76,
      "l": 77,
      "m": 78,
      "n": 79,
      "o": 80,
      "p": 81,
      "q": 82,
      "r": 83,
      "s": 84,
      "t": 85,
      "u": 86,
      "v": 87,
      "w": 88,
      "x": 89,
      "y": 90,
      "z": 91,
      "{": 92,
      "}": 93,
      "~": 94,
      "": 95,
      "": 96,
      "": 97,
      "": 98,
      "": 99,
      "§": 100,
      "«": 101,
      "®": 102,
      "°": 103,
      "²": 104,
      "·": 105,
      "º": 106,
      "»": 107,
      "À": 108,
      "Ç": 109,
      "È": 110,
      "É": 111,
      "Ê": 112,
      "Ì": 113,
      "Î": 114,
      "Ô": 115,
      "Ö": 116,
      "Û": 117,
      "Ü": 118,
      "ß": 119,
      "à": 120,
      "á": 121,
      "â": 122,
      "ã": 123,
      "ä": 124,
      "ç": 125,
      "è": 126,
      "é": 127,
      "ê": 128,
      "ë": 129,
      "ì": 130,
      "í": 131,
      "î": 132,
      "ï": 133,
      "ñ": 134,
      "ó": 135,
      "ô": 136,
      "ö": 137,
      "ø": 138,
      "ù": 139,
      "û": 140,
      "ü": 141,
      "ÿ": 142,
      "–": 143,
      "‘": 144,
      "€": 145,
      "de": 146,
      "on": 147,
      "re": 148,
      "le": 149,
      "__": 150,
      "en": 151,
      "ti": 152,
      "la": 153,
      "ur": 154,
      "an": 155,
      "ar": 156,
      "qu": 157,
      "pr": 158,
      "tion": 159,
      "____": 160,
      "du": 161,
      "ci": 162,
      "er": 163,
      "ai": 164,
      "es": 165,
      "et": 166,
      "li": 167,
      "té": 168,
      "si": 169,
      "ent": 170,
      "se": 171,
      "con": 172,
      "our": 173,
      "in": 174,
      "au": 175,
      "ce": 176,
      "ation": 177,
      "te": 178,
      "dé": 179,
      "oi": 180,
      "or": 181,
      "que": 182,
      "par": 183,
      "lle": 184,
      "ne": 185,
      "as": 186,
      "at": 187,
      "so": 188,
      "co": 189,
      "________": 190,
      "me": 191,
      "is": 192,
      "ment": 193,
      "les": 194,
      "ant": 195,
      "oc": 196,
      "pré": 197,
      "pp": 198,
      "20": 199,
      "av": 200,
      "ri": 201,
      "des": 202,
      "été": 203,
      "di": 204,
      "res": 205,
      "app": 206,
      "ré": 207,
      "soci": 208,
      "ch": 209,
      "tr": 210,
      "ou": 211,
      "],": 212,
      "vi": 213,
      "am": 214,
      "ait": 215,
      "un": 216,
      "pour": 217,
      "société": 218,
      "ée": 219,
      "bre": 220,
      "êt": 221,
      "al": 222,
      "mi": 223,
      "ass": 224,
      "ju": 225,
      "Mme": 226,
      "ge": 227,
      "mp": 228,
      "ans": 229,
      "el": 230,
      "mo": 231,
      "202": 232,
      "os": 233,
      "rêt": 234,
      "voi": 235,
      "tre": 236,
      "ille": 237,
      "ren": 238,
      "son": 239,
      "ac": 240,
      "proc": 241,
      "il": 242,
      "sion": 243,
      "conse": 244,
      "tic": 245,
      "cass": 246,
      "fi": 247,
      "ale": 248,
      "den": 249,
      "né": 250,
      "est": 251,
      "artic": 252,
      "cassation": 253,
      "une": 254,
      "sa": 255,
      "man": 256,
      "iller": 257,
      "don": 258,
      "arrêt": 259,
      "su": 260,
      "aire": 261,
      "cour": 262,
      "conseiller": 263,
      "ex": 264,
      "Cour": 265,
      "ét": 266,
      "________________": 267,
      "dent": 268,
      "code": 269,
      "yen": 270,
      "bli": 271,
      "appel": 272,
      "prési": 273,
      "article": 274,
      "for": 275,
      "ON": 276,
      "mé": 277,
      "procé": 278,
      "cham": 279,
      "chambre": 280,
      "resse": 281,
      "eu": 282,
      "ès": 283,
      "st": 284,
      "ence": 285,
      "lé": 286,
      "civi": 287,
      "procédu": 288,
      "président": 289,
      "ali": 290,
      "ance": 291,
      "pas": 292,
      "pu": 293,
      "procédure": 294,
      "sur": 295,
      "qui": 296,
      "ces": 297,
      "pourvoi": 298,
      "dans": 299,
      "2023": 300,
      "pro": 301,
      "do": 302,
      "elle": 303,
      "aux": 304,
      "dresse": 305,
      "gé": 306,
      "ction": 307,
      "ure": 308,
      "civile": 309,
      "Adresse": 310,
      "mm": 311,
      "moyen": 312,
      "ab": 313,
      "pé": 314,
      "DE": 315,
      "lu": 316,
      "prés": 317,
      "ter": 318,
      "ocat": 319,
      "publi": 320,
      "ère": 321,
      "lic": 322,
      "deman": 323,
      "comp": 324,
      "ve": 325,
      "201": 326,
      "eur": 327,
      "déci": 328,
      "près": 329,
      "SA": 330,
      "oit": 331,
      "ais": 332,
      "présent": 333,
      "avocat": 334,
      "ten": 335,
      "°/": 336,
      "fé": 337,
      "00": 338,
      "ni": 339,
      "formé": 340,
      "publique": 341,
      "ser": 342,
      "ations": 343,
      "rendu": 344,
      "TI": 345,
      "dience": 346,
      "applic": 347,
      "ors": 348,
      "tu": 349,
      "ux": 350,
      "contre": 351,
      "En": 352,
      "mbre": 353,
      "Le": 354,
      "RE": 355,
      "per": 356,
      "cri": 357,
      "sé": 358,
      "fon": 359,
      "décision": 360,
      "cé": 361,
      "qué": 362,
      "CA": 363,
      "ob": 364,
      "10": 365,
      "LE": 366,
      "it": 367,
      "pri": 368,
      "teur": 369,
      "comm": 370,
      "ay": 371,
      "demande": 372,
      "application": 373,
      "aient": 374,
      "CAS": 375,
      "après": 376,
      "ff": 377,
      "jet": 378,
      "22": 379,
      "appor": 380,
      "fait": 381,
      "parti": 382,
      "ag": 383,
      "géné": 384,
      "dont": 385,
      "oir": 386,
      "génér": 387,
      "CO": 388,
      "deux": 389,
      "alité": 390,
      "pre": 391,
      "rappor": 392,
      "UR": 393,
      "bi": 394,
      "TION": 395,
      "ses": 396,
      "no": 397,
      "dis": 398,
      "tions": 399,
      "po": 400,
      "siè": 401,
      "CASSA": 402,
      "CASSATION": 403,
      "ail": 404,
      "21": 405,
      "SC": 406,
      "ois": 407,
      "contr": 408,
      "stat": 409,
      "audience": 410,
      "ven": 411,
      "mar": 412,
      "tes": 413,
      "mici": 414,
      "dam": 415,
      "),": 416,
      "COUR": 417,
      "domici": 418,
      "IS": 419,
      "avoir": 420,
      "EN": 421,
      "lég": 422,
      "général": 423,
      "ont": 424,
      "min": 425,
      "oncé": 426,
      "dr": 427,
      "DU": 428,
      "AN": 429,
      "cu": 430,
      "domicili": 431,
      "CE": 432,
      "vo": 433,
      "ain": 434,
      "trav": 435,
      "________________________": 436,
      "ec": 437,
      "sti": 438,
      "tif": 439,
      "SCP": 440,
      "mme": 441,
      "att": 442,
      "ra": 443,
      "és": 444,
      "déb": 445,
      "tés": 446,
      "cla": 447,
      "féren": 448,
      "donn": 449,
      "14": 450,
      "sala": 451,
      "ffi": 452,
      "La": 453,
      "droit": 454,
      "loi": 455,
      "premi": 456,
      "13": 457,
      "gre": 458,
      "cet": 459,
      "lo": 460,
      "ver": 461,
      "juge": 462,
      "_________________________": 463,
      "pron": 464,
      "préci": 465,
      "ats": 466,
      "siège": 467,
      "uni": 468,
      "AR": 469,
      "pon": 470,
      "ad": 471,
      "nu": 472,
      "travail": 473,
      "lors": 474,
      "bé": 475,
      "déf": 476,
      "tement": 477,
      "judi": 478,
      "statu": 479,
      "sou": 480,
      "Sur": 481,
      "pen": 482,
      "mes": 483,
      "lieu": 484,
      "salari": 485,
      "être": 486,
      "Par": 487,
      "ef": 488,
      "ins": 489,
      "ate": 490,
      "atta": 491,
      "non": 492,
      "aut": 493,
      "ing": 494,
      "référen": 495,
      "vé": 496,
      "mis": 497,
      "lité": 498,
      "Con": 499,
      "liti": 500,
      "11": 501,
      "serv": 502,
      "tou": 503,
      "opp": 504,
      "avait": 505,
      "gar": 506,
      "juin": 507,
      "référend": 508,
      "entre": 509,
      "Pour": 510,
      "euros": 511,
      "leur": 512,
      "donnance": 513,
      "où": 514,
      "12": 515,
      "pos": 516,
      "conc": 517,
      "CI": 518,
      "condam": 519,
      "ement": 520,
      "déli": 521,
      "tant": 522,
      "ir": 523,
      "ureur": 524,
      "était": 525,
      "débats": 526,
      "emp": 527,
      "référendaire": 528,
      "sans": 529,
      "able": 530,
      "posi": 531,
      "2021": 532,
      "cette": 533,
      "étaient": 534,
      "rejet": 535,
      "ingt": 536,
      "vingt": 537,
      "observ": 538,
      "19": 539,
      "to": 540,
      "mars": 541,
      "ciale": 542,
      "prononcé": 543,
      "ap": 544,
      "sui": 545,
      "ble": 546,
      "ro": 547,
      "aires": 548,
      "vio": 549,
      "iè": 550,
      "observations": 551,
      "lui": 552,
      "ma": 553,
      "trois": 554,
      "2022": 555,
      "greffi": 556,
      "greffier": 557,
      "BRE": 558,
      "mai": 559,
      "ts": 560,
      "ende": 561,
      "nat": 562,
      "fais": 563,
      "litige": 564,
      "QU": 565,
      "tée": 566,
      "uri": 567,
      "CH": 568,
      "formément": 569,
      "OM": 570,
      "sep": 571,
      "conformément": 572,
      "titre": 573,
      "LA": 574,
      "disposi": 575,
      "doyen": 576,
      "rapport": 577,
      "décla": 578,
      "fonction": 579,
      "fes": 580,
      "MBRE": 581,
      "oire": 582,
      "fin": 583,
      "form": 584,
      "23": 585,
      "sul": 586,
      "osée": 587,
      "Re": 588,
      "AU": 589,
      "met": 590,
      "oppos": 591,
      "conseillers": 592,
      "inté": 593,
      "ainsi": 594,
      "ran": 595,
      "procureur": 596,
      "composée": 597,
      "rier": 598,
      "premier": 599,
      "vant": 600,
      "invo": 601,
      "délibé": 602,
      "15": 603,
      "pén": 604,
      "ue": 605,
      "nature": 606,
      "pou": 607,
      "sont": 608,
      "pris": 609,
      "person": 610,
      "produ": 611,
      "TE": 612,
      "ayant": 613,
      "somme": 614,
      "Il": 615,
      "ET": 616,
      "spé": 617,
      "ordonnance": 618,
      "inter": 619,
      "Pourvoi": 620,
      "pay": 621,
      "faisant": 622,
      "domicilié": 623,
      "tembre": 624,
      "septembre": 625,
      "résul": 626,
      "parties": 627,
      "cau": 628,
      "Au": 629,
      "tive": 630,
      "ril": 631,
      "mê": 632,
      "délibéré": 633,
      "tri": 634,
      "avril": 635,
      "1er": 636,
      "rapporteur": 637,
      "insi": 638,
      "EU": 639,
      "articles": 640,
      "contrat": 641,
      "judici": 642,
      "Ainsi": 643,
      "sociale": 644,
      "ossi": 645,
      "FR": 646,
      "ner": 647,
      "por": 648,
      "loy": 649,
      "dépen": 650,
      "précités": 651,
      "pres": 652,
      "opposant": 653,
      "tru": 654,
      "alors": 655,
      "17": 656,
      "vis": 657,
      "CHA": 658,
      "ments": 659,
      "FRAN": 660,
      "AIS": 661,
      "mille": 662,
      "ÇAIS": 663,
      "FRANÇAIS": 664,
      "PLE": 665,
      "PEU": 666,
      "NOM": 667,
      "PEUPLE": 668,
      "CHAMBRE": 669,
      "violé": 670,
      "sig": 671,
      "Vu": 672,
      "CON": 673,
      "gri": 674,
      "action": 675,
      "inci": 676,
      "moti": 677,
      "dant": 678,
      "16": 679,
      "communi": 680,
      "nelle": 681,
      "imp": 682,
      "trans": 683,
      "lan": 684,
      "24": 685,
      "grief": 686,
      "pe": 687,
      "même": 688,
      "pénale": 689,
      "sai": 690,
      "ques": 691,
      "présents": 692,
      "spéciale": 693,
      "justi": 694,
      "peu": 695,
      "qualité": 696,
      "salarié": 697,
      "date": 698,
      "dem": 699,
      "judiciaire": 700,
      "Paris": 701,
      "stitu": 702,
      "attaqué": 703,
      "gi": 704,
      "lai": 705,
      "aliné": 706,
      "cation": 707,
      "conclu": 708,
      "car": 709,
      "ossier": 710,
      "dossier": 711,
      "______": 712,
      "anci": 713,
      "moyens": 714,
      "alinéa": 715,
      "dire": 716,
      "18": 717,
      "indem": 718,
      "légu": 719,
      "Ré": 720,
      "commer": 721,
      "spécialement": 722,
      "prise": 723,
      "CIV": 724,
      "age": 725,
      "der": 726,
      "vrier": 727,
      "ration": 728,
      "employ": 729,
      "assur": 730,
      "IN": 731,
      "200": 732,
      "DÉ": 733,
      "700": 734,
      "février": 735,
      "CONS": 736,
      "nel": 737,
      "sse": 738,
      "produit": 739,
      "vier": 740,
      "illet": 741,
      "juillet": 742,
      "mani": 743,
      "im": 744,
      "const": 745,
      "payer": 746,
      "abli": 747,
      "truction": 748,
      "Dé": 749,
      "Fait": 750,
      "trib": 751,
      "ENCE": 752,
      "QUENCE": 753,
      "quê": 754,
      "présente": 755,
      "tex": 756,
      "jugement": 757,
      "dépens": 758,
      "communiqué": 759,
      "employeur": 760,
      "rece": 761,
      "eff": 762,
      "ense": 763,
      "ÉQUENCE": 764,
      "dic": 765,
      "CONSÉQUENCE": 766,
      "écu": 767,
      "sis": 768,
      "délégu": 769,
      "statuer": 770,
      "cor": 771,
      "déce": 772,
      "ption": 773,
      "conseil": 774,
      "jan": 775,
      "sions": 776,
      "janvier": 777,
      "diction": 778,
      "décembre": 779,
      "cours": 780,
      "domiciliée": 781,
      "bilité": 782,
      "ho": 783,
      "quête": 784,
      "che": 785,
      "demandes": 786,
      "sor": 787,
      "dre": 788,
      "respon": 789,
      "Loc": 790,
      "lation": 791,
      "avec": 792,
      "défende": 793,
      "mise": 794,
      "établi": 795,
      "autre": 796,
      "octo": 797,
      "octobre": 798,
      "exécu": 799,
      "vent": 800,
      "sus": 801,
      "______________________": 802,
      "Audience": 803,
      "Localité": 804,
      "acte": 805,
      "intérêt": 806,
      "000": 807,
      "ales": 808,
      "droits": 809,
      "gr": 810,
      "sous": 811,
      "téri": 812,
      "motif": 813,
      "celle": 814,
      "constitu": 815,
      "devant": 816,
      "OR": 817,
      "tenu": 818,
      "dès": 819,
      "rejette": 820,
      "ances": 821,
      "25": 822,
      "justifi": 823,
      "amen": 824,
      "ième": 825,
      "nation": 826,
      "urs": 827,
      "ences": 828,
      "vée": 829,
      "encontre": 830,
      "ées": 831,
      "seu": 832,
      "dispositions": 833,
      "MM": 834,
      "gu": 835,
      "MO": 836,
      "recev": 837,
      "cause": 838,
      "elles": 839,
      "peut": 840,
      "quelle": 841,
      "anti": 842,
      "opé": 843,
      "avis": 844,
      "ist": 845,
      "2016": 846,
      "Condam": 847,
      "consé": 848,
      "fr": 849,
      "Condamne": 850,
      "aff": 851,
      "ponse": 852,
      "saisi": 853,
      "ig": 854,
      "ouv": 855,
      "crimin": 856,
      "nove": 857,
      "novembre": 858,
      "ine": 859,
      "ôle": 860,
      "iss": 861,
      "vention": 862,
      "juri": 863,
      "rance": 864,
      "auc": 865,
      "civil": 866,
      "ers": 867,
      "princi": 868,
      "pai": 869,
      "lement": 870,
      "donc": 871,
      "deuxième": 872,
      "Les": 873,
      "ONN": 874,
      "mb": 875,
      "entra": 876,
      "quée": 877,
      "jugé": 878,
      "première": 879,
      "entraî": 880,
      "instruction": 881,
      "cer": 882,
      "gard": 883,
      "rer": 884,
      "ves": 885,
      "conséqu": 886,
      "actions": 887,
      "suite": 888,
      "char": 889,
      "cher": 890,
      "FS": 891,
      "cré": 892,
      "part": 893,
      "résulte": 894,
      "ges": 895,
      "manifes": 896,
      "plu": 897,
      "paiement": 898,
      "lon": 899,
      "obli": 900,
      "us": 901,
      "men": 902,
      "56": 903,
      "Ch": 904,
      "conclusions": 905,
      "DÉC": 906,
      "exer": 907,
      "responsa": 908,
      "Réponse": 909,
      "associ": 910,
      "limi": 911,
      "istr": 912,
      "ens": 913,
      "ISI": 914,
      "SE": 915,
      "soit": 916,
      "RL": 917,
      "France": 918,
      "jour": 919,
      "28": 920,
      "elon": 921,
      "sy": 922,
      "requête": 923,
      "Selon": 924,
      "aisse": 925,
      "intérêts": 926,
      "exécution": 927,
      "isation": 928,
      "oblig": 929,
      "abi": 930,
      "indemni": 931,
      "unal": 932,
      "Enoncé": 933,
      "enci": 934,
      "propri": 935,
      "Ar": 936,
      "ui": 937,
      "Co": 938,
      "profes": 939,
      "stance": 940,
      "juridiction": 941,
      "ETTE": 942,
      "doit": 943,
      "délai": 944,
      "état": 945,
      "tribunal": 946,
      "licenci": 947,
      "manifestement": 948,
      "AL": 949,
      "PAR": 950,
      "chef": 951,
      "SARL": 952,
      "REJ": 953,
      "tifi": 954,
      "ca": 955,
      "profession": 956,
      "avant": 957,
      "26": 958,
      "criminelle": 959,
      "écri": 960,
      "constat": 961,
      "31": 962,
      "hi": 963,
      "fond": 964,
      "préjudi": 965,
      "piè": 966,
      "esp": 967,
      "cou": 968,
      "ard": 969,
      "27": 970,
      "invoqué": 971,
      "dence": 972,
      "MOTI": 973,
      "MOTIFS": 974,
      "30": 975,
      "direc": 976,
      "vre": 977,
      "ché": 978,
      "permet": 979,
      "omi": 980,
      "CES": 981,
      "épou": 982,
      "troi": 983,
      "ARR": 984,
      "garanti": 985,
      "ÊT": 986,
      "ARRÊT": 987,
      "séc": 988,
      "quel": 989,
      "nement": 990,
      "entraîner": 991,
      "let": 992,
      "REJETTE": 993,
      "ture": 994,
      "motivée": 995,
      "ire": 996,
      "Ex": 997,
      "donné": 998,
      "recours": 999,
      "décidé": 1000,
      "urité": 1001,
      "attaquée": 1002,
      "espè": 1003,
      "laquelle": 1004,
      "rela": 1005,
      "eure": 1006,
      "val": 1007,
      "écon": 1008,
      "mont": 1009,
      "sécurité": 1010,
      "sième": 1011,
      "née": 1012,
      "économi": 1013,
      "troisième": 1014,
      "responsabilité": 1015,
      "annu": 1016,
      "29": 1017,
      "licenciement": 1018,
      "domm": 1019,
      "derni": 1020,
      "dit": 1021,
      "admin": 1022,
      "ris": 1023,
      "espèce": 1024,
      "simp": 1025,
      "ber": 1026,
      "rele": 1027,
      "ssement": 1028,
      "administr": 1029,
      "légale": 1030,
      "ages": 1031,
      "1014": 1032,
      "2020": 1033,
      "élé": 1034,
      "déclaré": 1035,
      "liqui": 1036,
      "loc": 1037,
      "vait": 1038,
      "autres": 1039,
      "formée": 1040,
      "tention": 1041,
      "carac": 1042,
      "tis": 1043,
      "Rejet": 1044,
      "bran": 1045,
      "tenant": 1046,
      "pièces": 1047,
      "déléguée": 1048,
      "statuant": 1049,
      "motifs": 1050,
      "cas": 1051,
      "comme": 1052,
      "dur": 1053,
      "ori": 1054,
      "mobi": 1055,
      "pla": 1056,
      "exp": 1057,
      "préjudice": 1058,
      "instance": 1059,
      "appui": 1060,
      "IL": 1061,
      "fiée": 1062,
      "ateur": 1063,
      "plus": 1064,
      "Examen": 1065,
      "DÉCISI": 1066,
      "DÉCISION": 1067,
      "mission": 1068,
      "So": 1069,
      "lère": 1070,
      "mois": 1071,
      "condamne": 1072,
      "De": 1073,
      "mble": 1074,
      "Faits": 1075,
      "sociétés": 1076,
      "partie": 1077,
      "ger": 1078,
      "tivi": 1079,
      "cription": 1080,
      "mém": 1081,
      "com": 1082,
      "Or": 1083,
      "condi": 1084,
      "conseillère": 1085,
      "liquid": 1086,
      "ru": 1087,
      "ANCE": 1088,
      "économique": 1089,
      "ante": 1090,
      "ndic": 1091,
      "2017": 1092,
      "péri": 1093,
      "ensemble": 1094,
      "clu": 1095,
      "fau": 1096,
      "somm": 1097,
      "fondé": 1098,
      "financi": 1099,
      "not": 1100,
      "issant": 1101,
      "regard": 1102,
      "texte": 1103,
      "aison": 1104,
      "susvis": 1105,
      "ils": 1106,
      "termin": 1107,
      "objet": 1108,
      "syndic": 1109,
      "atri": 1110,
      "renvoi": 1111,
      "ût": 1112,
      "compte": 1113,
      "cess": 1114,
      "voir": 1115,
      "conn": 1116,
      "détermin": 1117,
      "épouse": 1118,
      "prév": 1119,
      "indemnité": 1120,
      "CIVI": 1121,
      "].": 1122,
      "ati": 1123,
      "mais": 1124,
      "effec": 1125,
      "DONN": 1126,
      "CIVILE": 1127,
      "eures": 1128,
      "abilité": 1129,
      "mobili": 1130,
      "SO": 1131,
      "50": 1132,
      "nes": 1133,
      "ase": 1134,
      "crit": 1135,
      "caisse": 1136,
      "ladi": 1137,
      "ban": 1138,
      "mu": 1139,
      "assurance": 1140,
      "amment": 1141,
      "simpli": 1142,
      "partielle": 1143,
      "mande": 1144,
      "Arrêt": 1145,
      "venu": 1146,
      "personne": 1147,
      "ie": 1148,
      "aiss": 1149,
      "Bou": 1150,
      "ORDONN": 1151,
      "gan": 1152,
      "Car": 1153,
      "nant": 1154,
      "térieure": 1155,
      "lig": 1156,
      "tient": 1157,
      "simplifiée": 1158,
      "affaire": 1159,
      "2019": 1160,
      "activi": 1161,
      "désis": 1162,
      "radi": 1163,
      "fir": 1164,
      "abs": 1165,
      "eng": 1166,
      "signé": 1167,
      "567": 1168,
      "puis": 1169,
      "commerciale": 1170,
      "JU": 1171,
      "motivé": 1172,
      "pec": 1173,
      "tation": 1174,
      "agissant": 1175,
      "base": 1176,
      "ER": 1177,
      "ret": 1178,
      "durée": 1179,
      "ala": 1180,
      "compter": 1181,
      "organ": 1182,
      "servi": 1183,
      "mémoire": 1184,
      "tin": 1185,
      "cons": 1186,
      "supp": 1187,
      "éléments": 1188,
      "ants": 1189,
      "ze": 1190,
      "pronon": 1191,
      "aur": 1192,
      "tout": 1193,
      "mention": 1194,
      "cin": 1195,
      "dommages": 1196,
      "réd": 1197,
      "2015": 1198,
      "Av": 1199,
      "fix": 1200,
      "mière": 1201,
      "lli": 1202,
      "ini": 1203,
      "oli": 1204,
      "san": 1205,
      "régu": 1206,
      "Pro": 1207,
      "consta": 1208,
      "Avocat": 1209,
      "tien": 1210,
      "alis": 1211,
      "ables": 1212,
      "obligation": 1213,
      "Mar": 1214,
      "rè": 1215,
      "secon": 1216,
      "convention": 1217,
      "raison": 1218,
      "aucun": 1219,
      "charge": 1220,
      "acci": 1221,
      "faire": 1222,
      "aille": 1223,
      "immobili": 1224,
      "débou": 1225,
      "heures": 1226,
      "tique": 1227,
      "rédaction": 1228,
      "45": 1229,
      "public": 1230,
      "présen": 1231,
      "indi": 1232,
      "neau": 1233,
      "sub": 1234,
      "Pre": 1235,
      "exist": 1236,
      "écrites": 1237,
      "sau": 1238,
      "absence": 1239,
      "ME": 1240,
      "inte": 1241,
      "eux": 1242,
      "celui": 1243,
      "faits": 1244,
      "ANN": 1245,
      "effet": 1246,
      "recevable": 1247,
      "garantie": 1248,
      "accor": 1249,
      "Déf": 1250,
      "temp": 1251,
      "inform": 1252,
      "textes": 1253,
      "Première": 1254,
      "tait": 1255,
      "dédu": 1256,
      "ao": 1257,
      "Demande": 1258,
      "invoque": 1259,
      "désistement": 1260,
      "QUE": 1261,
      "Défende": 1262,
      "cité": 1263,
      "cision": 1264,
      "août": 1265,
      "lément": 1266,
      "dat": 1267,
      "consi": 1268,
      "ORDONNANCE": 1269,
      "professionnelle": 1270,
      "Décision": 1271,
      "maladi": 1272,
      "présidence": 1273,
      "activité": 1274,
      "Demandeur": 1275,
      "Défendeur": 1276,
      "Ordonnance": 1277,
      "__________": 1278,
      "toute": 1279,
      "fis": 1280,
      "branche": 1281,
      "»,": 1282,
      "montant": 1283,
      "princip": 1284,
      "remp": 1285,
      "titu": 1286,
      "entreprise": 1287,
      "liber": 1288,
      "nom": 1289,
      "limitée": 1290,
      "rée": 1291,
      "bien": 1292,
      "pendant": 1293,
      "conditions": 1294,
      "leurs": 1295,
      "sera": 1296,
      "dilig": 1297,
      "ALE": 1298,
      "MA": 1299,
      "and": 1300,
      "respec": 1301,
      "posé": 1302,
      "financière": 1303,
      "mesure": 1304,
      "faute": 1305,
      "lè": 1306,
      "CIALE": 1307,
      "fféren": 1308,
      "existence": 1309,
      "pério": 1310,
      "notamment": 1311,
      "cont": 1312,
      "principe": 1313,
      "ères": 1314,
      "ème": 1315,
      "enne": 1316,
      "preu": 1317,
      "tous": 1318,
      "ix": 1319,
      "sommes": 1320,
      "salariés": 1321,
      "In": 1322,
      "cée": 1323,
      "toutes": 1324,
      "time": 1325,
      "hom": 1326,
      "exclu": 1327,
      "onn": 1328,
      "2018": 1329,
      "exi": 1330,
      "fran": 1331,
      "règ": 1332,
      "nécess": 1333,
      "constaté": 1334,
      "rant": 1335,
      "exerci": 1336,
      "retient": 1337,
      "use": 1338,
      "détention": 1339,
      "concer": 1340,
      "exper": 1341,
      "maladie": 1342,
      "llec": 1343,
      "IÈ": 1344,
      "he": 1345,
      "tenir": 1346,
      "aine": 1347,
      "lles": 1348,
      "lée": 1349,
      "béné": 1350,
      "vie": 1351,
      "Prov": 1352,
      "int": 1353,
      "rou": 1354,
      "Provence": 1355,
      "chi": 1356,
      "euse": 1357,
      "bénéfi": 1358,
      "EL": 1359,
      "ouve": 1360,
      "2014": 1361,
      "termes": 1362,
      "AV": 1363,
      "marge": 1364,
      "nul": 1365,
      "59": 1366,
      "illi": 1367,
      "recher": 1368,
      "tuelle": 1369,
      "exercice": 1370,
      "demanderesse": 1371,
      "défenderesse": 1372,
      "fication": 1373,
      "personnel": 1374,
      "preuve": 1375,
      "radiation": 1376,
      "mon": 1377,
      "60": 1378,
      "propriét": 1379,
      "régi": 1380,
      "association": 1381,
      "ffe": 1382,
      "situ": 1383,
      "lice": 1384,
      "ud": 1385,
      "sorte": 1386,
      "délégué": 1387,
      "considé": 1388,
      "selon": 1389,
      "étant": 1390,
      "déc": 1391,
      "voy": 1392,
      "alement": 1393,
      "mandat": 1394,
      "AD": 1395,
      "quer": 1396,
      "CR": 1397,
      "greffe": 1398,
      "connaiss": 1399,
      "conséquences": 1400,
      "grav": 1401,
      "cad": 1402,
      "défense": 1403,
      "aucune": 1404,
      "doc": 1405,
      "privé": 1406,
      "ANNU": 1407,
      "commis": 1408,
      "transmis": 1409,
      "diligences": 1410,
      "rési": 1411,
      "dispositif": 1412,
      "ANNULE": 1413,
      "indemn": 1414,
      "2013": 1415,
      "Az": 1416,
      "salariée": 1417,
      "MAR": 1418,
      "toire": 1419,
      "condamné": 1420,
      "temps": 1421,
      "tives": 1422,
      "Al": 1423,
      "antérieure": 1424,
      "ami": 1425,
      "Bor": 1426,
      "répar": 1427,
      "vic": 1428,
      "An": 1429,
      "avaient": 1430,
      "liquidateur": 1431,
      "notifi": 1432,
      "Ver": 1433,
      "confir": 1434,
      "ol": 1435,
      "hé": 1436,
      "donner": 1437,
      "CASSE": 1438,
      "JUIN": 1439,
      "déclarer": 1440,
      "main": 1441,
      "suff": 1442,
      "ref": 1443,
      "accord": 1444,
      "assi": 1445,
      "déclaration": 1446,
      "collec": 1447,
      "second": 1448,
      "congé": 1449,
      "appar": 1450,
      "relevé": 1451,
      "invoqués": 1452,
      "infr": 1453,
      "numé": 1454,
      "osi": 1455,
      "commerce": 1456,
      "rejeter": 1457,
      "forme": 1458,
      "Du": 1459,
      "europé": 1460,
      "période": 1461,
      "ELLE": 1462,
      "NON": 1463,
      "lier": 1464,
      "établissement": 1465,
      "suffis": 1466,
      "pouvait": 1467,
      "dernier": 1468,
      "conséquence": 1469,
      "IM": 1470,
      "applicable": 1471,
      "énon": 1472,
      "Me": 1473,
      "jou": 1474,
      "90": 1475,
      "produits": 1476,
      "issu": 1477,
      "yme": 1478,
      "COMM": 1479,
      "ENT": 1480,
      "syndicat": 1481,
      "cir": 1482,
      "connu": 1483,
      "lorsque": 1484,
      "anon": 1485,
      "caract": 1486,
      "reg": 1487,
      "Br": 1488,
      "Et": 1489,
      "nex": 1490,
      "ancien": 1491,
      "bu": 1492,
      "permettre": 1493,
      "uti": 1494,
      "ORS": 1495,
      "ALORS": 1496,
      "tées": 1497,
      "cue": 1498,
      "cap": 1499,
      "clause": 1500,
      "incident": 1501,
      "chefs": 1502,
      "anonyme": 1503,
      "inet": 1504,
      "préten": 1505,
      "caractère": 1506,
      "lou": 1507,
      "moins": 1508,
      "vente": 1509,
      "ouver": 1510,
      "compét": 1511,
      "susvisé": 1512,
      "ADM": 1513,
      "Dit": 1514,
      "retenu": 1515,
      "40": 1516,
      "tel": 1517,
      "aî": 1518,
      "amin": 1519,
      "78": 1520,
      "docu": 1521,
      "saisie": 1522,
      "bles": 1523,
      "Aix": 1524,
      "connaissance": 1525,
      "Se": 1526,
      "cep": 1527,
      "be": 1528,
      "ADMIS": 1529,
      "tiers": 1530,
      "franç": 1531,
      "valoir": 1532,
      "examin": 1533,
      "équi": 1534,
      "ches": 1535,
      "lis": 1536,
      "propres": 1537,
      "eurs": 1538,
      "dou": 1539,
      "CRIM": 1540,
      "________________________________________": 1541,
      "INELLE": 1542,
      "CRIMINELLE": 1543,
      "aurait": 1544,
      "constitution": 1545,
      "seul": 1546,
      "ég": 1547,
      "recevabilité": 1548,
      "administration": 1549,
      "Pi": 1550,
      "contrôle": 1551,
      "éle": 1552,
      "hu": 1553,
      "tifs": 1554,
      "quat": 1555,
      "Conse": 1556,
      "issue": 1557,
      "nées": 1558,
      "contest": 1559,
      "Mé": 1560,
      "asse": 1561,
      "trai": 1562,
      "défaut": 1563,
      "condamner": 1564,
      "cert": 1565,
      "Bonn": 1566,
      "pourvois": 1567,
      "34": 1568,
      "tran": 1569,
      "cotis": 1570,
      "transcrit": 1571,
      "ressé": 1572,
      "bor": 1573,
      "vel": 1574,
      "cassé": 1575,
      "information": 1576,
      "unique": 1577,
      "constatations": 1578,
      "nullité": 1579,
      "juges": 1580,
      "teurs": 1581,
      "mun": 1582,
      "Th": 1583,
      "cueilli": 1584,
      "défendeurs": 1585,
      "Après": 1586,
      "ception": 1587,
      "quand": 1588,
      "rappel": 1589,
      "fisc": 1590,
      "prescription": 1591,
      "Azar": 1592,
      "Mon": 1593,
      "trouv": 1594,
      "appréci": 1595,
      "airement": 1596,
      "principal": 1597,
      "tribu": 1598,
      "alisation": 1599,
      "orité": 1600,
      "annulation": 1601,
      "numéro": 1602,
      "contrac": 1603,
      "Caroli": 1604,
      "muné": 1605,
      "rémuné": 1606,
      "ari": 1607,
      "Caroline": 1608,
      "100": 1609,
      "Texi": 1610,
      "lémentaires": 1611,
      "atoire": 1612,
      "réparation": 1613,
      "effectu": 1614,
      "générale": 1615,
      "oy": 1616,
      "atte": 1617,
      "travaux": 1618,
      "state": 1619,
      "lettre": 1620,
      "mor": 1621,
      "BONN": 1622,
      "ative": 1623,
      "46": 1624,
      "assurances": 1625,
      "assation": 1626,
      "Te": 1627,
      "Constate": 1628,
      "créance": 1629,
      "2012": 1630,
      "Cassation": 1631,
      "ette": 1632,
      "yon": 1633,
      "ot": 1634,
      "représent": 1635,
      "mer": 1636,
      "emploi": 1637,
      "Bonnal": 1638,
      "70": 1639,
      "em": 1640,
      "salaire": 1641,
      "assureur": 1642,
      "BONNAL": 1643,
      "nouve": 1644,
      "demandeur": 1645,
      "ose": 1646,
      "disposition": 1647,
      "quali": 1648,
      "zan": 1649,
      "sement": 1650,
      "déposé": 1651,
      "Vig": 1652,
      "ss": 1653,
      "examen": 1654,
      "séri": 1655,
      "RO": 1656,
      "çant": 1657,
      "hy": 1658,
      "soli": 1659,
      "80": 1660,
      "cadre": 1661,
      "35": 1662,
      "Mmes": 1663,
      "irrecevable": 1664,
      "tent": 1665,
      "mité": 1666,
      "autor": 1667,
      "abinet": 1668,
      "rup": 1669,
      "offi": 1670,
      "européenne": 1671,
      "Un": 1672,
      "Ca": 1673,
      "jours": 1674,
      "gée": 1675,
      "én": 1676,
      "bénéfici": 1677,
      "sailles": 1678,
      "Versailles": 1679,
      "cul": 1680,
      "lant": 1681,
      "libertés": 1682,
      "alable": 1683,
      "maire": 1684,
      "MARS": 1685,
      "partiellement": 1686,
      "accomp": 1687,
      "tot": 1688,
      "personnelle": 1689,
      "pôle": 1690,
      "associés": 1691,
      "cinq": 1692,
      "légal": 1693,
      "renvoie": 1694,
      "seulement": 1695,
      "trouvaient": 1696,
      "section": 1697,
      "venant": 1698,
      "dor": 1699,
      "prud": 1700,
      "suit": 1701,
      "justice": 1702,
      "situation": 1703,
      "mettre": 1704,
      "caracté": 1705,
      "Sal": 1706,
      "banque": 1707,
      "indemnisation": 1708,
      "table": 1709,
      "enti": 1710,
      "retenant": 1711,
      "lin": 1712,
      "fer": 1713,
      "immobilière": 1714,
      "33": 1715,
      "profi": 1716,
      "sauf": 1717,
      "propriétaires": 1718,
      "Brun": 1719,
      "Pé": 1720,
      "bail": 1721,
      "directeur": 1722,
      "ARD": 1723,
      "Lyon": 1724,
      "rations": 1725,
      "garde": 1726,
      "circonst": 1727,
      "ul": 1728,
      "tenue": 1729,
      "fonde": 1730,
      "''": 1731,
      "UX": 1732,
      "loit": 1733,
      "rupture": 1734,
      "DI": 1735,
      "ILLE": 1736,
      "SEP": 1737,
      "velopp": 1738,
      "bon": 1739,
      "laire": 1740,
      "prévu": 1741,
      "caractéris": 1742,
      "ord": 1743,
      "Remet": 1744,
      "agement": 1745,
      "cole": 1746,
      "nier": 1747,
      "six": 1748,
      "solli": 1749,
      "victime": 1750,
      "cement": 1751,
      "lière": 1752,
      "IARD": 1753,
      "SOCIALE": 1754,
      "SOC": 1755,
      "DEUX": 1756,
      "nouveau": 1757,
      "suivant": 1758,
      "exploit": 1759,
      "TEMBRE": 1760,
      "SEPTEMBRE": 1761,
      "grou": 1762,
      "ailleurs": 1763,
      "88": 1764,
      "union": 1765,
      "Thom": 1766,
      "élice": 1767,
      "exis": 1768,
      "Cham": 1769,
      "Thomas": 1770,
      "écar": 1771,
      "déduit": 1772,
      "développ": 1773,
      "égard": 1774,
      "Célice": 1775,
      "profit": 1776,
      "quant": 1777,
      "Des": 1778,
      "MAI": 1779,
      "Texidor": 1780,
      "OI": 1781,
      "pren": 1782,
      "rie": 1783,
      "propriété": 1784,
      "2011": 1785,
      "justifié": 1786,
      "Périer": 1787,
      "jus": 1788,
      "ressor": 1789,
      "cessi": 1790,
      "santé": 1791,
      "point": 1792,
      "oires": 1793,
      "litigi": 1794,
      "vale": 1795,
      "celles": 1796,
      "constate": 1797,
      "ta": 1798,
      "SAF": 1799,
      "SI": 1800,
      "pi": 1801,
      "congés": 1802,
      "IÈME": 1803,
      "recou": 1804,
      "Ren": 1805,
      "cip": 1806,
      "répon": 1807,
      "DEUXIÈME": 1808,
      "cession": 1809,
      "violation": 1810,
      "RIL": 1811,
      "AVRIL": 1812,
      "défini": 1813,
      "contra": 1814,
      "Convention": 1815,
      "lequel": 1816,
      "gret": 1817,
      "actes": 1818,
      "organisation": 1819,
      "enreg": 1820,
      "aise": 1821,
      "tivement": 1822,
      "cotisations": 1823,
      "fondement": 1824,
      "diri": 1825,
      "rechercher": 1826,
      "admission": 1827,
      "manque": 1828,
      "tendant": 1829,
      "portant": 1830,
      "vers": 1831,
      "griefs": 1832,
      "pouvoir": 1833,
      "prononcée": 1834,
      "primaire": 1835,
      "ler": 1836,
      "chéance": 1837,
      "86": 1838,
      "199": 1839,
      "accident": 1840,
      "bey": 1841,
      "provis": 1842,
      "venue": 1843,
      "rol": 1844,
      "désig": 1845,
      "organis": 1846,
      "fai": 1847,
      "véhi": 1848,
      "véhicu": 1849,
      "condamnation": 1850,
      "fac": 1851,
      "sérieuse": 1852,
      "Gati": 1853,
      "peine": 1854,
      "Rebey": 1855,
      "ouvelle": 1856,
      "aître": 1857,
      "Rebeyrol": 1858,
      "SCI": 1859,
      "Gatineau": 1860,
      "Fatt": 1861,
      "ité": 1862,
      "accini": 1863,
      "Fattaccini": 1864,
      "débouter": 1865,
      "ster": 1866,
      "URS": 1867,
      "provisoire": 1868,
      "expos": 1869,
      "2009": 1870,
      "affi": 1871,
      "tière": 1872,
      "ajou": 1873,
      "URSSAF": 1874,
      "résultant": 1875,
      "homme": 1876,
      "région": 1877,
      "sens": 1878,
      "relè": 1879,
      "lar": 1880,
      "due": 1881,
      "copropriétaires": 1882,
      "eton": 1883,
      "ente": 1884,
      "Boré": 1885,
      "documents": 1886,
      "lob": 1887,
      "Rou": 1888,
      "annex": 1889,
      "Mégret": 1890,
      "Salve": 1891,
      "Bruneton": 1892,
      "corre": 1893,
      "réelle": 1894,
      "1009": 1895,
      "quet": 1896,
      "neur": 1897,
      "dix": 1898,
      "liquidation": 1899,
      "soutien": 1900,
      "atteinte": 1901,
      "ame": 1902,
      "perte": 1903,
      ").": 1904,
      "pass": 1905,
      "recouvre": 1906,
      "professionnel": 1907,
      "procès": 1908,
      "quatre": 1909,
      "fa": 1910,
      "Cou": 1911,
      "alisé": 1912,
      "versé": 1913,
      "commerci": 1914,
      "services": 1915,
      "lien": 1916,
      "44": 1917,
      "ôt": 1918,
      "113": 1919,
      "iden": 1920,
      "Mont": 1921,
      "commun": 1922,
      "port": 1923,
      "TA": 1924,
      "autorité": 1925,
      "oeu": 1926,
      "service": 1927,
      "représen": 1928,
      "afféren": 1929,
      "sin": 1930,
      "biens": 1931,
      "matéri": 1932,
      "méconnu": 1933,
      "eau": 1934,
      "taux": 1935,
      "susvisés": 1936,
      "four": 1937,
      "fonds": 1938,
      "correction": 1939,
      "modi": 1940,
      "tuel": 1941,
      "payés": 1942,
      "mandataire": 1943,
      "outre": 1944,
      "ures": 1945,
      "ort": 1946,
      "préalable": 1947,
      "NE": 1948,
      "mbour": 1949,
      "recouvrement": 1950,
      "85": 1951,
      "vol": 1952,
      "devenu": 1953,
      "ticu": 1954,
      "spéci": 1955,
      "pa": 1956,
      "tra": 1957,
      "particu": 1958,
      "ordonné": 1959,
      "rémunération": 1960,
      "contes": 1961,
      "tro": 1962,
      "SAS": 1963,
      "féré": 1964,
      "indu": 1965,
      "Li": 1966,
      "ints": 1967,
      "astre": 1968,
      "erre": 1969,
      "pot": 1970,
      "afin": 1971,
      "mant": 1972,
      "II": 1973,
      "condu": 1974,
      "glob": 1975,
      "vali": 1976,
      "suivie": 1977,
      "telle": 1978,
      "voie": 1979,
      "caution": 1980,
      "autrement": 1981,
      "liation": 1982,
      "ordre": 1983,
      "fami": 1984,
      "2010": 1985,
      "Uni": 1986,
      "REM": 1987,
      "assis": 1988,
      "affec": 1989,
      "cli": 1990,
      "compor": 1991,
      "pes": 1992,
      "gestion": 1993,
      "existe": 1994,
      "CF": 1995,
      "tiré": 1996,
      "seule": 1997,
      "89": 1998,
      "office": 1999,
      "famili": 2000,
      "justifier": 2001,
      "personnes": 2002,
      "élec": 2003,
      "cal": 2004,
      "social": 2005,
      "correspon": 2006,
      "37": 2007,
      "accompli": 2008,
      "prêt": 2009,
      "national": 2010,
      "question": 2011,
      "mail": 2012,
      "jusqu": 2013,
      "affir": 2014,
      "Cabinet": 2015,
      "IG": 2016,
      "84": 2017,
      "auprès": 2018,
      "nationale": 2019,
      "As": 2020,
      "assigné": 2021,
      "expres": 2022,
      "Conseil": 2023,
      "rév": 2024,
      "rent": 2025,
      "Is": 2026,
      "sister": 2027,
      "devait": 2028,
      "sia": 2029,
      "ceux": 2030,
      "exploitation": 2031,
      "mises": 2032,
      "har": 2033,
      "resses": 2034,
      "LARE": 2035,
      "all": 2036,
      "Soci": 2037,
      "médic": 2038,
      "prises": 2039,
      "frais": 2040,
      "82": 2041,
      "PREM": 2042,
      "chac": 2043,
      "contrats": 2044,
      "recueilli": 2045,
      "prix": 2046,
      "istre": 2047,
      "rejeté": 2048,
      "87": 2049,
      "onnement": 2050,
      "fins": 2051,
      "rég": 2052,
      "experti": 2053,
      "restitu": 2054,
      "sément": 2055,
      "depuis": 2056,
      "Société": 2057,
      "mmeu": 2058,
      "Gra": 2059,
      "domiciliés": 2060,
      "Vé": 2061,
      "décret": 2062,
      "immeu": 2063,
      "bér": 2064,
      "ane": 2065,
      "YEN": 2066,
      "1026": 2067,
      "MOYEN": 2068,
      "trait": 2069,
      "critique": 2070,
      "véri": 2071,
      "Gou": 2072,
      "agri": 2073,
      "fois": 2074,
      "verb": 2075,
      "Vi": 2076,
      "net": 2077,
      "vue": 2078,
      "chan": 2079,
      "publiques": 2080,
      "lorsqu": 2081,
      "nécessaire": 2082,
      "Thou": 2083,
      "dée": 2084,
      "sauve": 2085,
      "quent": 2086,
      "désister": 2087,
      "prévoy": 2088,
      "différen": 2089,
      "portion": 2090,
      "DÉCLARE": 2091,
      "vesti": 2092,
      "risque": 2093,
      "règlement": 2094,
      "groupe": 2095,
      "36": 2096,
      "tech": 2097,
      "qualités": 2098,
      "respect": 2099,
      "39": 2100,
      "vision": 2101,
      "supplémentaires": 2102,
      "hon": 2103,
      "55": 2104,
      "agé": 2105,
      "constitue": 2106,
      "nombre": 2107,
      "juridictionnelle": 2108,
      "contribu": 2109,
      "prévue": 2110,
      "font": 2111,
      "déchéance": 2112,
      "rembour": 2113,
      "médi": 2114,
      "oeuvre": 2115,
      "47": 2116,
      "mag": 2117,
      "appli": 2118,
      "infraction": 2119,
      "deme": 2120,
      "proportion": 2121,
      "finances": 2122,
      "peuvent": 2123,
      "certain": 2124,
      "dev": 2125,
      "venus": 2126,
      "jo": 2127,
      "refus": 2128,
      "expertise": 2129,
      "Ha": 2130,
      "plan": 2131,
      "rec": 2132,
      "appe": 2133,
      "sauvegarde": 2134,
      "arr": 2135,
      "ctions": 2136,
      "péremp": 2137,
      "construction": 2138,
      "étran": 2139,
      "nusia": 2140,
      "Vénusia": 2141,
      "résultait": 2142,
      "2008": 2143,
      "français": 2144,
      "Ismail": 2145,
      "ton": 2146,
      "régulière": 2147,
      "nalité": 2148,
      "occu": 2149,
      "redresse": 2150,
      "subi": 2151,
      "huit": 2152,
      "reproc": 2153,
      "démon": 2154,
      "investi": 2155,
      "acqui": 2156,
      "interpré": 2157,
      "matière": 2158,
      "branches": 2159,
      "assemb": 2160,
      "invi": 2161,
      "auteur": 2162,
      "relève": 2163,
      "déterminée": 2164,
      "ament": 2165,
      "quelles": 2166,
      "également": 2167,
      "°)": 2168,
      "Val": 2169,
      "alités": 2170,
      "Caen": 2171,
      "deaux": 2172,
      "empê": 2173,
      "sage": 2174,
      "ano": 2175,
      "diver": 2176,
      "précis": 2177,
      "véhicule": 2178,
      "core": 2179,
      "fier": 2180,
      "déliv": 2181,
      "impossi": 2182,
      "MMA": 2183,
      "rendue": 2184,
      "Cré": 2185,
      "redressement": 2186,
      "rence": 2187,
      "32": 2188,
      "qualification": 2189,
      "mesures": 2190,
      "Far": 2191,
      "cè": 2192,
      "çon": 2193,
      "FIN": 2194,
      "49": 2195,
      "valeur": 2196,
      "ents": 2197,
      "aud": 2198,
      "suiv": 2199,
      "MENT": 2200,
      "TRO": 2201,
      "ress": 2202,
      "crite": 2203,
      "rôle": 2204,
      "TROISI": 2205,
      "IQUE": 2206,
      "len": 2207,
      "ÈRE": 2208,
      "ÉCON": 2209,
      "enf": 2210,
      "ANCI": 2211,
      "OMIQUE": 2212,
      "ERCIALE": 2213,
      "régula": 2214,
      "COMMERCIALE": 2215,
      "FINANCI": 2216,
      "ÉCONOMIQUE": 2217,
      "FINANCIÈRE": 2218,
      "constater": 2219,
      "examiné": 2220,
      "Aux": 2221,
      "quin": 2222,
      "exig": 2223,
      "cteur": 2224,
      "logi": 2225,
      "uy": 2226,
      "moral": 2227,
      "CG": 2228,
      "partement": 2229,
      "65": 2230,
      "comité": 2231,
      "cependant": 2232,
      "relatives": 2233,
      "SIS": 2234,
      "inscription": 2235,
      "Dès": 2236,
      "TEMENT": 2237,
      "SISTEMENT": 2238,
      "terri": 2239,
      "sive": 2240,
      "Vigneau": 2241,
      "Union": 2242,
      "Lab": 2243,
      "PI": 2244,
      "ani": 2245,
      "alloc": 2246,
      "çu": 2247,
      "département": 2248,
      "DÉSISTEMENT": 2249,
      "1re": 2250,
      "contraire": 2251,
      "exclusion": 2252,
      "fiscale": 2253,
      "Sar": 2254,
      "vient": 2255,
      "suivante": 2256,
      "obtenir": 2257,
      "prendre": 2258,
      "diverses": 2259,
      "dû": 2260,
      "dernière": 2261,
      "immeuble": 2262,
      "confirmé": 2263,
      "neu": 2264,
      "quatri": 2265,
      "année": 2266,
      "sieurs": 2267,
      "VIG": 2268,
      "tenait": 2269,
      "_______": 2270,
      "NEAU": 2271,
      "VIGNEAU": 2272,
      "assig": 2273,
      "quatrième": 2274,
      "traite": 2275,
      "remise": 2276,
      "contestation": 2277,
      "ut": 2278,
      "obligations": 2279,
      "solid": 2280,
      "sif": 2281,
      "abit": 2282,
      "condition": 2283,
      "notification": 2284,
      "bâ": 2285,
      "encore": 2286,
      "défendeur": 2287,
      "légales": 2288,
      "fondament": 2289,
      "77": 2290,
      "els": 2291,
      "IÈRE": 2292,
      "péremption": 2293,
      "intéressé": 2294,
      "och": 2295,
      "assure": 2296,
      "compétence": 2297,
      "41": 2298,
      "quels": 2299,
      "hô": 2300,
      "insuffis": 2301,
      "tenti": 2302,
      "solu": 2303,
      "SION": 2304,
      "fié": 2305,
      "ADMISSION": 2306,
      "Ban": 2307,
      "aly": 2308,
      "assuré": 2309,
      "plusieurs": 2310,
      "liberté": 2311,
      "inopé": 2312,
      "doi": 2313,
      "ffre": 2314,
      "455": 2315,
      "Etat": 2316,
      "dommage": 2317,
      "tures": 2318,
      "faisait": 2319,
      "distin": 2320,
      "intégr": 2321,
      "enregist": 2322,
      "agricole": 2323,
      "ÈME": 2324,
      "det": 2325,
      "légis": 2326,
      "assemblée": 2327,
      "TROISIÈME": 2328,
      "Mat": 2329,
      "cepti": 2330,
      "Crédit": 2331,
      "Teiller": 2332,
      "globale": 2333,
      "dép": 2334,
      "orig": 2335,
      "collective": 2336,
      "rap": 2337,
      "afférents": 2338,
      "feu": 2339,
      "jec": 2340,
      "encour": 2341,
      "aide": 2342,
      "mie": 2343,
      "rempla": 2344,
      "Dou": 2345,
      "formu": 2346,
      "établir": 2347,
      "81": 2348,
      "suscepti": 2349,
      "initi": 2350,
      "prisonnement": 2351,
      "immobilier": 2352,
      "concernant": 2353,
      "emprisonnement": 2354,
      "interdiction": 2355,
      "isse": 2356,
      "desti": 2357,
      "débi": 2358,
      "prote": 2359,
      "Ode": 2360,
      "comb": 2361,
      "stri": 2362,
      "roger": 2363,
      "sept": 2364,
      "signi": 2365,
      "PREMIÈRE": 2366,
      "Elle": 2367,
      "relatif": 2368,
      "AM": 2369,
      "bert": 2370,
      "Odesi": 2371,
      "Mais": 2372,
      "homale": 2373,
      "apparti": 2374,
      "cès": 2375,
      "permettant": 2376,
      "capit": 2377,
      "rectifi": 2378,
      "_______________": 2379,
      "TEILLE": 2380,
      "TEILLER": 2381,
      "compens": 2382,
      "infractions": 2383,
      "fondée": 2384,
      ".,": 2385,
      "circonstances": 2386,
      "demandé": 2387,
      "suc": 2388,
      "69": 2389,
      "procéder": 2390,
      "retraite": 2391,
      "pénal": 2392,
      "possi": 2393,
      "atrice": 2394,
      "usage": 2395,
      "lot": 2396,
      "concur": 2397,
      "ado": 2398,
      "ressort": 2399,
      "500": 2400,
      "Caisse": 2401,
      "gation": 2402,
      "aven": 2403,
      "répondre": 2404,
      "maj": 2405,
      "ize": 2406,
      "expressément": 2407,
      "sein": 2408,
      "arrê": 2409,
      "objec": 2410,
      "pose": 2411,
      "impor": 2412,
      "fig": 2413,
      "locat": 2414,
      "cha": 2415,
      "Champ": 2416,
      "doivent": 2417,
      "Eur": 2418,
      "Mi": 2419,
      "déterminant": 2420,
      "résiliation": 2421,
      "énonce": 2422,
      "83": 2423,
      "Mo": 2424,
      "Thi": 2425,
      "da": 2426,
      "expert": 2427,
      "593": 2428,
      "position": 2429,
      "Requête": 2430,
      "engagé": 2431,
      "CT": 2432,
      "Del": 2433,
      "frau": 2434,
      "autoris": 2435,
      "ach": 2436,
      "hors": 2437,
      "Fou": 2438,
      "visi": 2439,
      "Hazan": 2440,
      "éval": 2441,
      "sieur": 2442,
      "réalisé": 2443,
      "tuelles": 2444,
      "formation": 2445,
      "années": 2446,
      "manière": 2447,
      "nard": 2448,
      "contenant": 2449,
      "développées": 2450,
      "Ri": 2451,
      "dait": 2452,
      "jugeant": 2453,
      "Wa": 2454,
      "consor": 2455,
      "infir": 2456,
      "déch": 2457,
      "ENTRE": 2458,
      "consorts": 2459,
      "Waquet": 2460,
      "nie": 2461,
      "Farge": 2462,
      "récla": 2463,
      "coup": 2464,
      "données": 2465,
      "libér": 2466,
      "oraire": 2467,
      "prime": 2468,
      "administrative": 2469,
      "appartient": 2470,
      "aul": 2471,
      "contractuelle": 2472,
      "Grou": 2473,
      "vu": 2474,
      "mal": 2475,
      "ochet": 2476,
      "évi": 2477,
      "aggrav": 2478,
      "soumis": 2479,
      "baille": 2480,
      "exception": 2481,
      "osition": 2482,
      "tat": 2483,
      "familiales": 2484,
      "Gu": 2485,
      "verser": 2486,
      "neuf": 2487,
      "dition": 2488,
      "chose": 2489,
      "rage": 2490,
      "2e": 2491,
      "tations": 2492,
      "débiteur": 2493,
      "Por": 2494,
      "Sain": 2495,
      "ordonn": 2496,
      "compar": 2497,
      "totale": 2498,
      "Moli": 2499,
      "nent": 2500,
      "indemnités": 2501,
      "sollici": 2502,
      "époux": 2503,
      "stipu": 2504,
      "rité": 2505,
      "Tou": 2506,
      "règles": 2507,
      "chaque": 2508,
      "esse": 2509,
      "76": 2510,
      "prévenu": 2511,
      "Pra": 2512,
      "habit": 2513,
      "serait": 2514,
      "AVOI": 2515,
      "AVOIR": 2516,
      "prolon": 2517,
      "demandeurs": 2518,
      "prévues": 2519,
      "française": 2520,
      "54": 2521,
      "commune": 2522,
      "occa": 2523,
      "itaire": 2524,
      "République": 2525,
      "venir": 2526,
      "verbal": 2527,
      "précé": 2528,
      "commission": 2529,
      "statué": 2530,
      "poursui": 2531,
      "techni": 2532,
      "nés": 2533,
      "ureau": 2534,
      "rédu": 2535,
      "procédures": 2536,
      "manquement": 2537,
      "her": 2538,
      "Je": 2539,
      "défenderesses": 2540,
      "harcè": 2541,
      "gement": 2542,
      "magistr": 2543,
      "122": 2544,
      "arrêts": 2545,
      "occasion": 2546,
      "harcèlement": 2547,
      "éten": 2548,
      "og": 2549,
      "978": 2550,
      "terr": 2551,
      "attri": 2552,
      "Rochet": 2553,
      "bois": 2554,
      "quis": 2555,
      "Rocheteau": 2556,
      "Uzan": 2557,
      "Sarano": 2558,
      "hypot": 2559,
      "Goulet": 2560,
      "tres": 2561,
      "connaître": 2562,
      "évalu": 2563,
      "SG": 2564,
      "poste": 2565,
      "2007": 2566,
      "sanction": 2567,
      "restitution": 2568,
      "assurer": 2569,
      "Ax": 2570,
      "sol": 2571,
      "refu": 2572,
      "consul": 2573,
      "réalisation": 2574,
      "engagement": 2575,
      "Euro": 2576,
      "origine": 2577,
      "Froger": 2578,
      "ssard": 2579,
      "Foussard": 2580,
      "évent": 2581,
      "relative": 2582,
      "éventu": 2583,
      "Pou": 2584,
      "lais": 2585,
      "grave": 2586,
      "mmes": 2587,
      "ssements": 2588,
      "exercer": 2589,
      "place": 2590,
      "terme": 2591,
      "directive": 2592,
      "alat": 2593,
      "épi": 2594,
      "nié": 2595,
      "Portée": 2596,
      "consomm": 2597,
      "exac": 2598,
      "avocats": 2599,
      "Banque": 2600,
      "protection": 2601,
      "statut": 2602,
      "correctionnel": 2603,
      "rait": 2604,
      "sursis": 2605,
      "lard": 2606,
      "attribu": 2607,
      "demeure": 2608,
      "confis": 2609,
      "AG": 2610,
      "désigné": 2611,
      "Alpes": 2612,
      "Océ": 2613,
      "trou": 2614,
      "comptes": 2615,
      "cl": 2616,
      "partiel": 2617,
      "istère": 2618,
      "engag": 2619,
      "Bordeaux": 2620,
      "faite": 2621,
      "locataire": 2622,
      "Monsieur": 2623,
      "impossibilité": 2624,
      "remplacement": 2625,
      "XE": 2626,
      "orn": 2627,
      "seconde": 2628,
      "présence": 2629,
      "Associ": 2630,
      "oraires": 2631,
      "légalement": 2632,
      "NV": 2633,
      "ression": 2634,
      "prétentions": 2635,
      "autorisation": 2636,
      "Auc": 2637,
      "riez": 2638,
      "wni": 2639,
      "moine": 2640,
      "mêmes": 2641,
      "élément": 2642,
      "Piwni": 2643,
      "Thiriez": 2644,
      "Molinié": 2645,
      "Piwnica": 2646,
      "propos": 2647,
      "simu": 2648,
      "Di": 2649,
      "cent": 2650,
      "démie": 2651,
      "66": 2652,
      "préavis": 2653,
      "mod": 2654,
      "points": 2655,
      "régime": 2656,
      "Ce": 2657,
      "analy": 2658,
      "renvoy": 2659,
      "nouvelle": 2660,
      "police": 2661,
      "contradic": 2662,
      "aler": 2663,
      "déno": 2664,
      "amende": 2665,
      "Saint": 2666,
      "itime": 2667,
      "correspondant": 2668,
      "oni": 2669,
      "décisions": 2670,
      "annulé": 2671,
      "commiss": 2672,
      "propriétaire": 2673,
      "justifie": 2674,
      "décès": 2675,
      "pel": 2676,
      "Grév": 2677,
      "Comp": 2678,
      "patri": 2679,
      "liste": 2680,
      "75": 2681,
      "LM": 2682,
      "ras": 2683,
      "venin": 2684,
      "dray": 2685,
      "Coudray": 2686,
      "Thouvenin": 2687,
      "Grévy": 2688,
      "commercial": 2689,
      "fourni": 2690,
      "ld": 2691,
      "va": 2692,
      "enten": 2693,
      "réception": 2694,
      "attest": 2695,
      "maî": 2696,
      "gueur": 2697,
      "recevables": 2698,
      "adop": 2699,
      "arrêté": 2700,
      "Océane": 2701,
      "Aucun": 2702,
      "lom": 2703,
      "adressé": 2704,
      "Ven": 2705,
      "expli": 2706,
      "ÉANCE": 2707,
      "CHÉANCE": 2708,
      "DÉCHÉANCE": 2709,
      "territoire": 2710,
      "ous": 2711,
      "ministère": 2712,
      "allocations": 2713,
      "\",": 2714,
      "Lar": 2715,
      "tian": 2716,
      "aillan": 2717,
      "dépend": 2718,
      "régularité": 2719,
      "production": 2720,
      "judiciaires": 2721,
      "certaine": 2722,
      "Gratian": 2723,
      "distinc": 2724,
      "propre": 2725,
      "cédé": 2726,
      "ouverture": 2727,
      "Rennes": 2728,
      "occup": 2729,
      "Ag": 2730,
      "charges": 2731,
      "volon": 2732,
      "bornant": 2733,
      "applicables": 2734,
      "créanci": 2735,
      "».": 2736,
      "dépôt": 2737,
      "bonne": 2738,
      "]-": 2739,
      "um": 2740,
      "Ils": 2741,
      "42": 2742,
      "contrain": 2743,
      "Fin": 2744,
      "épidémie": 2745,
      "]),": 2746,
      "volonté": 2747,
      "juger": 2748,
      "juridi": 2749,
      "ouvrage": 2750,
      "114": 2751,
      "Bar": 2752,
      "accès": 2753,
      "St": 2754,
      "xi": 2755,
      "bureau": 2756,
      "communication": 2757,
      "courrier": 2758,
      "portée": 2759,
      "impos": 2760,
      "mmée": 2761,
      "dissimu": 2762,
      "anmoins": 2763,
      "déj": 2764,
      "version": 2765,
      "capa": 2766,
      "confiscation": 2767,
      "blan": 2768,
      "rés": 2769,
      "acqué": 2770,
      "écarter": 2771,
      "calcul": 2772,
      "Douai": 2773,
      "reprise": 2774,
      "vigueur": 2775,
      "direction": 2776,
      "contradictoire": 2777,
      "Ni": 2778,
      "Van": 2779,
      "hè": 2780,
      "libéral": 2781,
      "ôts": 2782,
      "contenti": 2783,
      "produites": 2784,
      "régionale": 2785,
      "ron": 2786,
      "ple": 2787,
      "créances": 2788,
      "soi": 2789,
      "hommes": 2790,
      "civils": 2791,
      "79": 2792,
      "inst": 2793,
      "ordonner": 2794,
      "unipersonnelle": 2795,
      "opération": 2796,
      "Cor": 2797,
      "ite": 2798,
      "nations": 2799,
      "référé": 2800,
      "présentes": 2801,
      "invoquent": 2802,
      "71": 2803,
      "dépos": 2804,
      "prononcer": 2805,
      "litigieux": 2806,
      "mation": 2807,
      "ide": 2808,
      "impli": 2809,
      "nécessaires": 2810,
      "atif": 2811,
      "suspen": 2812,
      "écrit": 2813,
      "néanmoins": 2814,
      "accep": 2815,
      "DIT": 2816,
      "caractériser": 2817,
      "limite": 2818,
      "rées": 2819,
      "domicile": 2820,
      "empêché": 2821,
      "désor": 2822,
      "CTO": 2823,
      "déjà": 2824,
      "déduire": 2825,
      "sollicité": 2826,
      "uc": 2827,
      "pourtant": 2828,
      "collectif": 2829,
      "façon": 2830,
      "prévoi": 2831,
      "Conseils": 2832,
      "commissaire": 2833,
      "Fon": 2834,
      "versées": 2835,
      "OCTO": 2836,
      "gue": 2837,
      "treize": 2838,
      "constitutionnalité": 2839,
      "OCTOBRE": 2840,
      "43": 2841,
      "opérations": 2842,
      "Chau": 2843,
      "reproch": 2844,
      "gn": 2845,
      "imm": 2846,
      "tt": 2847,
      "troni": 2848,
      "131": 2849,
      "remboursement": 2850,
      "ault": 2851,
      "bénéfice": 2852,
      "dénommée": 2853,
      "moment": 2854,
      "traitement": 2855,
      "dét": 2856,
      "dier": 2857,
      "ensuite": 2858,
      "classement": 2859,
      "gran": 2860,
      "comman": 2861,
      "industri": 2862,
      "porter": 2863,
      "CP": 2864,
      "cro": 2865,
      "prior": 2866,
      "romp": 2867,
      "fermet": 2868,
      "exigences": 2869,
      "figur": 2870,
      "2004": 2871,
      "bes": 2872,
      "can": 2873,
      "ds": 2874,
      "assisté": 2875,
      "seau": 2876,
      "connex": 2877,
      "projet": 2878,
      "permis": 2879,
      "Axa": 2880,
      "prati": 2881,
      "criti": 2882,
      "99": 2883,
      "Cat": 2884,
      "civiles": 2885,
      "impu": 2886,
      "prononçant": 2887,
      "démontre": 2888,
      "méde": 2889,
      "RENV": 2890,
      "affaires": 2891,
      "gne": 2892,
      "bâti": 2893,
      "uses": 2894,
      "accueilli": 2895,
      "ports": 2896,
      "Pôle": 2897,
      "are": 2898,
      "relation": 2899,
      "concurrence": 2900,
      "contradiction": 2901,
      "retenir": 2902,
      "fixé": 2903,
      "chacun": 2904,
      "ssi": 2905,
      "sition": 2906,
      "tec": 2907,
      "couver": 2908,
      "Mu": 2909,
      "veu": 2910,
      "forfait": 2911,
      "prob": 2912,
      "dirigé": 2913,
      "Bour": 2914,
      "FD": 2915,
      "Gil": 2916,
      "complémentaires": 2917,
      "impôts": 2918,
      "résidence": 2919,
      "tor": 2920,
      "volu": 2921,
      "sent": 2922,
      "maine": 2923,
      "prestations": 2924,
      "complément": 2925,
      "postérieure": 2926,
      "Code": 2927,
      "crédit": 2928,
      "coupable": 2929,
      "Gilbert": 2930,
      "53": 2931,
      "condamnant": 2932,
      "Prado": 2933,
      "times": 2934,
      "pin": 2935,
      "pie": 2936,
      "gie": 2937,
      "électroni": 2938,
      "capital": 2939,
      "important": 2940,
      "allou": 2941,
      "nécessairement": 2942,
      "lés": 2943,
      "versement": 2944,
      "Rhô": 2945,
      "informé": 2946,
      "fondamentales": 2947,
      "ez": 2948,
      "abus": 2949,
      "AS": 2950,
      "débat": 2951,
      "auto": 2952,
      "constru": 2953,
      "indemnis": 2954,
      "osière": 2955,
      "quinze": 2956,
      "Champfeu": 2957,
      "Larosière": 2958,
      "capacité": 2959,
      "Rhône": 2960,
      "vertu": 2961,
      "han": 2962,
      "placement": 2963,
      "appréciation": 2964,
      "RG": 2965,
      "cen": 2966,
      "entreprises": 2967,
      "conventionnelle": 2968,
      "subsi": 2969,
      "reçu": 2970,
      "las": 2971,
      "isme": 2972,
      "accu": 2973,
      "représentée": 2974,
      "exactement": 2975,
      "tiques": 2976,
      "engagée": 2977,
      "pement": 2978,
      "encourue": 2979,
      "examiner": 2980,
      "client": 2981,
      "contentieux": 2982,
      "geant": 2983,
      "fonctions": 2984,
      "compris": 2985,
      "héri": 2986,
      "2006": 2987,
      "médecin": 2988,
      "veuve": 2989,
      "entrée": 2990,
      "transport": 2991,
      "erreur": 2992,
      "dispos": 2993,
      "atives": 2994,
      "naire": 2995,
      "lesquelles": 2996,
      "preneur": 2997,
      "procédé": 2998,
      "Montpel": 2999,
      "étrang": 3000,
      "Montpellier": 3001,
      "ade": 3002,
      "particip": 3003,
      "esti": 3004,
      "confor": 3005,
      "départ": 3006,
      "qués": 3007,
      "condamnations": 3008,
      "désignée": 3009,
      "Cad": 3010,
      "ér": 3011,
      "relevant": 3012,
      "insuffisance": 3013,
      "Moyen": 3014,
      "tier": 3015,
      "assises": 3016,
      "dues": 3017,
      "perman": 3018,
      "tenus": 3019,
      "52": 3020,
      "Fabi": 3021,
      "dum": 3022,
      "rich": 3023,
      "acquére": 3024,
      "préjudices": 3025,
      "apprécier": 3026,
      "énoncé": 3027,
      "spécifi": 3028,
      "entretien": 3029,
      "Che": 3030,
      "document": 3031,
      "prévoyance": 3032,
      "hypothè": 3033,
      "taire": 3034,
      "Cadastre": 3035,
      "prun": 3036,
      "jugée": 3037,
      "prescri": 3038,
      "JUILLE": 3039,
      "emprun": 3040,
      "JUILLET": 3041,
      "ciation": 3042,
      "conserv": 3043,
      "subsidi": 3044,
      "cite": 3045,
      "seules": 3046,
      "solidum": 3047,
      "lesquels": 3048,
      "amén": 3049,
      "supéri": 3050,
      "lloc": 3051,
      "del": 3052,
      "conséquent": 3053,
      "mutuel": 3054,
      "titude": 3055,
      "ajoute": 3056,
      "référendaires": 3057,
      "toine": 3058,
      "Antoine": 3059,
      "repos": 3060,
      "fermeture": 3061,
      "nor": 3062,
      "requalification": 3063,
      "formées": 3064,
      "1134": 3065,
      "vérifier": 3066,
      "ier": 3067,
      "nécessi": 3068,
      "marché": 3069,
      "mensu": 3070,
      "Renault": 3071,
      "cations": 3072,
      "vation": 3073,
      "hauteur": 3074,
      "archi": 3075,
      "prononcées": 3076,
      "oble": 3077,
      "2005": 3078,
      "astreinte": 3079,
      "reclassement": 3080,
      "agir": 3081,
      "..": 3082,
      "discrimin": 3083,
      "rejetée": 3084,
      "relever": 3085,
      "représentant": 3086,
      "représenté": 3087,
      "susceptible": 3088,
      "anciennement": 3089,
      "Stoc": 3090,
      "Boulloc": 3091,
      "constitutionnel": 3092,
      "modalités": 3093,
      "Boulloche": 3094,
      "TH": 3095,
      "cier": 3096,
      "Gren": 3097,
      "Taillan": 3098,
      "èle": 3099,
      "ines": 3100,
      "certifi": 3101,
      "Cap": 3102,
      "Ler": 3103,
      "atel": 3104,
      "RENVOI": 3105,
      "38": 3106,
      "go": 3107,
      "obst": 3108,
      "responsable": 3109,
      "expir": 3110,
      "retard": 3111,
      "48": 3112,
      "Ala": 3113,
      "Jean": 3114,
      "patrimoine": 3115,
      "Flo": 3116,
      "vende": 3117,
      "professionnels": 3118,
      "souver": 3119,
      "éch": 3120,
      "card": 3121,
      "maintien": 3122,
      "ires": 3123,
      "vaient": 3124,
      "confi": 3125,
      "stitution": 3126,
      "nt": 3127,
      "op": 3128,
      "considération": 3129,
      "dette": 3130,
      "Ber": 3131,
      "satis": 3132,
      "notifié": 3133,
      "Leroy": 3134,
      "Alli": 3135,
      "Bu": 3136,
      "ocation": 3137,
      "expropri": 3138,
      "délit": 3139,
      "appelant": 3140,
      "Grenoble": 3141,
      "liv": 3142,
      "saur": 3143,
      "agent": 3144,
      "Stoclet": 3145,
      "nte": 3146,
      "incomb": 3147,
      "Colin": 3148,
      "utilis": 3149,
      "lombi": 3150,
      "Sud": 3151,
      "urg": 3152,
      "professionnelles": 3153,
      "]-[": 3154,
      "Taillandier": 3155,
      "411": 3156,
      "CM": 3157,
      "bailleur": 3158,
      "Gran": 3159,
      "porte": 3160,
      "locaux": 3161,
      "juridique": 3162,
      "lieux": 3163,
      "vement": 3164,
      "Char": 3165,
      "régulièrement": 3166,
      "ING": 3167,
      "utili": 3168,
      "circonstance": 3169,
      "Nord": 3170,
      "suffisamment": 3171,
      "volont": 3172,
      "Vio": 3173,
      "67": 3174,
      "Gis": 3175,
      "tenues": 3176,
      "singer": 3177,
      "Gissinger": 3178,
      "BT": 3179,
      "Colombi": 3180,
      "tels": 3181,
      "431": 3182,
      "Ad": 3183,
      "Tr": 3184,
      "présenter": 3185,
      "législation": 3186,
      "Ci": 3187,
      "pièce": 3188,
      "mémoires": 3189,
      "624": 3190,
      "éché": 3191,
      "uré": 3192,
      "directement": 3193,
      "Europe": 3194,
      "EXE": 3195,
      "GE": 3196,
      "ANNEXE": 3197,
      "Fran": 3198,
      "VA": 3199,
      "dité": 3200,
      "inopérant": 3201,
      "Pin": 3202,
      "acquis": 3203,
      "causé": 3204,
      "enfants": 3205,
      "herine": 3206,
      "Catherine": 3207,
      "fav": 3208,
      "choi": 3209,
      "administrateur": 3210,
      "possibilité": 3211,
      "Colombie": 3212,
      "Nî": 3213,
      "ang": 3214,
      "col": 3215,
      "lance": 3216,
      "débouté": 3217,
      "Nîmes": 3218,
      "'[": 3219,
      "revenus": 3220,
      "privée": 3221,
      "habitation": 3222,
      "beso": 3223,
      "délég": 3224,
      "ISS": 3225,
      "condamnée": 3226,
      "obligatoire": 3227,
      "enquête": 3228,
      "dénat": 3229,
      "lletin": 3230,
      "indivi": 3231,
      "annexé": 3232,
      "57": 3233,
      "télé": 3234,
      "fiscales": 3235,
      "tribution": 3236,
      "accomplies": 3237,
      "Luc": 3238,
      "Dau": 3239,
      "litigieuse": 3240,
      "neté": 3241,
      "étu": 3242,
      "immédi": 3243,
      "Ami": 3244,
      "Ma": 3245,
      "Sy": 3246,
      "sociales": 3247,
      "dispen": 3248,
      "référence": 3249,
      "chacune": 3250,
      "excessi": 3251,
      "ki": 3252,
      "culation": 3253,
      "délibération": 3254,
      "réglement": 3255,
      "libre": 3256,
      "placé": 3257,
      "assistée": 3258,
      "onze": 3259,
      "lées": 3260,
      "452": 3261,
      "otte": 3262,
      "enregistré": 3263,
      "dépendance": 3264,
      "prévoit": 3265,
      "Pinatel": 3266,
      "Lau": 3267,
      "allégu": 3268,
      "effectivement": 3269,
      "ancienneté": 3270,
      "moi": 3271,
      "mée": 3272,
      "lations": 3273,
      "consenti": 3274,
      "prioritaire": 3275,
      "ess": 3276,
      "103": 3277,
      "2003": 3278,
      "alisée": 3279,
      "créancier": 3280,
      "proposé": 3281,
      "louse": 3282,
      "Ro": 3283,
      "résolu": 3284,
      "Thaler": 3285,
      "Toulouse": 3286,
      "Nico": 3287,
      "Fabiani": 3288,
      "mbres": 3289,
      "intention": 3290,
      "bas": 3291,
      "foi": 3292,
      "levée": 3293,
      "ellement": 3294,
      "violen": 3295,
      "exclusive": 3296,
      "but": 3297,
      "convient": 3298,
      "appartenant": 3299,
      "douze": 3300,
      "quait": 3301,
      "diffi": 3302,
      "rectification": 3303,
      "poursuit": 3304,
      "aye": 3305,
      "signature": 3306,
      "fixer": 3307,
      "titulaire": 3308,
      "plein": 3309,
      "51": 3310,
      "habi": 3311,
      "conti": 3312,
      "Mich": 3313,
      "Dav": 3314,
      "gori": 3315,
      "délais": 3316,
      "amou": 3317,
      "Monge": 3318,
      "provision": 3319,
      "ROY": 3320,
      "GISS": 3321,
      "membres": 3322,
      "courir": 3323,
      "LEROY": 3324,
      "INGER": 3325,
      "GISSINGER": 3326,
      "réponse": 3327,
      "chés": 3328,
      "prolongation": 3329,
      "tari": 3330,
      "entraîne": 3331,
      "individu": 3332,
      "pit": 3333,
      "dénature": 3334,
      "rog": 3335,
      "déclarée": 3336,
      "présenté": 3337,
      "informations": 3338,
      "refusé": 3339,
      "expiration": 3340,
      "savoir": 3341,
      "rieur": 3342,
      "discip": 3343,
      "Mamou": 3344,
      "jon": 3345,
      "dénaturer": 3346,
      "01": 3347,
      "Bel": 3348,
      "Su": 3349,
      "abri": 3350,
      "serve": 3351,
      "recevoir": 3352,
      "fraude": 3353,
      "bru": 3354,
      "ky": 3355,
      "interjet": 3356,
      "agnie": 3357,
      "disproportion": 3358,
      "empor": 3359,
      "consommation": 3360,
      "dres": 3361,
      "chargé": 3362,
      "contrainte": 3363,
      "devenue": 3364,
      "Lapass": 3365,
      "prestation": 3366,
      "ressée": 3367,
      "Associés": 3368,
      "Lapasset": 3369,
      "réalité": 3370,
      "irrecevables": 3371,
      "ladite": 3372,
      "Carras": 3373,
      "douan": 3374,
      "oyer": 3375,
      "Carrasco": 3376,
      "Bau": 3377,
      "tégori": 3378,
      "die": 3379,
      "catégori": 3380,
      "risques": 3381,
      "identifi": 3382,
      "étranger": 3383,
      "atoires": 3384,
      "quième": 3385,
      "1240": 3386,
      "aît": 3387,
      "Jo": 3388,
      "Rob": 3389,
      "ke": 3390,
      "Réunion": 3391,
      "cinquième": 3392,
      "Rousse": 3393,
      "correctionnelle": 3394,
      "bar": 3395,
      "parcelle": 3396,
      "produis": 3397,
      "oly": 3398,
      "bénéficier": 3399,
      "Venez": 3400,
      "Aide": 3401,
      "Vaiss": 3402,
      "fest": 3403,
      "auquel": 3404,
      "statue": 3405,
      "cessation": 3406,
      "Vaissette": 3407,
      "317": 3408,
      "sier": 3409,
      "intervention": 3410,
      "compensatrice": 3411,
      "ciations": 3412,
      "renon": 3413,
      "abu": 3414,
      "intervenue": 3415,
      "gnac": 3416,
      "hypothèse": 3417,
      "soins": 3418,
      "oste": 3419,
      "comptable": 3420,
      "effets": 3421,
      "gré": 3422,
      "règle": 3423,
      "591": 3424,
      "invitée": 3425,
      "figurant": 3426,
      "LAN": 3427,
      "stu": 3428,
      "concerne": 3429,
      "id": 3430,
      "rig": 3431,
      "OMAS": 3432,
      "manifest": 3433,
      "ILLAN": 3434,
      "DIER": 3435,
      "TAILLAN": 3436,
      "fourn": 3437,
      "THOMAS": 3438,
      "TAILLANDIER": 3439,
      "nait": 3440,
      "ury": 3441,
      "MON": 3442,
      "Mali": 3443,
      "phy": 3444,
      "uela": 3445,
      "pouvant": 3446,
      "Mari": 3447,
      "grande": 3448,
      "offre": 3449,
      "conforme": 3450,
      "indépen": 3451,
      "div": 3452,
      "server": 3453,
      "dants": 3454,
      "Venezuela": 3455,
      "bulletin": 3456,
      "sable": 3457,
      "salaires": 3458,
      "finance": 3459,
      "présentée": 3460,
      "Ing": 3461,
      "major": 3462,
      "Rousseau": 3463,
      "Malignac": 3464,
      "Tap": 3465,
      "fondant": 3466,
      "tocole": 3467,
      "saisine": 3468,
      "régional": 3469,
      "recherche": 3470,
      "vin": 3471,
      "présentées": 3472,
      "solde": 3473,
      "Besse": 3474,
      "livre": 3475,
      "légitime": 3476,
      "121": 3477,
      "Centre": 3478,
      "xe": 3479,
      "escro": 3480,
      "parts": 3481,
      "dissimulé": 3482,
      "3e": 3483,
      "ratta": 3484,
      "particulier": 3485,
      "Ile": 3486,
      "antéri": 3487,
      "victimes": 3488,
      "continu": 3489,
      "escroquer": 3490,
      "Mol": 3491,
      "cabinet": 3492,
      "maison": 3493,
      "physi": 3494,
      "Tapie": 3495,
      "SL": 3496,
      "soient": 3497,
      "discrimination": 3498,
      "inap": 3499,
      "inexécution": 3500,
      "incapacité": 3501,
      "dispose": 3502,
      "juridictions": 3503,
      "ORDONNE": 3504,
      "seuls": 3505,
      "om": 3506,
      "mutuelles": 3507,
      "aménagement": 3508,
      "AF": 3509,
      "bag": 3510,
      "trente": 3511,
      "agnier": 3512,
      "certaines": 3513,
      "intégralité": 3514,
      "Capit": 3515,
      "précise": 3516,
      "associé": 3517,
      "suivants": 3518,
      "magistrats": 3519,
      "Amiens": 3520,
      "MJ": 3521,
      "enn": 3522,
      "amp": 3523,
      "Marti": 3524,
      "bâtiment": 3525,
      "Mollard": 3526,
      "GM": 3527,
      "arbi": 3528,
      "duquel": 3529,
      "difficul": 3530,
      "Bauer": 3531,
      "Cav": 3532,
      "cat": 3533,
      "èvre": 3534,
      "auté": 3535,
      "EA": 3536,
      "Pe": 3537,
      "confirmer": 3538,
      "Ga": 3539,
      "Ou": 3540,
      "syst": 3541,
      "ordin": 3542,
      "nouv": 3543,
      "causes": 3544,
      "constitué": 3545,
      "cadu": 3546,
      "aitre": 3547,
      "rousse": 3548,
      "développement": 3549,
      "interprétation": 3550,
      "FB": 3551,
      "recomman": 3552,
      "compétent": 3553,
      "Violas": 3554,
      "Fes": 3555,
      "Iso": 3556,
      "Kar": 3557,
      "reven": 3558,
      "effectué": 3559,
      "validité": 3560,
      "acquisition": 3561,
      "AGS": 3562,
      "saurait": 3563,
      "Fesch": 3564,
      "Lan": 3565,
      "Rame": 3566,
      "inf": 3567,
      "compt": 3568,
      "précité": 3569,
      "appartenait": 3570,
      "Desbois": 3571,
      "particuli": 3572,
      "Labrousse": 3573,
      "Rameix": 3574,
      "hame": 3575,
      "péfi": 3576,
      "financier": 3577,
      "stupéfi": 3578,
      "MONGE": 3579,
      "Feschotte": 3580,
      "yant": 3581,
      "simple": 3582,
      "régulier": 3583,
      "enregistre": 3584,
      "contesté": 3585,
      "Pont": 3586,
      "reconnaissance": 3587,
      "coût": 3588,
      "prévaloir": 3589,
      "réinscription": 3590,
      "anz": 3591,
      "autori": 3592,
      "istres": 3593,
      "Duhame": 3594,
      "Sebag": 3595,
      "Duhamel": 3596,
      "Sebagh": 3597,
      "02": 3598,
      "Let": 3599,
      "hen": 3600,
      "intro": 3601,
      "transcription": 3602,
      "derniers": 3603,
      "introdu": 3604,
      "huis": 3605,
      "Montagnier": 3606,
      "étendue": 3607,
      "maître": 3608,
      "Ingall": 3609,
      "caire": 3610,
      "popu": 3611,
      "CGT": 3612,
      "Hu": 3613,
      "désignation": 3614,
      "Coutou": 3615,
      "stupéfiants": 3616,
      "poursuite": 3617,
      "pouvaient": 3618,
      "établie": 3619,
      "Group": 3620,
      "postérieurement": 3621,
      "ôte": 3622,
      "copropriété": 3623,
      "réduction": 3624,
      "adoptés": 3625,
      "opposition": 3626,
      "mettant": 3627,
      "limites": 3628,
      "auraient": 3629,
      "Duval": 3630,
      "reconnu": 3631,
      "lié": 3632,
      "ourneur": 3633,
      "agré": 3634,
      "Allianz": 3635,
      "Admission": 3636,
      "Letourneur": 3637,
      "Est": 3638,
      "opéra": 3639,
      "dénaturé": 3640,
      "ty": 3641,
      "extra": 3642,
      "invoquée": 3643,
      "garantir": 3644,
      "considéré": 3645,
      "attestation": 3646,
      "Cr": 3647,
      "Maitre": 3648,
      "cy": 3649,
      "rend": 3650,
      "rente": 3651,
      "prescrite": 3652,
      "publics": 3653,
      "définitive": 3654,
      "Ayant": 3655,
      "Gury": 3656,
      "Spin": 3657,
      "proposition": 3658,
      "veil": 3659,
      "nive": 3660,
      "peines": 3661,
      "architec": 3662,
      "Den": 3663,
      "FI": 3664,
      "présu": 3665,
      "appé": 3666,
      "impression": 3667,
      "activités": 3668,
      "engage": 3669,
      "poursuites": 3670,
      "actif": 3671,
      "essenti": 3672,
      "dus": 3673,
      "plainte": 3674,
      "suppos": 3675,
      "soumise": 3676,
      "déterminer": 3677,
      "Rin": 3678,
      "lait": 3679,
      "assurée": 3680,
      "joints": 3681,
      "sab": 3682,
      "justification": 3683,
      "énonçant": 3684,
      "Forn": 3685,
      "zi": 3686,
      "deli": 3687,
      "sociaux": 3688,
      "journ": 3689,
      "Som": 3690,
      "assignation": 3691,
      "arelli": 3692,
      "Fornarelli": 3693,
      "61": 3694,
      "Lav": 3695,
      "indéterminée": 3696,
      "Alain": 3697,
      "Rinuy": 3698,
      "ons": 3699,
      "ung": 3700,
      "passif": 3701,
      "agents": 3702,
      "Graff": 3703,
      "RB": 3704,
      "dret": 3705,
      "Col": 3706,
      "effectuées": 3707,
      "cautionnement": 3708,
      "vendeur": 3709,
      "Daudret": 3710,
      "Spinosi": 3711,
      "rois": 3712,
      "vari": 3713,
      "chans": 3714,
      "registres": 3715,
      "escroquerie": 3716,
      "affirmant": 3717,
      "honoraires": 3718,
      "remettre": 3719,
      "irrégularité": 3720,
      "organisme": 3721,
      "électronique": 3722,
      "délégation": 3723,
      "Ser": 3724,
      "centre": 3725,
      "rédi": 3726,
      "notaire": 3727,
      "exigi": 3728,
      "arbitr": 3729,
      "mage": 3730,
      "Fonds": 3731,
      "63": 3732,
      "Laye": 3733,
      "exercé": 3734,
      "Poupot": 3735,
      "delièvre": 3736,
      "Dans": 3737,
      "uchans": 3738,
      "pertes": 3739,
      "impôt": 3740,
      "Matuchans": 3741,
      "connexité": 3742,
      "Matuchansky": 3743,
      "je": 3744,
      "chance": 3745,
      "abst": 3746,
      "dernières": 3747,
      "Valdelièvre": 3748,
      "Layemar": 3749,
      "Eli": 3750,
      "avantage": 3751,
      "douanes": 3752,
      "préciser": 3753,
      "old": 3754,
      "énonciations": 3755,
      "456": 3756,
      "Jou": 3757,
      "Loire": 3758,
      "vest": 3759,
      "inclu": 3760,
      "céder": 3761,
      "transports": 3762,
      "ordonnée": 3763,
      "terrain": 3764,
      "anneau": 3765,
      "location": 3766,
      "médical": 3767,
      "occupation": 3768,
      "RENVOIE": 3769,
      "Lance": 3770,
      "diff": 3771,
      "souscrit": 3772,
      "Isola": 3773,
      "Denis": 3774,
      "Poi": 3775,
      "répu": 3776,
      "protocole": 3777,
      "générales": 3778,
      "intervenu": 3779,
      "international": 3780,
      "constituait": 3781,
      "rev": 3782,
      "eth": 3783,
      "marchan": 3784,
      "exécuter": 3785,
      "facul": 3786,
      "Mutuelle": 3787,
      "absten": 3788,
      "1382": 3789,
      "conclusion": 3790,
      "uniquement": 3791,
      "désordres": 3792,
      "violences": 3793,
      "faux": 3794,
      "transfer": 3795,
      "lange": 3796,
      "parer": 3797,
      "surplus": 3798,
      "interjeté": 3799,
      "VS": 3800,
      "rale": 3801,
      "dépour": 3802,
      "dom": 3803,
      "effective": 3804,
      "versée": 3805,
      "vocation": 3806,
      "réseau": 3807,
      "chau": 3808,
      "force": 3809,
      "commande": 3810,
      "européen": 3811,
      "technique": 3812,
      "huissier": 3813,
      "mou": 3814,
      "tan": 3815,
      "dive": 3816,
      "premiers": 3817,
      "constituer": 3818,
      "rempli": 3819,
      "préalablement": 3820,
      "participation": 3821,
      "rur": 3822,
      "voque": 3823,
      "système": 3824,
      "Jouanneau": 3825,
      "Dur": 3826,
      "Iard": 3827,
      "vaut": 3828,
      "imparti": 3829,
      "chez": 3830,
      "écritures": 3831,
      "hier": 3832,
      "Bén": 3833,
      "membre": 3834,
      "abent": 3835,
      "agne": 3836,
      "enfant": 3837,
      "Côte": 3838,
      "IE": 3839,
      "Man": 3840,
      "jam": 3841,
      "directe": 3842,
      "Boucard": 3843,
      "Thouin": 3844,
      "Bénabent": 3845,
      "Palat": 3846,
      "réci": 3847,
      "132": 3848,
      "irrecevabilité": 3849,
      "direct": 3850,
      "fixation": 3851,
      "Boyer": 3852,
      "égalité": 3853,
      "Bru": 3854,
      "IR": 3855,
      "pru": 3856,
      "visés": 3857,
      "exposant": 3858,
      "trouve": 3859,
      "déclarations": 3860,
      "établiss": 3861,
      "matériel": 3862,
      "comportement": 3863,
      "écarté": 3864,
      "pouvoirs": 3865,
      "dération": 3866,
      "objectifs": 3867,
      "comparu": 3868,
      "onnier": 3869,
      "bano": 3870,
      "enregistrée": 3871,
      "Delbano": 3872,
      "niveau": 3873,
      "phon": 3874,
      "Capitaine": 3875,
      "Pontonnier": 3876,
      "2000": 3877,
      "1015": 3878,
      "divor": 3879,
      "58": 3880,
      "quit": 3881,
      "matique": 3882,
      "igne": 3883,
      "assistance": 3884,
      "signification": 3885,
      "transfert": 3886,
      "jamais": 3887,
      "porté": 3888,
      "établissements": 3889,
      "quator": 3890,
      "électri": 3891,
      "expliquer": 3892,
      "instal": 3893,
      "Alors": 3894,
      "ainement": 3895,
      "site": 3896,
      "ources": 3897,
      "sés": 3898,
      "chargée": 3899,
      "temporaire": 3900,
      "toutefois": 3901,
      "périodes": 3902,
      "poursuivi": 3903,
      "spécifique": 3904,
      "Ouest": 3905,
      "enfin": 3906,
      "décompte": 3907,
      "acle": 3908,
      "effectif": 3909,
      "ouverte": 3910,
      "travaille": 3911,
      "verse": 3912,
      "constatée": 3913,
      "principes": 3914,
      "hos": 3915,
      "ome": 3916,
      "ry": 3917,
      "parcelles": 3918,
      "prévention": 3919,
      "complémentaire": 3920,
      "3171": 3921,
      "SN": 3922,
      "voqué": 3923,
      "éli": 3924,
      "cel": 3925,
      "dessus": 3926,
      "Azur": 3927,
      "prétendre": 3928,
      "certains": 3929,
      "blanchi": 3930,
      "disciplin": 3931,
      "remis": 3932,
      "distribution": 3933,
      "211": 3934,
      "interromp": 3935,
      "2002": 3936,
      "impropres": 3937,
      "issance": 3938,
      "706": 3939,
      "analyse": 3940,
      "Civ": 3941,
      "Bas": 3942,
      "rants": 3943,
      "décédé": 3944,
      "euses": 3945,
      "questions": 3946,
      "mutuelle": 3947,
      "And": 3948,
      "Franç": 3949,
      "blanchiment": 3950,
      "travailleurs": 3951,
      "opposable": 3952,
      "joint": 3953,
      "État": 3954,
      "réserv": 3955,
      "contrepartie": 3956,
      "rante": 3957,
      "clusion": 3958,
      "glo": 3959,
      "mét": 3960,
      "agi": 3961,
      "exposés": 3962,
      "autorités": 3963,
      "ORe": 3964,
      "nou": 3965,
      "annuler": 3966,
      "fixe": 3967,
      "réalisés": 3968,
      "senty": 3969,
      "Karsenty": 3970,
      "revendi": 3971,
      "Durin": 3972,
      "cur": 3973,
      "rendus": 3974,
      "législa": 3975,
      "prudence": 3976,
      "vés": 3977,
      "alier": 3978,
      "adhé": 3979,
      "experts": 3980,
      "considérant": 3981,
      "Grand": 3982,
      "défin": 3983,
      "intég": 3984,
      "évaluation": 3985,
      "certificat": 3986,
      "rel": 3987,
      "145": 3988,
      "intervenir": 3989,
      "Martin": 3990,
      "valier": 3991,
      "démontrer": 3992,
      "Chevalier": 3993,
      "Coste": 3994,
      "ECF": 3995,
      "courant": 3996,
      "Floret": 3997,
      "Mariette": 3998,
      "SL2": 3999,
      "PA": 4000,
      "vous": 4001,
      "auton": 4002,
      "avenant": 4003,
      "Lavaud": 4004,
      "quatorze": 4005,
      "92": 4006,
      "Bi": 4007,
      "Mer": 4008,
      "heb": 4009,
      "obstacle": 4010,
      "618": 4011,
      "OD": 4012,
      "Une": 4013,
      "réf": 4014,
      "Lion": 4015,
      "consultation": 4016,
      "OY": 4017,
      "pho": 4018,
      "chement": 4019,
      "rents": 4020,
      "susceptibles": 4021,
      "valable": 4022,
      "telles": 4023,
      "adame": 4024,
      "Groupe": 4025,
      "arri": 4026,
      "indre": 4027,
      "aussi": 4028,
      "réqui": 4029,
      "inscri": 4030,
      "déclare": 4031,
      "exerçant": 4032,
      "annexe": 4033,
      "CPAM": 4034,
      "Trans": 4035,
      "veillance": 4036,
      "73": 4037,
      "apos": 4038,
      "emb": 4039,
      "retenue": 4040,
      "bande": 4041,
      "expropriation": 4042,
      "Colmar": 4043,
      "Si": 4044,
      "quoi": 4045,
      "sie": 4046,
      "perçu": 4047,
      "104": 4048,
      "déclarant": 4049,
      "populaire": 4050,
      "Ap": 4051,
      "concl": 4052,
      "Inter": 4053,
      "échéant": 4054,
      "Poitiers": 4055,
      "62": 4056,
      "Bos": 4057,
      "tir": 4058,
      "rejetant": 4059,
      "Dumont": 4060,
      "matérielle": 4061,
      "ologi": 4062,
      "dite": 4063,
      "révé": 4064,
      "vir": 4065,
      "inscrite": 4066,
      "matif": 4067,
      "respectivement": 4068,
      "affectant": 4069,
      "hospit": 4070,
      "Has": 4071,
      "off": 4072,
      "lec": 4073,
      "parag": 4074,
      "fili": 4075,
      "candi": 4076,
      "XX": 4077,
      "infé": 4078,
      "équivoque": 4079,
      "déchu": 4080,
      "magistrat": 4081,
      "paragrap": 4082,
      "tur": 4083,
      "réserve": 4084,
      "agence": 4085,
      "déterminé": 4086,
      "gravité": 4087,
      "attribution": 4088,
      "nécessité": 4089,
      "sabeth": 4090,
      "Elisabeth": 4091,
      "sation": 4092,
      "oné": 4093,
      "surance": 4094,
      "gérant": 4095,
      "INE": 4096,
      "souscri": 4097,
      "relatifs": 4098,
      "Piet": 4099,
      "supposer": 4100,
      "OU": 4101,
      "gra": 4102,
      "tie": 4103,
      "anim": 4104,
      "partir": 4105,
      "session": 4106,
      "clauses": 4107,
      "organisée": 4108,
      "Rouen": 4109,
      "raphi": 4110,
      "Gue": 4111,
      "HP": 4112,
      "critiqués": 4113,
      "acquéreur": 4114,
      "4e": 4115,
      "tité": 4116,
      "manquements": 4117,
      "contestée": 4118,
      "clients": 4119,
      "Cependant": 4120,
      "enregistrement": 4121,
      "Gui": 4122,
      "LI": 4123,
      "taient": 4124,
      "redev": 4125,
      "réparer": 4126,
      "loyers": 4127,
      "hold": 4128,
      "justifiée": 4129,
      "indiqué": 4130,
      "délivrance": 4131,
      "catégorie": 4132,
      "holding": 4133,
      "vabilité": 4134,
      "deau": 4135,
      "champ": 4136,
      "soutient": 4137,
      "local": 4138,
      "satisfait": 4139,
      "Pietton": 4140,
      "NP": 4141,
      "usion": 4142,
      "demander": 4143,
      "saisis": 4144,
      "compétente": 4145,
      "déchue": 4146,
      "Laurent": 4147,
      "emporte": 4148,
      "Hascher": 4149,
      "pourra": 4150,
      "CAPI": 4151,
      "minim": 4152,
      "mbe": 4153,
      "Arnou": 4154,
      "TAINE": 4155,
      "appliquer": 4156,
      "CAPITAINE": 4157,
      "SMA": 4158,
      "mère": 4159,
      "reau": 4160,
      "somp": 4161,
      "présomp": 4162,
      "Constitution": 4163,
      "garanties": 4164,
      "syndicale": 4165,
      "ph": 4166,
      "conf": 4167,
      "conven": 4168,
      "dés": 4169,
      "dénon": 4170,
      "particulière": 4171,
      "III": 4172,
      "Aur": 4173,
      "DF": 4174,
      "décidant": 4175,
      "tude": 4176,
      "résultat": 4177,
      "hann": 4178,
      "Andrich": 4179,
      "He": 4180,
      "Im": 4181,
      "ly": 4182,
      "léans": 4183,
      "Désis": 4184,
      "consécu": 4185,
      "Orléans": 4186,
      "substitu": 4187,
      "rappelé": 4188,
      "domad": 4189,
      "hebdomad": 4190,
      "Nan": 4191,
      "déloy": 4192,
      "démont": 4193,
      "logement": 4194,
      "amiable": 4195,
      "Cavrois": 4196,
      "Arnould": 4197,
      "Nancy": 4198,
      "Lac": 4199,
      "UG": 4200,
      "complè": 4201,
      "incidence": 4202,
      "Désistement": 4203,
      "°,": 4204,
      "très": 4205,
      "déboute": 4206,
      "identité": 4207,
      "modification": 4208,
      "noncé": 4209,
      "devoir": 4210,
      "statuts": 4211,
      "prescrit": 4212,
      "justifiait": 4213,
      "fixée": 4214,
      "1147": 4215,
      "faculté": 4216,
      "Dang": 4217,
      "Sung": 4218,
      "iron": 4219,
      "land": 4220,
      "contester": 4221,
      "immatri": 4222,
      "difficultés": 4223,
      "Ra": 4224,
      "uris": 4225,
      "soutenait": 4226,
      "bénéficiaire": 4227,
      "ennale": 4228,
      "ODVS": 4229,
      "complet": 4230,
      "total": 4231,
      "ajoutent": 4232,
      "ressources": 4233,
      "trouble": 4234,
      "choix": 4235,
      "nouvelles": 4236,
      "photo": 4237,
      "Burg": 4238,
      "one": 4239,
      "sex": 4240,
      "mier": 4241,
      "antérieurement": 4242,
      "Vignes": 4243,
      "caducité": 4244,
      "IETTE": 4245,
      "Per": 4246,
      "effi": 4247,
      "décou": 4248,
      "mentation": 4249,
      "rest": 4250,
      "rendre": 4251,
      "marque": 4252,
      "Bout": 4253,
      "MARIETTE": 4254,
      "investissement": 4255,
      "éventuel": 4256,
      "Auroy": 4257,
      "Ac": 4258,
      "copie": 4259,
      "nationalité": 4260,
      "équitable": 4261,
      "suspension": 4262,
      "Tur": 4263,
      "dation": 4264,
      "çait": 4265,
      "illot": 4266,
      "méconnaissance": 4267,
      "partage": 4268,
      "illicite": 4269,
      "considérer": 4270,
      "jouissance": 4271,
      "effectuer": 4272,
      "conteste": 4273,
      "BTP": 4274,
      "téléphon": 4275,
      "Bri": 4276,
      "horaire": 4277,
      "lage": 4278,
      "suivi": 4279,
      "Madame": 4280,
      "Sorn": 4281,
      "fabri": 4282,
      "ost": 4283,
      "ruption": 4284,
      "incombe": 4285,
      "Sornay": 4286,
      "Dar": 4287,
      "rien": 4288,
      "mentions": 4289,
      "tableau": 4290,
      "Compagnie": 4291,
      "favor": 4292,
      "ted": 4293,
      "assor": 4294,
      "alia": 4295,
      "radier": 4296,
      "véhicules": 4297,
      "Martinel": 4298,
      "sexu": 4299,
      "Qu": 4300,
      "envers": 4301,
      "institu": 4302,
      "nulle": 4303,
      "productions": 4304,
      "factures": 4305,
      "clô": 4306,
      "Robillot": 4307,
      "produire": 4308,
      "face": 4309,
      "Po": 4310,
      "bac": 4311,
      "abord": 4312,
      "puisse": 4313,
      "calcu": 4314,
      "314": 4315,
      "LD": 4316,
      "Poly": 4317,
      "conque": 4318,
      "inti": 4319,
      "Lament": 4320,
      "limiter": 4321,
      "représentation": 4322,
      "détail": 4323,
      "Buk": 4324,
      "MY": 4325,
      "dule": 4326,
      "donne": 4327,
      "durant": 4328,
      "fausse": 4329,
      "At": 4330,
      "Cette": 4331,
      "ert": 4332,
      "parquet": 4333,
      "pension": 4334,
      "laise": 4335,
      "reprochés": 4336,
      "09": 4337,
      "Es": 4338,
      "hal": 4339,
      "horaires": 4340,
      "remises": 4341,
      "envis": 4342,
      "any": 4343,
      "vice": 4344,
      "106": 4345,
      "exécutoire": 4346,
      "gues": 4347,
      "licencié": 4348,
      "consent": 4349,
      "Guer": 4350,
      "présomption": 4351,
      "clôture": 4352,
      "vins": 4353,
      "yer": 4354,
      "tia": 4355,
      "auche": 4356,
      "pargne": 4357,
      "rir": 4358,
      "trac": 4359,
      "mul": 4360,
      "fraudule": 4361,
      "UE": 4362,
      "bri": 4363,
      "dan": 4364,
      "ingé": 4365,
      "prétendu": 4366,
      "delà": 4367,
      "inaptitude": 4368,
      "mbeke": 4369,
      "Met": 4370,
      "Ruy": 4371,
      "rô": 4372,
      "ys": 4373,
      "éner": 4374,
      "limin": 4375,
      "aliser": 4376,
      "férer": 4377,
      "105": 4378,
      "constatant": 4379,
      "détour": 4380,
      "exclusivement": 4381,
      "Ruymbeke": 4382,
      "Jesse": 4383,
      "adresse": 4384,
      "rétention": 4385,
      "identique": 4386,
      "blanc": 4387,
      "excessives": 4388,
      "récidive": 4389,
      "Jessel": 4390,
      "72": 4391,
      "surveillance": 4392,
      "précision": 4393,
      "impose": 4394,
      "équivaut": 4395,
      "combin": 4396,
      "bis": 4397,
      "access": 4398,
      "Pari": 4399,
      "242": 4400,
      "Boud": 4401,
      "assiette": 4402,
      "automobi": 4403,
      "BD": 4404,
      "FA": 4405,
      "Pinet": 4406,
      "tar": 4407,
      "més": 4408,
      "stant": 4409,
      "import": 4410,
      "imput": 4411,
      "CGEA": 4412,
      "résolution": 4413,
      "recommandée": 4414,
      "Huglo": 4415,
      "rural": 4416,
      "Ne": 4417,
      "requé": 4418,
      "asch": 4419,
      "vices": 4420,
      "mited": 4421,
      "Com": 4422,
      "annexés": 4423,
      "modifié": 4424,
      "Limited": 4425,
      "affirmer": 4426,
      "succession": 4427,
      "tivité": 4428,
      "conformité": 4429,
      "financement": 4430,
      "ains": 4431,
      "autant": 4432,
      "postes": 4433,
      "mentionne": 4434,
      "besoin": 4435,
      "AO": 4436,
      "retrait": 4437,
      "ama": 4438,
      "principale": 4439,
      "permanente": 4440,
      "conclure": 4441,
      "paragraphe": 4442,
      "UI": 4443,
      "rense": 4444,
      "courri": 4445,
      "demanderesses": 4446,
      "tradu": 4447,
      "renvoyé": 4448,
      "06": 4449,
      "fils": 4450,
      "tard": 4451,
      "semaine": 4452,
      "vise": 4453,
      "observer": 4454,
      "loyer": 4455,
      "faiteurs": 4456,
      "contribuable": 4457,
      "malfaiteurs": 4458,
      "souverainement": 4459,
      "RB5": 4460,
      "Boudalia": 4461,
      "rement": 4462,
      "titres": 4463,
      "réunion": 4464,
      "permettent": 4465,
      "contractuel": 4466,
      "aché": 4467,
      "aver": 4468,
      "létis": 4469,
      "constituent": 4470,
      "Tech": 4471,
      "Nicolétis": 4472,
      "disciplinaire": 4473,
      "Ho": 4474,
      "Phi": 4475,
      "gis": 4476,
      "labor": 4477,
      "réparti": 4478,
      "fici": 4479,
      "possession": 4480,
      "fonctionnement": 4481,
      "délivré": 4482,
      "Bernard": 4483,
      "Rovins": 4484,
      "Rovinski": 4485,
      "rim": 4486,
      "discu": 4487,
      "Marévi": 4488,
      "totalité": 4489,
      "correspond": 4490,
      "tonnier": 4491,
      "intégrale": 4492,
      "Maréville": 4493,
      "Hold": 4494,
      "argu": 4495,
      "adap": 4496,
      "résulter": 4497,
      "conventionnel": 4498,
      "cadres": 4499,
      "bulletins": 4500,
      "Holding": 4501,
      "rignon": 4502,
      "mari": 4503,
      "adressée": 4504,
      "toujours": 4505,
      "max": 4506,
      "notifiée": 4507,
      "Guihal": 4508,
      "ral": 4509,
      "tié": 4510,
      "déféré": 4511,
      "unis": 4512,
      "justifiant": 4513,
      "déduis": 4514,
      "utilisation": 4515,
      "complète": 4516,
      "74": 4517,
      "BNP": 4518,
      "juris": 4519,
      "ete": 4520,
      "auv": 4521,
      "Leblanc": 4522,
      "prévus": 4523,
      "circulation": 4524,
      "subsidiaire": 4525,
      "renonciation": 4526,
      "ORej": 4527,
      "réquisi": 4528,
      "naires": 4529,
      "épargne": 4530,
      "pror": 4531,
      "ayants": 4532,
      "quelconque": 4533,
      "maines": 4534,
      "accompag": 4535,
      "AC": 4536,
      "MF": 4537,
      "pat": 4538,
      "tour": 4539,
      "tort": 4540,
      "respectives": 4541,
      "Texier": 4542,
      "refusant": 4543,
      "bailleresse": 4544,
      "intégration": 4545,
      "JL": 4546,
      "Pau": 4547,
      "fonder": 4548,
      "refuser": 4549,
      "627": 4550,
      "Bul": 4551,
      "CZ": 4552,
      "mè": 4553,
      "nal": 4554,
      "enquê": 4555,
      "court": 4556,
      "publié": 4557,
      "motivation": 4558,
      "ressortait": 4559,
      "devra": 4560,
      "physique": 4561,
      "ampli": 4562,
      "moulin": 4563,
      "tori": 4564,
      "dises": 4565,
      "critères": 4566,
      "déboutant": 4567,
      "harma": 4568,
      "marchandises": 4569,
      "consentement": 4570,
      "az": 4571,
      "prélimin": 4572,
      "situé": 4573,
      "Dumoulin": 4574,
      "visite": 4575,
      "fe": 4576,
      "gère": 4577,
      "êtes": 4578,
      "contraven": 4579,
      "REJET": 4580,
      "exposante": 4581,
      "prévoyant": 4582,
      "différents": 4583,
      "MY1": 4584,
      "DT": 4585,
      "Grignon": 4586,
      "LO": 4587,
      "transaction": 4588,
      "commise": 4589,
      "Meier": 4590,
      "subsidiairement": 4591,
      "études": 4592,
      "Rad": 4593,
      "tième": 4594,
      "compli": 4595,
      "agisse": 4596,
      "instru": 4597,
      "laires": 4598,
      "saisir": 4599,
      "respecter": 4600,
      "Chambér": 4601,
      "Chambéry": 4602,
      "Insurance": 4603,
      "amiante": 4604,
      "Bourdeau": 4605,
      "Paribas": 4606,
      "ORejRad": 4607,
      "Bret": 4608,
      "chée": 4609,
      "visant": 4610,
      "raisonn": 4611,
      "Company": 4612,
      "It": 4613,
      "Lécu": 4614,
      "père": 4615,
      "amille": 4616,
      "fica": 4617,
      "partici": 4618,
      "retour": 4619,
      "bâtonnier": 4620,
      "Lécuyer": 4621,
      "ili": 4622,
      "dudit": 4623,
      "perce": 4624,
      "Broc": 4625,
      "relèvent": 4626,
      "conduit": 4627,
      "précédent": 4628,
      "Bosal": 4629,
      "Phili": 4630,
      "Seine": 4631,
      "restaur": 4632,
      "préliminaire": 4633,
      "Hô": 4634,
      "aug": 4635,
      "audi": 4636,
      "promes": 4637,
      "soule": 4638,
      "1234": 4639,
      "groupement": 4640,
      "consommateur": 4641,
      "clure": 4642,
      "étrangers": 4643,
      "Bes": 4644,
      "psy": 4645,
      "tats": 4646,
      "1353": 4647,
      "Invest": 4648,
      "équivale": 4649,
      "médicaux": 4650,
      "contribution": 4651,
      "solidairement": 4652,
      "Dijon": 4653,
      "répartition": 4654,
      "fs": 4655,
      "commen": 4656,
      "issait": 4657,
      "radiée": 4658,
      "conduite": 4659,
      "pied": 4660,
      "particulières": 4661,
      "Dis": 4662,
      "envoi": 4663,
      "rière": 4664,
      "exoné": 4665,
      "truc": 4666,
      "communiquer": 4667,
      "Décla": 4668,
      "communiqués": 4669,
      "tiennent": 4670,
      "rogatoire": 4671,
      "tandis": 4672,
      "AT": 4673,
      "mauv": 4674,
      "évolu": 4675,
      "mées": 4676,
      "paie": 4677,
      "informer": 4678,
      "Chambre": 4679,
      "conducteur": 4680,
      "objectif": 4681,
      "couvert": 4682,
      "extradition": 4683,
      "IER": 4684,
      "asi": 4685,
      "dente": 4686,
      "cédée": 4687,
      "ape": 4688,
      "paiements": 4689,
      "suppor": 4690,
      "contractuelles": 4691,
      "impossible": 4692,
      "fondamentaux": 4693,
      "agrément": 4694,
      "François": 4695,
      "émis": 4696,
      "dépenses": 4697,
      "dirigeant": 4698,
      "devaient": 4699,
      "ordonnant": 4700,
      "renvoyer": 4701,
      "Brochier": 4702,
      "Hour": 4703,
      "élu": 4704,
      "ël": 4705,
      "aute": 4706,
      "négo": 4707,
      "supplément": 4708,
      "Etabli": 4709,
      "appelan": 4710,
      "forfaitaire": 4711,
      "Michèle": 4712,
      "maxim": 4713,
      "Hourdeaux": 4714,
      "lités": 4715,
      "ast": 4716,
      "antes": 4717,
      "unité": 4718,
      "puisqu": 4719,
      "morale": 4720,
      "stipulations": 4721,
      "livraison": 4722,
      "chauff": 4723,
      "Raquin": 4724,
      "Bull": 4725,
      "91": 4726,
      "Be": 4727,
      "chè": 4728,
      "niol": 4729,
      "intérieur": 4730,
      "Bouniol": 4731,
      "différence": 4732,
      "possible": 4733,
      "disposait": 4734,
      "Guerer": 4735,
      "Boutet": 4736,
      "Laisse": 4737,
      "famille": 4738,
      "prê": 4739,
      "secteur": 4740,
      "tend": 4741,
      "entrepris": 4742,
      "Rece": 4743,
      "subsé": 4744,
      "utilement": 4745,
      "médicale": 4746,
      "journali": 4747,
      "déloyale": 4748,
      "VB": 4749,
      "laté": 4750,
      "préf": 4751,
      "sixième": 4752,
      "...": 4753,
      "promesse": 4754,
      "vac": 4755,
      "proté": 4756,
      "1235": 4757,
      "permettait": 4758,
      "apparaît": 4759,
      "Recevabilité": 4760,
      "GUI": 4761,
      "HAL": 4762,
      "forcée": 4763,
      "111": 4764,
      "dossiers": 4765,
      "exploi": 4766,
      "maintenues": 4767,
      "équipement": 4768,
      "solidari": 4769,
      "distinct": 4770,
      "GUIHAL": 4771,
      "Ech": 4772,
      "économiques": 4773,
      "dirige": 4774,
      "déposées": 4775,
      "Charte": 4776,
      "300": 4777,
      "renouvelle": 4778,
      "maladies": 4779,
      "route": 4780,
      "chiffre": 4781,
      "applique": 4782,
      "terror": 4783,
      "64": 4784,
      "communes": 4785,
      "Echappé": 4786,
      "Can": 4787,
      "IT": 4788,
      "gy": 4789,
      "fic": 4790,
      "perç": 4791,
      "obtenu": 4792,
      "contrô": 4793,
      "administratif": 4794,
      "'',": 4795,
      "caractérisé": 4796,
      "définitif": 4797,
      "aggravées": 4798,
      "Metz": 4799,
      "Do": 4800,
      "meur": 4801,
      "chant": 4802,
      "nologi": 4803,
      "admis": 4804,
      "1233": 4805,
      "2001": 4806,
      "risto": 4807,
      "concernés": 4808,
      "représentants": 4809,
      "industrielle": 4810,
      "brut": 4811,
      "ordination": 4812,
      "Lacque": 4813,
      "AUR": 4814,
      "Air": 4815,
      "VAL": 4816,
      "th": 4817,
      "requis": 4818,
      "lit": 4819,
      "réinscrite": 4820,
      "ville": 4821,
      "seront": 4822,
      "sées": 4823,
      "premières": 4824,
      "133": 4825,
      "portait": 4826,
      "familiale": 4827,
      "demeur": 4828,
      "solliciter": 4829,
      "accusation": 4830,
      "emprunteur": 4831,
      "fournisse": 4832,
      "engagements": 4833,
      "agissements": 4834,
      "Lacquemant": 4835,
      "AUROY": 4836,
      "NOU": 4837,
      "mat": 4838,
      "omission": 4839,
      "llet": 4840,
      "prévenus": 4841,
      "DUVAL": 4842,
      "claire": 4843,
      "précisément": 4844,
      "ARNOU": 4845,
      "Aut": 4846,
      "341": 4847,
      "héritiers": 4848,
      "complicité": 4849,
      "ARNOULD": 4850,
      "baux": 4851,
      "audition": 4852,
      "Reim": 4853,
      "tentative": 4854,
      "Association": 4855,
      "abusive": 4856,
      "Reims": 4857,
      "Balat": 4858,
      "éa": 4859,
      "exclure": 4860,
      "présentation": 4861,
      "politi": 4862,
      "tax": 4863,
      "renouvellement": 4864,
      "ensuit": 4865,
      "ager": 4866,
      "relax": 4867,
      "relations": 4868,
      "MAS": 4869,
      "1ER": 4870,
      "quêtes": 4871,
      "réalisée": 4872,
      "chard": 4873,
      "écrite": 4874,
      "onnet": 4875,
      "sinistre": 4876,
      "rembourser": 4877,
      "acquéreurs": 4878,
      "produisait": 4879,
      "gent": 4880,
      "sant": 4881,
      "intes": 4882,
      "réintégration": 4883,
      "servé": 4884,
      "disant": 4885,
      "souscription": 4886,
      "mentionné": 4887,
      "facture": 4888,
      "comporter": 4889,
      "territori": 4890,
      "enquêteurs": 4891,
      "93": 4892,
      "Gen": 4893,
      "HUG": 4894,
      "Py": 4895,
      "dégra": 4896,
      "trice": 4897,
      "annuel": 4898,
      "moni": 4899,
      "ultérieure": 4900,
      "accueillie": 4901,
      "hebdomadaire": 4902,
      "MAS2": 4903,
      "HUGLO": 4904,
      "Nor": 4905,
      "ZB": 4906,
      "ub": 4907,
      "conci": 4908,
      "chon": 4909,
      "débit": 4910,
      "exercée": 4911,
      "support": 4912,
      "substance": 4913,
      "acquit": 4914,
      "acquise": 4915,
      "supérieur": 4916,
      "présumer": 4917,
      "Sommier": 4918,
      "312": 4919,
      "Gh": 4920,
      "lois": 4921,
      "lont": 4922,
      "divers": 4923,
      "abon": 4924,
      "RECE": 4925,
      "involont": 4926,
      "localisation": 4927,
      "Annie": 4928,
      "bénéficié": 4929,
      "passage": 4930,
      "VAB": 4931,
      "RECEVAB": 4932,
      "Pr": 4933,
      "enrô": 4934,
      "publication": 4935,
      "compati": 4936,
      "internationale": 4937,
      "conseils": 4938,
      "appartement": 4939,
      "élections": 4940,
      "commandement": 4941,
      "1103": 4942,
      "PC": 4943,
      "cs": 4944,
      "échan": 4945,
      "démission": 4946,
      "primes": 4947,
      "toyen": 4948,
      "transmission": 4949,
      "conservation": 4950,
      "volontairement": 4951,
      "04": 4952,
      "CN": 4953,
      "tenance": 4954,
      "ORad": 4955,
      "indiquant": 4956,
      "prétend": 4957,
      "étrangère": 4958,
      "raisonnable": 4959,
      "enrôlée": 4960,
      "plai": 4961,
      "toires": 4962,
      "lots": 4963,
      "viol": 4964,
      "Aubac": 4965,
      "litigieuses": 4966,
      "départemental": 4967,
      "autorisé": 4968,
      "jurisprudence": 4969,
      "duc": 4970,
      "foncier": 4971,
      "manifeste": 4972,
      "constatait": 4973,
      "fixées": 4974,
      "visible": 4975,
      "techniques": 4976,
      "Joël": 4977,
      "IRRECEVAB": 4978,
      "supplémentaire": 4979,
      "Tin": 4980,
      "phe": 4981,
      "réuni": 4982,
      "221": 4983,
      "minu": 4984,
      "rubri": 4985,
      "sérieux": 4986,
      "personnellement": 4987,
      "estimé": 4988,
      "LIEU": 4989,
      "démontré": 4990,
      "Tré": 4991,
      "ak": 4992,
      "naiss": 4993,
      "délic": 4994,
      "achat": 4995,
      "Moyens": 4996,
      "manifestant": 4997,
      "Sch": 4998,
      "cr": 4999,
      "fut": 5000,
      "TIN": 5001,
      "mineurs": 5002,
      "soumises": 5003,
      "Parlement": 5004,
      "imposition": 5005,
      "disproportionnée": 5006,
      "stes": 5007,
      "nataire": 5008,
      "ouvert": 5009,
      "global": 5010,
      "conventions": 5011,
      "cière": 5012,
      "décédée": 5013,
      "suffi": 5014,
      "Comm": 5015,
      "plate": 5016,
      "placée": 5017,
      "puisque": 5018,
      "Médi": 5019,
      "qualifi": 5020,
      "révoc": 5021,
      "Lionel": 5022,
      "Gr": 5023,
      "ache": 5024,
      "èvement": 5025,
      "tension": 5026,
      "ministre": 5027,
      "loz": 5028,
      "annuelle": 5029,
      "MOYENS": 5030,
      "départementale": 5031,
      "Poulet": 5032,
      "ANNEXES": 5033,
      "besoins": 5034,
      "dépourvu": 5035,
      "averti": 5036,
      "Déclaration": 5037,
      "mauvaise": 5038,
      "prouver": 5039,
      "libé": 5040,
      "inex": 5041,
      "réaliser": 5042,
      "itaires": 5043,
      "souh": 5044,
      "payé": 5045,
      "établis": 5046,
      "syndical": 5047,
      "Bouches": 5048,
      "mainlevée": 5049,
      "effectués": 5050,
      "PREMIER": 5051,
      "accepté": 5052,
      "confiance": 5053,
      "solidarité": 5054,
      "Mor": 5055,
      "tirée": 5056,
      "liés": 5057,
      "cela": 5058,
      "sure": 5059,
      "terran": 5060,
      "irrévoc": 5061,
      "former": 5062,
      "interruption": 5063,
      "MARTIN": 5064,
      "effectuée": 5065,
      "Ab": 5066,
      "Trich": 5067,
      "anno": 5068,
      "confié": 5069,
      "nég": 5070,
      "exemp": 5071,
      "tsche": 5072,
      "gram": 5073,
      "saisies": 5074,
      "fautes": 5075,
      "bancaire": 5076,
      "sanctions": 5077,
      "volvé": 5078,
      "occupé": 5079,
      "meurtre": 5080,
      "Tinchon": 5081,
      "Trichet": 5082,
      "IV": 5083,
      "Odent": 5084,
      "Pape": 5085,
      "chô": 5086,
      "promo": 5087,
      "dispon": 5088,
      "double": 5089,
      "David": 5090,
      "disponi": 5091,
      "05": 5092,
      "Oc": 5093,
      "ace": 5094,
      "édu": 5095,
      "illon": 5096,
      "nique": 5097,
      "CIC": 5098,
      "exerce": 5099,
      "culp": 5100,
      "inopérants": 5101,
      "construire": 5102,
      "5e": 5103,
      "DB": 5104,
      "vaux": 5105,
      "erron": 5106,
      "fort": 5107,
      "unilaté": 5108,
      "personnalité": 5109,
      "interne": 5110,
      "demment": 5111,
      "établit": 5112,
      "financières": 5113,
      "examinée": 5114,
      "restituer": 5115,
      "compensation": 5116,
      "Delvolvé": 5117,
      "abstenant": 5118,
      "effici": 5119,
      "Fi": 5120,
      "PL": 5121,
      "Yves": 5122,
      "dits": 5123,
      "chanti": 5124,
      "constatation": 5125,
      "504": 5126,
      "considérée": 5127,
      "différentes": 5128,
      "figure": 5129,
      "contravention": 5130,
      "Autorité": 5131,
      "'«": 5132,
      "PR": 5133,
      "rénées": 5134,
      "agit": 5135,
      "soutenu": 5136,
      "observation": 5137,
      "probatoire": 5138,
      "Brugère": 5139,
      "naissance": 5140,
      "311": 5141,
      "BE": 5142,
      "Brou": 5143,
      "cien": 5144,
      "coopéra": 5145,
      "postéri": 5146,
      "divorce": 5147,
      "Pyrénées": 5148,
      "irrévocable": 5149,
      "Papeete": 5150,
      "Gar": 5151,
      "démar": 5152,
      "nésie": 5153,
      "gés": 5154,
      "langue": 5155,
      "Dela": 5156,
      "club": 5157,
      "prononce": 5158,
      "existant": 5159,
      "formulé": 5160,
      "Richard": 5161,
      "implique": 5162,
      "Cheval": 5163,
      "énergie": 5164,
      "seize": 5165,
      "incompétence": 5166,
      "poursuivie": 5167,
      "seraient": 5168,
      "Entre": 5169,
      "pertin": 5170,
      "clair": 5171,
      "aggravé": 5172,
      "Polynésie": 5173,
      "Trésor": 5174,
      "culpabilité": 5175,
      "CTION": 5176,
      "Date": 5177,
      "traction": 5178,
      "séjour": 5179,
      "CH9": 5180,
      "MARTINEL": 5181,
      "erie": 5182,
      "appa": 5183,
      "missions": 5184,
      "accusé": 5185,
      "625": 5186,
      "TT": 5187,
      "graphi": 5188,
      "réunis": 5189,
      "pourrait": 5190,
      "compen": 5191,
      "authen": 5192,
      "visé": 5193,
      "notari": 5194,
      "offici": 5195,
      "architectes": 5196,
      "valablement": 5197,
      "dats": 5198,
      "gers": 5199,
      "dehors": 5200,
      "sible": 5201,
      "déta": 5202,
      "coeffici": 5203,
      "compos": 5204,
      "faisaient": 5205,
      "mentionnant": 5206,
      "assimi": 5207,
      "rappels": 5208,
      "prévoyait": 5209,
      "indemniser": 5210,
      "BD4": 5211,
      "Pla": 5212,
      "fille": 5213,
      "tré": 5214,
      "tit": 5215,
      "Lepri": 5216,
      "mineur": 5217,
      "utile": 5218,
      "invité": 5219,
      "Leprieur": 5220,
      "uit": 5221,
      "purement": 5222,
      "compren": 5223,
      "pénales": 5224,
      "accordé": 5225,
      "1991": 5226,
      "comporte": 5227,
      "achet": 5228,
      "Bastia": 5229,
      "détournement": 5230,
      "Crim": 5231,
      "Maître": 5232,
      "urban": 5233,
      "ambi": 5234,
      "manqué": 5235,
      "222": 5236,
      "maritime": 5237,
      "limité": 5238,
      "indique": 5239,
      "cotisant": 5240,
      "Techer": 5241,
      "Salo": 5242,
      "commerciaux": 5243,
      "autorisée": 5244,
      "Guil": 5245,
      "permanent": 5246,
      "Sudre": 5247,
      "Norman": 5248,
      "Basse": 5249,
      "EX": 5250,
      "Mai": 5251,
      "Paut": 5252,
      "ps": 5253,
      "citoyen": 5254,
      "diou": 5255,
      "confirmant": 5256,
      "énoncer": 5257,
      "Gadiou": 5258,
      "Chevallier": 5259,
      "Pauthe": 5260,
      "Sav": 5261,
      "line": 5262,
      "invalidité": 5263,
      "autru": 5264,
      "rieure": 5265,
      "interdit": 5266,
      "entraîné": 5267,
      "rémunérations": 5268,
      "régularis": 5269,
      "entendu": 5270,
      "électroniques": 5271,
      "volontaire": 5272,
      "type": 5273,
      "Croc": 5274,
      "politique": 5275,
      "autrui": 5276,
      "Blaise": 5277,
      "Claire": 5278,
      "Fé": 5279,
      "Haute": 5280,
      "Terre": 5281,
      "bo": 5282,
      "hoc": 5283,
      "rini": 5284,
      "arab": 5285,
      "rice": 5286,
      "1088": 5287,
      "pole": 5288,
      "Christo": 5289,
      "personnels": 5290,
      "Haas": 5291,
      "comparution": 5292,
      "Salomon": 5293,
      "Normandie": 5294,
      "Christophe": 5295,
      "Loi": 5296,
      "yes": 5297,
      "zone": 5298,
      "infor": 5299,
      "étaire": 5300,
      "gérer": 5301,
      "irrégulière": 5302,
      "visée": 5303,
      "modifi": 5304,
      "solution": 5305,
      "précédemment": 5306,
      "électricité": 5307,
      "coefficient": 5308,
      "Zri": 5309,
      "gnant": 5310,
      "convocation": 5311,
      "intitu": 5312,
      "préjudici": 5313,
      "exposition": 5314,
      "publicité": 5315,
      "visées": 5316,
      "financiers": 5317,
      "Capron": 5318,
      "prêts": 5319,
      "expression": 5320,
      "Math": 5321,
      "Chauve": 5322,
      "dirigeants": 5323,
      "Zribi": 5324,
      "Mal": 5325,
      "US": 5326,
      "struc": 5327,
      "dios": 5328,
      "assu": 5329,
      "appels": 5330,
      "sépar": 5331,
      "soulig": 5332,
      "délits": 5333,
      "anticip": 5334,
      "ouvr": 5335,
      "simplement": 5336,
      "Sevaux": 5337,
      "égale": 5338,
      "initial": 5339,
      "variable": 5340,
      "chômage": 5341,
      "Crocq": 5342,
      "Mathonnet": 5343,
      "indispen": 5344,
      "début": 5345,
      "role": 5346,
      "enseigne": 5347,
      "déboutée": 5348,
      "606": 5349,
      "destination": 5350,
      "Groupama": 5351,
      "94": 5352,
      "Sa": 5353,
      "ka": 5354,
      "page": 5355,
      "ssion": 5356,
      "taires": 5357,
      "tner": 5358,
      "défici": 5359,
      "sures": 5360,
      "forclusion": 5361,
      "gées": 5362,
      "150": 5363,
      "loyauté": 5364,
      "244": 5365,
      "fondées": 5366,
      "suppose": 5367,
      "contrôler": 5368,
      "matériels": 5369,
      "vironnement": 5370,
      "Guerrini": 5371,
      "combinaison": 5372,
      "HA": 5373,
      "gations": 5374,
      "prou": 5375,
      "liée": 5376,
      "contenu": 5377,
      "incrimin": 5378,
      "dévolu": 5379,
      "denti": 5380,
      "expri": 5381,
      "domaine": 5382,
      "décider": 5383,
      "fixant": 5384,
      "modifier": 5385,
      "logie": 5386,
      "FIXE": 5387,
      "Ces": 5388,
      "Fer": 5389,
      "seaux": 5390,
      "aune": 5391,
      "mix": 5392,
      "surabon": 5393,
      "invoquer": 5394,
      "impay": 5395,
      "justifiés": 5396,
      "couv": 5397,
      "orient": 5398,
      "Sol": 5399,
      "supplé": 5400,
      "personnelles": 5401,
      "1226": 5402,
      "Men": 5403,
      "âge": 5404,
      "repris": 5405,
      "pari": 5406,
      "ign": 5407,
      "509": 5408,
      "formelle": 5409,
      "définitivement": 5410,
      "organismes": 5411,
      "Bourges": 5412,
      "SMABTP": 5413,
      "ampliatif": 5414,
      "CSE": 5415,
      "gains": 5416,
      "ji": 5417,
      "échéance": 5418,
      "pénalités": 5419,
      "constituant": 5420,
      "exclusif": 5421,
      "franchi": 5422,
      "officier": 5423,
      "larisation": 5424,
      "Rouch": 5425,
      "reproche": 5426,
      "réalisées": 5427,
      "infirmatif": 5428,
      "réclamation": 5429,
      "habitat": 5430,
      "1221": 5431,
      "faveur": 5432,
      "urbanisme": 5433,
      "08": 5434,
      "laÿ": 5435,
      "marchés": 5436,
      "inspec": 5437,
      "recel": 5438,
      "908": 5439,
      "accidents": 5440,
      "désormais": 5441,
      "imputable": 5442,
      "Nicolaÿ": 5443,
      "Lanouvelle": 5444,
      "nologies": 5445,
      "512": 5446,
      "tâ": 5447,
      "témoi": 5448,
      "consolid": 5449,
      "survenu": 5450,
      "péti": 5451,
      "Leduc": 5452,
      "opposer": 5453,
      "Anne": 5454,
      "Vigand": 5455,
      "investigations": 5456,
      "successi": 5457,
      "Riom": 5458,
      "malgré": 5459,
      "supérieure": 5460,
      "évolution": 5461,
      "consolidation": 5462,
      "Go": 5463,
      "TS": 5464,
      "environnement": 5465,
      "partant": 5466,
      "répéti": 5467,
      "fichi": 5468,
      "strie": 5469,
      "relevait": 5470,
      "désistée": 5471,
      "régularisation": 5472,
      "raisons": 5473,
      "commises": 5474,
      "Alsa": 5475,
      "achèvement": 5476,
      "mensuelle": 5477,
      "Mazi": 5478,
      "autonome": 5479,
      "filiale": 5480,
      "Homme": 5481,
      "commencé": 5482,
      "Maziau": 5483,
      "Aquit": 5484,
      "cant": 5485,
      "sû": 5486,
      "vet": 5487,
      "end": 5488,
      "1231": 5489,
      "spécial": 5490,
      "affecté": 5491,
      "poursuivre": 5492,
      "analyser": 5493,
      "déposée": 5494,
      "idt": 5495,
      "AF1": 5496,
      "réserves": 5497,
      "Atlan": 5498,
      "prétendument": 5499,
      "ZB1": 5500,
      "conciliation": 5501,
      "Aquitaine": 5502,
      "96": 5503,
      "98": 5504,
      "reç": 5505,
      "reprendre": 5506,
      "ayrole": 5507,
      "Solange": 5508,
      "Ortsche": 5509,
      "respecté": 5510,
      "réglementaires": 5511,
      "importance": 5512,
      "Rouchayrole": 5513,
      "Ortscheidt": 5514,
      "97": 5515,
      "954": 5516,
      "revenu": 5517,
      "ançon": 5518,
      "liées": 5519,
      "abou": 5520,
      "vendu": 5521,
      "soumettre": 5522,
      "issent": 5523,
      "hiér": 5524,
      "existait": 5525,
      "Altran": 5526,
      "stric": 5527,
      "Financi": 5528,
      "collè": 5529,
      "réquisitions": 5530,
      "Besançon": 5531,
      "Fédération": 5532,
      "consig": 5533,
      "incou": 5534,
      "parmi": 5535,
      "demandait": 5536,
      "contrefaçon": 5537,
      "donnée": 5538,
      "1152": 5539,
      "243": 5540,
      "Angers": 5541,
      "beaux": 5542,
      "conduire": 5543,
      "verbaux": 5544,
      "exigence": 5545,
      "dettes": 5546,
      "Barincou": 5547,
      "immédiat": 5548,
      "Gener": 5549,
      "zes": 5550,
      "argent": 5551,
      "préhen": 5552,
      "exacte": 5553,
      "apport": 5554,
      "légi": 5555,
      "1315": 5556,
      "Auto": 5557,
      "compro": 5558,
      "Marlange": 5559,
      "nouveaux": 5560,
      "peser": 5561,
      "Labaune": 5562,
      "barreau": 5563,
      "éligi": 5564,
      "Burgade": 5565,
      "Turbeaux": 5566,
      "Hôtel": 5567,
      "franchise": 5568,
      "sûre": 5569,
      "03": 5570,
      "CS": 5571,
      "Log": 5572,
      "cteurs": 5573,
      "salité": 5574,
      "proxi": 5575,
      "rapporter": 5576,
      "dryes": 5577,
      "causalité": 5578,
      "suppression": 5579,
      "consistant": 5580,
      "mandataires": 5581,
      "1999": 5582,
      "Pradel": 5583,
      "Vendryes": 5584,
      "conservatoire": 5585,
      "SNCF": 5586,
      "courriel": 5587,
      "patho": 5588,
      "Mallard": 5589,
      "CJU": 5590,
      "Ju": 5591,
      "uvre": 5592,
      "convenu": 5593,
      "nements": 5594,
      "addition": 5595,
      "conclus": 5596,
      "annulée": 5597,
      "initialement": 5598,
      "allégué": 5599,
      "Hedios": 5600,
      "CJUE": 5601,
      "110": 5602,
      "SB": 5603,
      "atement": 5604,
      "rerie": 5605,
      "reste": 5606,
      "motiver": 5607,
      "utiles": 5608,
      "441": 5609,
      "traitant": 5610,
      "hypothé": 5611,
      "immédiatement": 5612,
      "téléphoni": 5613,
      "Alsace": 5614,
      "Pay": 5615,
      "ks": 5616,
      "option": 5617,
      "sorerie": 5618,
      "coles": 5619,
      "rétrac": 5620,
      "trisation": 5621,
      "quées": 5622,
      "concrè": 5623,
      "intermédi": 5624,
      "création": 5625,
      "mentionnés": 5626,
      "subis": 5627,
      "versés": 5628,
      "afférentes": 5629,
      "dûment": 5630,
      "collabor": 5631,
      "chantier": 5632,
      "622": 5633,
      "Gan": 5634,
      "Lam": 5635,
      "Roy": 5636,
      "])": 5637,
      "ède": 5638,
      "anche": 5639,
      "sir": 5640,
      "dénoncé": 5641,
      "géo": 5642,
      "demandée": 5643,
      "2224": 5644,
      "notion": 5645,
      "exécuté": 5646,
      "passé": 5647,
      "éviction": 5648,
      "référés": 5649,
      "industriel": 5650,
      "conformes": 5651,
      "obstant": 5652,
      "mètre": 5653,
      "coopérative": 5654,
      "EDF": 5655,
      "rétro": 5656,
      "auxquels": 5657,
      "légaux": 5658,
      "lettres": 5659,
      "mentionnées": 5660,
      "écartant": 5661,
      "initiative": 5662,
      "Finance": 5663,
      "débitrice": 5664,
      "Méditerran": 5665,
      "400": 5666,
      "Gi": 5667,
      "pl": 5668,
      "êche": 5669,
      "atre": 5670,
      "auxquelles": 5671,
      "Enfin": 5672,
      "nonobstant": 5673,
      "posée": 5674,
      "interven": 5675,
      "corps": 5676,
      "ignard": 5677,
      "monétaire": 5678,
      "atteint": 5679,
      "contributions": 5680,
      "inopérante": 5681,
      "Chauvin": 5682,
      "pratiques": 5683,
      "installation": 5684,
      "candidat": 5685,
      "multi": 5686,
      "terrorisme": 5687,
      "promotion": 5688,
      "BV": 5689,
      "Ott": 5690,
      "ptions": 5691,
      "eri": 5692,
      "présentait": 5693,
      "précisé": 5694,
      "diligence": 5695,
      "héber": 5696,
      "Gouton": 5697,
      "fournir": 5698,
      "constructeur": 5699,
      "accessoire": 5700,
      "requérant": 5701,
      "Brouzes": 5702,
      "PH": 5703,
      "raine": 5704,
      "détenu": 5705,
      "expéri": 5706,
      "souff": 5707,
      "justifica": 5708,
      "Cha": 5709,
      "461": 5710,
      "vérification": 5711,
      "allocation": 5712,
      "destinataire": 5713,
      "capitalisation": 5714,
      "acceptation": 5715,
      "censure": 5716,
      "revanche": 5717,
      "International": 5718,
      "danger": 5719,
      "imputabilité": 5720,
      "traduction": 5721,
      "proximité": 5722,
      "BP": 5723,
      "Né": 5724,
      "alle": 5725,
      "bailleurs": 5726,
      "énumé": 5727,
      "devis": 5728,
      "ity": 5729,
      "bilités": 5730,
      "trise": 5731,
      "1789": 5732,
      "exécutées": 5733,
      "syndicats": 5734,
      "jonction": 5735,
      "diffam": 5736,
      "%,": 5737,
      "Gasch": 5738,
      "caires": 5739,
      "lla": 5740,
      "mur": 5741,
      "convi": 5742,
      "indirec": 5743,
      "chir": 5744,
      "extension": 5745,
      "aliment": 5746,
      "2312": 5747,
      "Pourvois": 5748,
      "locale": 5749,
      "décennale": 5750,
      "cadast": 5751,
      "poursuivis": 5752,
      "accueillir": 5753,
      "subséquent": 5754,
      "fournisseur": 5755,
      "Gaschignard": 5756,
      "AI": 5757,
      "AJ": 5758,
      "Cas": 5759,
      "Tu": 5760,
      "bou": 5761,
      "ed": 5762,
      "eaux": 5763,
      "ga": 5764,
      "pan": 5765,
      "éman": 5766,
      "titrisation": 5767,
      "cusable": 5768,
      "142": 5769,
      "communications": 5770,
      "transféré": 5771,
      "contagi": 5772,
      "mains": 5773,
      "démontrait": 5774,
      "assignon": 5775,
      "attestations": 5776,
      "animation": 5777,
      "Loiseau": 5778,
      "indispensable": 5779,
      "Gmb": 5780,
      "Muni": 5781,
      "Massignon": 5782,
      "aé": 5783,
      "aci": 5784,
      "dif": 5785,
      "tration": 5786,
      "mmer": 5787,
      "lut": 5788,
      "fédération": 5789,
      "indemnitaire": 5790,
      "urgence": 5791,
      "proro": 5792,
      "800": 5793,
      "GA": 5794,
      "extin": 5795,
      "pul": 5796,
      "marre": 5797,
      "post": 5798,
      "immobiliers": 5799,
      "compétences": 5800,
      "4121": 5801,
      "initiale": 5802,
      "entend": 5803,
      "maîtrise": 5804,
      "Apaire": 5805,
      "hannin": 5806,
      "percevoir": 5807,
      "Delamarre": 5808,
      "Munier": 5809,
      "620": 5810,
      "CC": 5811,
      "CD": 5812,
      "rappe": 5813,
      "ÛT": 5814,
      "report": 5815,
      "inopposable": 5816,
      "administratives": 5817,
      "changement": 5818,
      "éventuellement": 5819,
      "favorable": 5820,
      "AOÛT": 5821,
      "511": 5822,
      "vres": 5823,
      "décharge": 5824,
      "venance": 5825,
      "logis": 5826,
      "1971": 5827,
      "constant": 5828,
      "étude": 5829,
      "réglementation": 5830,
      "exigibilité": 5831,
      "jean": 5832,
      "immatricu": 5833,
      "suffit": 5834,
      "inexcusable": 5835,
      "authentique": 5836,
      "mode": 5837,
      "vendre": 5838,
      "conclut": 5839,
      "constitutifs": 5840,
      "explic": 5841,
      "chiff": 5842,
      "prend": 5843,
      "tierce": 5844,
      "Michon": 5845,
      "comptables": 5846,
      "anticipée": 5847,
      "RM": 5848,
      "gouver": 5849,
      "od": 5850,
      "endre": 5851,
      "pourvoir": 5852,
      "143": 5853,
      "précitées": 5854,
      "Bougy": 5855,
      "subordination": 5856,
      "accords": 5857,
      "registre": 5858,
      "utilité": 5859,
      "constitutionnelle": 5860,
      "qualifié": 5861,
      "dirigée": 5862,
      "comportant": 5863,
      "compensatoire": 5864,
      "exceptionnelle": 5865,
      "indépendants": 5866,
      "particuliers": 5867,
      "Bien": 5868,
      "Financière": 5869,
      "Méditerranée": 5870,
      "321": 5871,
      "380": 5872,
      "BG": 5873,
      "Gé": 5874,
      "‘'": 5875,
      "compagnie": 5876,
      "damment": 5877,
      "141": 5878,
      "avantages": 5879,
      "détermination": 5880,
      "ting": 5881,
      "indication": 5882,
      "recherché": 5883,
      "prenant": 5884,
      "minimum": 5885,
      "trésorerie": 5886,
      "CV": 5887,
      "Lor": 5888,
      "hl": 5889,
      "pêche": 5890,
      "sait": 5891,
      "démo": 5892,
      "paro": 5893,
      "renouv": 5894,
      "classi": 5895,
      "rogé": 5896,
      "mentionnait": 5897,
      "taxe": 5898,
      "1996": 5899,
      "délivrée": 5900,
      "éviter": 5901,
      "rattach": 5902,
      "renouvel": 5903,
      "313": 5904,
      "GR": 5905,
      "SH": 5906,
      "mas": 5907,
      "degré": 5908,
      "tial": 5909,
      "quo": 5910,
      "prétention": 5911,
      "ONCTION": 5912,
      "procédant": 5913,
      "lumière": 5914,
      "entrepreneur": 5915,
      "Etats": 5916,
      "parent": 5917,
      "industrie": 5918,
      "évaluer": 5919,
      "handic": 5920,
      "Laulom": 5921,
      "indépendamment": 5922,
      "majorations": 5923,
      "physiques": 5924,
      "hospitalier": 5925,
      "Darbois": 5926,
      "JONCTION": 5927,
      "uel": 5928,
      "laissant": 5929,
      "invent": 5930,
      "restri": 5931,
      "Courtial": 5932,
      "obtention": 5933,
      "objets": 5934,
      "Marie": 5935,
      "déduction": 5936,
      "1998": 5937,
      "CFDT": 5938,
      "majeure": 5939,
      "produisant": 5940,
      "revêt": 5941,
      "démoli": 5942,
      "ores": 5943,
      "cience": 5944,
      "répres": 5945,
      "donation": 5946,
      "soud": 5947,
      "1970": 5948,
      "rogation": 5949,
      "opposé": 5950,
      "implan": 5951,
      "anciens": 5952,
      "frappé": 5953,
      "omie": 5954,
      "506": 5955,
      "bancaires": 5956,
      "subst": 5957,
      "ressortir": 5958,
      "définition": 5959,
      "proportionnalité": 5960,
      "encourt": 5961,
      "mensuel": 5962,
      "Davost": 5963,
      "tariat": 5964,
      "antérieures": 5965,
      "Croi": 5966,
      "inspecteur": 5967,
      "95": 5968,
      "Sam": 5969,
      "éloi": 5970,
      "arme": 5971,
      "nuit": 5972,
      "relevés": 5973,
      "fiscal": 5974,
      "formulée": 5975,
      "dénonciation": 5976,
      "Generali": 5977,
      "intermédiaire": 5978,
      "heure": 5979,
      "entr": 5980,
      "octroi": 5981,
      "mmen": 5982,
      "crimes": 5983,
      "rapports": 5984,
      "note": 5985,
      "litiges": 5986,
      "indivision": 5987,
      "trouvait": 5988,
      "automobile": 5989,
      "IRRECEVABLE": 5990,
      "Atlantique": 5991,
      "510": 5992,
      "600": 5993,
      "Hai": 5994,
      "apporter": 5995,
      "rapportant": 5996,
      "oppose": 5997,
      "finan": 5998,
      "245": 5999,
      "constituaient": 6000,
      "relevée": 6001,
      "Sott": 6002,
      "mutation": 6003,
      "factur": 6004,
      "précisant": 6005,
      "norm": 6006,
      "BTSG": 6007,
      "Sottet": 6008,
      "Rap": 6009,
      "UNE": 6010,
      "Vex": 6011,
      "évin": 6012,
      "armes": 6013,
      "conclue": 6014,
      "grat": 6015,
      "contestait": 6016,
      "caractéristiques": 6017,
      "identiques": 6018,
      "reproché": 6019,
      "individuelle": 6020,
      "Entreprise": 6021,
      "HT": 6022,
      "PM": 6023,
      "fût": 6024,
      "my": 6025,
      "vid": 6026,
      "vière": 6027,
      "crime": 6028,
      "112": 6029,
      "économie": 6030,
      "servitude": 6031,
      "aliste": 6032,
      "indiquer": 6033,
      "cueil": 6034,
      "appréciations": 6035,
      "464": 6036,
      "fourniture": 6037,
      "Agence": 6038,
      "rédigée": 6039,
      "redevable": 6040,
      "Techni": 6041,
      "Bois": 6042,
      "zième": 6043,
      "évé": 6044,
      "art": 6045,
      "aréa": 6046,
      "liant": 6047,
      "dérou": 6048,
      "réclusion": 6049,
      "vien": 6050,
      "brevet": 6051,
      "mitt": 6052,
      "rendet": 6053,
      "surendet": 6054,
      "223": 6055,
      "indemnitaires": 6056,
      "lèvement": 6057,
      "communauté": 6058,
      "Jehannin": 6059,
      "créanciers": 6060,
      "Finaréa": 6061,
      "clientèle": 6062,
      "abusif": 6063,
      "ignements": 6064,
      "photographi": 6065,
      "renseignements": 6066,
      "surendettement": 6067,
      "ES": 6068,
      "Gri": 6069,
      "SM": 6070,
      "muni": 6071,
      "édi": 6072,
      "liard": 6073,
      "contexte": 6074,
      "restant": 6075,
      "proch": 6076,
      "demandent": 6077,
      "cautions": 6078,
      "indiquait": 6079,
      "Desaché": 6080,
      "investissements": 6081,
      "rompu": 6082,
      "Flores": 6083,
      "relaxé": 6084,
      "ambigu": 6085,
      "géolocalisation": 6086,
      "Lorraine": 6087,
      "éloig": 6088,
      "'‘": 6089,
      "Pas": 6090,
      "tirer": 6091,
      "réel": 6092,
      "excé": 6093,
      "stoc": 6094,
      "terres": 6095,
      "Lemoine": 6096,
      "priver": 6097,
      "vergne": 6098,
      "Auvergne": 6099,
      "constituée": 6100,
      "ligne": 6101,
      "sanitaire": 6102,
      "preuves": 6103,
      "suffisante": 6104,
      "suivantes": 6105,
      "démontr": 6106,
      "Labat": 6107,
      "torts": 6108,
      "comptabilité": 6109,
      "soulevé": 6110,
      "Bol": 6111,
      "Ohl": 6112,
      "QPC": 6113,
      "Soc": 6114,
      "sco": 6115,
      "estime": 6116,
      "rendant": 6117,
      "nimmen": 6118,
      "bilan": 6119,
      "intéressée": 6120,
      "signée": 6121,
      "exerçait": 6122,
      "indices": 6123,
      "intellec": 6124,
      "Vernimmen": 6125,
      "retenus": 6126,
      "révocation": 6127,
      "change": 6128,
      "interprété": 6129,
      "proposés": 6130,
      "Transports": 6131,
      "mariage": 6132,
      "psychi": 6133,
      "journalières": 6134,
      "réunies": 6135,
      "déficit": 6136,
      "sûreté": 6137,
      "Vexliard": 6138,
      "Ker": 6139,
      "ection": 6140,
      "ppart": 6141,
      "dites": 6142,
      "compl": 6143,
      "guy": 6144,
      "déclarées": 6145,
      "ateurs": 6146,
      "Marne": 6147,
      "françaises": 6148,
      "feuille": 6149,
      "utilisatrice": 6150,
      "tarification": 6151,
      "nullement": 6152,
      "Philippart": 6153,
      "Logis": 6154,
      "322": 6155,
      "Cassig": 6156,
      "EC": 6157,
      "Font": 6158,
      "RF": 6159,
      "entente": 6160,
      "semaines": 6161,
      "comi": 6162,
      "péni": 6163,
      "tualité": 6164,
      "agissait": 6165,
      "jugements": 6166,
      "ARL": 6167,
      "1985": 6168,
      "formalité": 6169,
      "corpo": 6170,
      "Seys": 6171,
      "exploitant": 6172,
      "commerciales": 6173,
      "honoraire": 6174,
      "inviter": 6175,
      "solidaire": 6176,
      "pratique": 6177,
      "Briard": 6178,
      "argumentation": 6179,
      "rubriques": 6180,
      "Pays": 6181,
      "conviction": 6182,
      "Cassignard": 6183,
      "EP": 6184,
      "Jon": 6185,
      "Mas": 6186,
      "Maison": 6187,
      "Nat": 6188,
      "Sou": 6189,
      "mait": 6190,
      "anxi": 6191,
      "diminu": 6192,
      "extrait": 6193,
      "formes": 6194,
      "formés": 6195,
      "septième": 6196,
      "expresse": 6197,
      "Bouzi": 6198,
      "Bouhann": 6199,
      "parents": 6200,
      "immeubles": 6201,
      "alléguée": 6202,
      "Grandjean": 6203,
      "soudaine": 6204,
      "Bouzidi": 6205,
      "Bouhanna": 6206,
      "zier": 6207,
      "ïté": 6208,
      "ledit": 6209,
      "parten": 6210,
      "visions": 6211,
      "renq": 6212,
      "sup": 6213,
      "privant": 6214,
      "2315": 6215,
      "consac": 6216,
      "recherches": 6217,
      "borne": 6218,
      "réduit": 6219,
      "central": 6220,
      "distincts": 6221,
      "habituelle": 6222,
      "Fontaine": 6223,
      "ODes": 6224,
      "Zed": 6225,
      "sec": 6226,
      "gel": 6227,
      "métro": 6228,
      "itali": 6229,
      "commet": 6230,
      "rapportée": 6231,
      "employeurs": 6232,
      "PARTI": 6233,
      "périmètre": 6234,
      "doute": 6235,
      "Rouvière": 6236,
      "gestionnaire": 6237,
      "Farrenq": 6238,
      "significa": 6239,
      "Midi": 6240,
      "autoriser": 6241,
      "patrimoni": 6242,
      "juridiques": 6243,
      "hébergement": 6244,
      "Nési": 6245,
      "GmbH": 6246,
      "suppri": 6247,
      "ODesist": 6248,
      "Zedda": 6249,
      "6e": 6250,
      "fil": 6251,
      "ion": 6252,
      "incompati": 6253,
      "tics": 6254,
      "214": 6255,
      "Rési": 6256,
      "impropre": 6257,
      "graves": 6258,
      "condamnés": 6259,
      "Seguy": 6260,
      "885": 6261,
      "répondant": 6262,
      "affectation": 6263,
      "cède": 6264,
      "souveraine": 6265,
      "Charmoi": 6266,
      "fournis": 6267,
      "llaux": 6268,
      "Charmoillaux": 6269,
      "Joly": 6270,
      "RA": 6271,
      "SOM": 6272,
      "pati": 6273,
      "inoppos": 6274,
      "réité": 6275,
      "révision": 6276,
      "illage": 6277,
      "présentant": 6278,
      "défaillan": 6279,
      "finalité": 6280,
      "233": 6281,
      "hieu": 6282,
      "Sommer": 6283,
      "505": 6284,
      "mentionner": 6285,
      "caractérisée": 6286,
      "alerte": 6287,
      "distincte": 6288,
      "dissimulation": 6289,
      "divorcée": 6290,
      "législateur": 6291,
      "immatriculation": 6292,
      "Itta": 6293,
      "Hairon": 6294,
      "Adi": 6295,
      "Haut": 6296,
      "Tras": 6297,
      "ise": 6298,
      "ill": 6299,
      "manus": 6300,
      "extéri": 6301,
      "tueux": 6302,
      "novation": 6303,
      "mini": 6304,
      "posées": 6305,
      "Verger": 6306,
      "contractant": 6307,
      "oeuvres": 6308,
      "agricoles": 6309,
      "assignée": 6310,
      "Agen": 6311,
      "essentielles": 6312,
      "sexuelle": 6313,
      "expérience": 6314,
      "Trassoudaine": 6315,
      "910": 6316,
      "Lors": 6317,
      "Nouvelle": 6318,
      "Wyon": 6319,
      "bour": 6320,
      "déplacement": 6321,
      "oise": 6322,
      "rép": 6323,
      "abat": 6324,
      "137": 6325,
      "mati": 6326,
      "males": 6327,
      "AUV": 6328,
      "carrière": 6329,
      "connaît": 6330,
      "mentionnée": 6331,
      "exclusi": 6332,
      "concerné": 6333,
      "définies": 6334,
      "sollicitée": 6335,
      "exigible": 6336,
      "établissant": 6337,
      "Etablissements": 6338,
      "indirects": 6339,
      "MER": 6340,
      "dépas": 6341,
      "ppe": 6342,
      "riot": 6343,
      "allég": 6344,
      "excès": 6345,
      "nité": 6346,
      "faites": 6347,
      "1355": 6348,
      "ARS": 6349,
      "CHAUV": 6350,
      "COND": 6351,
      "permettaient": 6352,
      "alais": 6353,
      "commissions": 6354,
      "accomplissement": 6355,
      "destinés": 6356,
      "visibilité": 6357,
      "engager": 6358,
      "prévoient": 6359,
      "Distribution": 6360,
      "délictuelle": 6361,
      "ambiguïté": 6362,
      "CHAUVIN": 6363,
      "Dji": 6364,
      "Guy": 6365,
      "GIE": 6366,
      "pur": 6367,
      "envoy": 6368,
      "simi": 6369,
      "ocate": 6370,
      "avocate": 6371,
      "desquelles": 6372,
      "invoquant": 6373,
      "Cher": 6374,
      "indivis": 6375,
      "estimant": 6376,
      "travailleur": 6377,
      "chèque": 6378,
      "PARTIELLE": 6379,
      "Ittah": 6380,
      "Af": 6381,
      "cf": 6382,
      "hui": 6383,
      "air": 6384,
      "vité": 6385,
      "aces": 6386,
      "148": 6387,
      "ignement": 6388,
      "aura": 6389,
      "circu": 6390,
      "contestable": 6391,
      "morales": 6392,
      "bénéficiaires": 6393,
      "ffreau": 6394,
      "aggravés": 6395,
      "Barak": 6396,
      "héritière": 6397,
      "moitié": 6398,
      "rattache": 6399,
      "perçues": 6400,
      "inférieure": 6401,
      "frauduleuse": 6402,
      "Tuffreau": 6403,
      "démolition": 6404,
      "SOMMER": 6405,
      "68": 6406,
      "naient": 6407,
      "nage": 6408,
      "llez": 6409,
      "appelé": 6410,
      "cessions": 6411,
      "tern": 6412,
      "contrairement": 6413,
      "rach": 6414,
      "bornée": 6415,
      "apprécie": 6416,
      "462": 6417,
      "DIC": 6418,
      "accomplir": 6419,
      "étend": 6420,
      "indemnisé": 6421,
      "XXXX": 6422,
      "découlant": 6423,
      "substanti": 6424,
      "Jonction": 6425,
      "-[": 6426,
      "giè": 6427,
      "lor": 6428,
      "ene": 6429,
      "anor": 6430,
      "rial": 6431,
      "récu": 6432,
      "accéder": 6433,
      "férée": 6434,
      "107": 6435,
      "légalité": 6436,
      "précitée": 6437,
      "gros": 6438,
      "durées": 6439,
      "507": 6440,
      "conscience": 6441,
      "spécialisé": 6442,
      "Deltort": 6443,
      "utilisé": 6444,
      "utilisés": 6445,
      "antérieur": 6446,
      "continue": 6447,
      "embauche": 6448,
      "filiales": 6449,
      "Canac": 6450,
      "clairs": 6451,
      "structure": 6452,
      "surabondants": 6453,
      "Adida": 6454,
      "([": 6455,
      "325": 6456,
      "DS": 6457,
      "IJ": 6458,
      "Lux": 6459,
      "TP": 6460,
      "TU": 6461,
      "ms": 6462,
      "pharma": 6463,
      "sée": 6464,
      "écou": 6465,
      "ordonne": 6466,
      "moges": 6467,
      "moindre": 6468,
      "fiable": 6469,
      "stade": 6470,
      "soulevée": 6471,
      "fonctionnel": 6472,
      "250": 6473,
      "associations": 6474,
      "entraînera": 6475,
      "Boullez": 6476,
      "considérés": 6477,
      "égal": 6478,
      "juste": 6479,
      "répondu": 6480,
      "tromp": 6481,
      "Limoges": 6482,
      "Labor": 6483,
      "allouer": 6484,
      "prescriptions": 6485,
      "catégories": 6486,
      "Petit": 6487,
      "arbitrage": 6488,
      "appelante": 6489,
      "prêteur": 6490,
      "clairement": 6491,
      "intellectuelle": 6492,
      "giène": 6493,
      "Habit": 6494,
      "Tarab": 6495,
      "hau": 6496,
      "ront": 6497,
      "toit": 6498,
      "dex": 6499,
      "reconventionnelle": 6500,
      "tini": 6501,
      "ciens": 6502,
      "prépar": 6503,
      "dien": 6504,
      "fiche": 6505,
      "composition": 6506,
      "carte": 6507,
      "508": 6508,
      "Alt": 6509,
      "Aldi": 6510,
      "trafic": 6511,
      "Viriot": 6512,
      "651": 6513,
      "Toute": 6514,
      "Barrial": 6515,
      "couverture": 6516,
      "emprunteurs": 6517,
      "Gallet": 6518,
      "vacances": 6519,
      "Baraké": 6520,
      "Tarabeux": 6521,
      "Fort": 6522,
      "Mau": 6523,
      "Mou": 6524,
      "Rh": 6525,
      "bel": 6526,
      "scel": 6527,
      "teneur": 6528,
      "voquant": 6529,
      "violant": 6530,
      "1792": 6531,
      "employés": 6532,
      "ouvre": 6533,
      "créé": 6534,
      "valor": 6535,
      "apparaître": 6536,
      "représenter": 6537,
      "nierie": 6538,
      "modifiée": 6539,
      "infirmation": 6540,
      "centrale": 6541,
      "adressés": 6542,
      "travailler": 6543,
      "taxes": 6544,
      "intitulé": 6545,
      "Lamy": 6546,
      "contagieuse": 6547,
      "parole": 6548,
      "UNEDIC": 6549,
      "GFA": 6550,
      "Hanno": 6551,
      "PO": 6552,
      "UB": 6553,
      "kpa": 6554,
      "presse": 6555,
      "thé": 6556,
      "ues": 6557,
      "oralement": 6558,
      "avé": 6559,
      "moin": 6560,
      "priv": 6561,
      "SCT": 6562,
      "défec": 6563,
      "inscrit": 6564,
      "231": 6565,
      "186": 6566,
      "justifiées": 6567,
      "hie": 6568,
      "expi": 6569,
      "voyage": 6570,
      "909": 6571,
      "entier": 6572,
      "technologies": 6573,
      "constructions": 6574,
      "délivrer": 6575,
      "importation": 6576,
      "Morel": 6577,
      "Dary": 6578,
      "chauffeur": 6579,
      "comprenant": 6580,
      "additionnel": 6581,
      "anxiété": 6582,
      "Djikpa": 6583,
      "Habitat": 6584,
      "Hannotin": 6585,
      "Bac": 6586,
      "Beau": 6587,
      "cide": 6588,
      "destruction": 6589,
      "voisin": 6590,
      "act": 6591,
      "méconnaître": 6592,
      "station": 6593,
      "prez": 6594,
      "213": 6595,
      "contraires": 6596,
      "609": 6597,
      "1995": 6598,
      "comportait": 6599,
      "régler": 6600,
      "adoption": 6601,
      "daté": 6602,
      "infirmé": 6603,
      "contraintes": 6604,
      "Chauvel": 6605,
      "immédiate": 6606,
      "identification": 6607,
      "ultérieurement": 6608,
      "éducation": 6609,
      "extinction": 6610,
      "rattachent": 6611,
      "434": 6612,
      "Kac": 6613,
      "Latre": 6614,
      "édic": 6615,
      "onne": 6616,
      "reprises": 6617,
      "lay": 6618,
      "aume": 6619,
      "audit": 6620,
      "déni": 6621,
      "détenue": 6622,
      "sages": 6623,
      "provoqué": 6624,
      "rapi": 6625,
      "résultats": 6626,
      "241": 6627,
      "alinéas": 6628,
      "déclarés": 6629,
      "nommé": 6630,
      "dispositifs": 6631,
      "affectés": 6632,
      "Ricard": 6633,
      "toral": 6634,
      "Sommé": 6635,
      "diffusion": 6636,
      "métho": 6637,
      "autonomie": 6638,
      "particulièrement": 6639,
      "Immo": 6640,
      "discussion": 6641,
      "équivalent": 6642,
      "rétractation": 6643,
      "Royaume": 6644,
      "éloignement": 6645,
      "Chauvelot": 6646,
      "Latreille": 6647,
      "Bren": 6648,
      "Sim": 6649,
      "hab": 6650,
      "struction": 6651,
      "témoin": 6652,
      "inten": 6653,
      "inversé": 6654,
      "injonction": 6655,
      "quement": 6656,
      "ave": 6657,
      "riv": 6658,
      "actifs": 6659,
      "perqui": 6660,
      "agn": 6661,
      "fine": 6662,
      "délégués": 6663,
      "SECOND": 6664,
      "licenciements": 6665,
      "résident": 6666,
      "blessures": 6667,
      "hygiène": 6668,
      "entière": 6669,
      "formuler": 6670,
      "réclamées": 6671,
      "ogen": 6672,
      "placements": 6673,
      "Suisse": 6674,
      "Immobili": 6675,
      "automobiles": 6676,
      "compensa": 6677,
      "Guillou": 6678,
      "inventaire": 6679,
      "pénitenti": 6680,
      "Coir": 6681,
      "Valat": 6682,
      "pet": 6683,
      "tz": 6684,
      "élè": 6685,
      "debert": 6686,
      "enquêtes": 6687,
      "incen": 6688,
      "actuelle": 6689,
      "interrogatoire": 6690,
      "transmettre": 6691,
      "igno": 6692,
      "accorder": 6693,
      "Aldebert": 6694,
      "borde": 6695,
      "sollicitait": 6696,
      "Poupet": 6697,
      "dirigées": 6698,
      "versements": 6699,
      "gouvernement": 6700,
      "Coirre": 6701,
      "MP": 6702,
      "Offi": 6703,
      "RH": 6704,
      "nav": 6705,
      "quot": 6706,
      "avance": 6707,
      "milli": 6708,
      "voies": 6709,
      "illesse": 6710,
      "renoncé": 6711,
      "program": 6712,
      "votre": 6713,
      "adjudi": 6714,
      "pection": 6715,
      "chemin": 6716,
      "sys": 6717,
      "déterminées": 6718,
      "chipin": 6719,
      "asseur": 6720,
      "totalement": 6721,
      "concurren": 6722,
      "éventuelle": 6723,
      "ntag": 6724,
      "consécutives": 6725,
      "supporter": 6726,
      "Occhipin": 6727,
      "hiérarchi": 6728,
      "Brenntag": 6729,
      "Occhipinti": 6730,
      "BM": 6731,
      "Bende": 6732,
      "Dr": 6733,
      "Ful": 6734,
      "TVA": 6735,
      "Vasseur": 6736,
      "nassi": 6737,
      "reli": 6738,
      "repose": 6739,
      "retiennent": 6740,
      "sine": 6741,
      "sino": 6742,
      "dées": 6743,
      "ataire": 6744,
      "issement": 6745,
      "prévenue": 6746,
      "prévisible": 6747,
      "chiron": 6748,
      "CAR": 6749,
      "ffaud": 6750,
      "attaqués": 6751,
      "relaxe": 6752,
      "vieillesse": 6753,
      "ceptions": 6754,
      "rémunérées": 6755,
      "Riffaud": 6756,
      "échéances": 6757,
      "manifestation": 6758,
      "inférieur": 6759,
      "Quint": 6760,
      "Ghnassi": 6761,
      "crain": 6762,
      "Petitprez": 6763,
      "pénitentiaire": 6764,
      "Bendel": 6765,
      "Fulchiron": 6766,
      "Ghnassia": 6767,
      "386": 6768,
      "Lou": 6769,
      "TF": 6770,
      "atifs": 6771,
      "omis": 6772,
      "lex": 6773,
      "anvic": 6774,
      "entaché": 6775,
      "insur": 6776,
      "informée": 6777,
      "mieux": 6778,
      "CAM": 6779,
      "mestre": 6780,
      "visa": 6781,
      "1881": 6782,
      "plume": 6783,
      "garantis": 6784,
      "réguli": 6785,
      "désigner": 6786,
      "trop": 6787,
      "Ascen": 6788,
      "Bank": 6789,
      "majorité": 6790,
      "déchus": 6791,
      "comparaison": 6792,
      "allouée": 6793,
      "Syndic": 6794,
      "préfec": 6795,
      "Goanvic": 6796,
      "insurmont": 6797,
      "Ascensi": 6798,
      "Fabri": 6799,
      "itu": 6800,
      "za": 6801,
      "États": 6802,
      "concours": 6803,
      "conjoint": 6804,
      "accessi": 6805,
      "alie": 6806,
      "toxi": 6807,
      "appropri": 6808,
      "approu": 6809,
      "Recours": 6810,
      "cachés": 6811,
      "connaissait": 6812,
      "refour": 6813,
      "Jollec": 6814,
      "réputée": 6815,
      "Burgaud": 6816,
      "Mornet": 6817,
      "corporel": 6818,
      "Ben": 6819,
      "Cal": 6820,
      "Mose": 6821,
      "SP": 6822,
      "citement": 6823,
      "alco": 6824,
      "itas": 6825,
      "Laplume": 6826,
      "précises": 6827,
      "soutenir": 6828,
      "internet": 6829,
      "prévaut": 6830,
      "excluant": 6831,
      "607": 6832,
      "787": 6833,
      "Bonnet": 6834,
      "représentante": 6835,
      "solutions": 6836,
      "signifié": 6837,
      "Corse": 6838,
      "disposer": 6839,
      "reconnue": 6840,
      "inscrire": 6841,
      "Quintard": 6842,
      "07": 6843,
      "331": 6844,
      "AIG": 6845,
      "Bé": 6846,
      "Ke": 6847,
      "Olli": 6848,
      "bogen": 6849,
      "uration": 6850,
      "déférer": 6851,
      "pays": 6852,
      "communiquées": 6853,
      "Carrefour": 6854,
      "alait": 6855,
      "fixés": 6856,
      "francs": 6857,
      "loué": 6858,
      "Pierre": 6859,
      "Monte": 6860,
      "lenbogen": 6861,
      "dépit": 6862,
      "valant": 6863,
      "sentence": 6864,
      "héritier": 6865,
      "rendaient": 6866,
      "3141": 6867,
      "détachement": 6868,
      "tâches": 6869,
      "Croizier": 6870,
      "Ollivier": 6871,
      "Cab": 6872,
      "Ene": 6873,
      "Paci": 6874,
      "UP": 6875,
      "asin": 6876,
      "éri": 6877,
      "enter": 6878,
      "dise": 6879,
      "sujet": 6880,
      "emplois": 6881,
      "actionnaires": 6882,
      "CONSTA": 6883,
      "Piquot": 6884,
      "traité": 6885,
      "contribué": 6886,
      "origin": 6887,
      "AMF": 6888,
      "évalué": 6889,
      "incombait": 6890,
      "Syl": 6891,
      "majoration": 6892,
      "introduite": 6893,
      "restaurant": 6894,
      "classification": 6895,
      "Rapide": 6896,
      "enelenbogen": 6897,
      "Kacenelenbogen": 6898,
      "CONSTATE": 6899,
      "612": 6900,
      "Cre": 6901,
      "Klo": 6902,
      "Vers": 6903,
      "pau": 6904,
      "we": 6905,
      "excéder": 6906,
      "expul": 6907,
      "agu": 6908,
      "agression": 6909,
      "212": 6910,
      "Partner": 6911,
      "ventes": 6912,
      "concernée": 6913,
      "confirmation": 6914,
      "douani": 6915,
      "463": 6916,
      "351": 6917,
      "culture": 6918,
      "précisait": 6919,
      "spécifiques": 6920,
      "influ": 6921,
      "Services": 6922,
      "établissait": 6923,
      "3123": 6924,
      "Schmitt": 6925,
      "mixte": 6926,
      "lutte": 6927,
      "exclusivité": 6928,
      "Moselle": 6929,
      "Kloda": 6930,
      "AB": 6931,
      "Job": 6932,
      "Pharma": 6933,
      "pis": 6934,
      "cités": 6935,
      "convoqué": 6936,
      "institution": 6937,
      "récap": 6938,
      "super": 6939,
      "présidente": 6940,
      "ISF": 6941,
      "134": 6942,
      "portent": 6943,
      "long": 6944,
      "invoquées": 6945,
      "suffisant": 6946,
      "mort": 6947,
      "assureurs": 6948,
      "Casino": 6949,
      "cessionnaire": 6950,
      "ajouté": 6951,
      "appliquent": 6952,
      "PIP": 6953,
      "destiné": 6954,
      "destinée": 6955,
      "éry": 6956,
      "prescrites": 6957,
      "Robin": 6958,
      "inclus": 6959,
      "Merloz": 6960,
      "demeurant": 6961,
      "Enedis": 6962,
      "récapitu": 6963,
      "480": 6964,
      "Alle": 6965,
      "Cont": 6966,
      "Fe": 6967,
      "Lé": 6968,
      "Mel": 6969,
      "nand": 6970,
      "tabli": 6971,
      "yre": 6972,
      "détri": 6973,
      "cumu": 6974,
      "1989": 6975,
      "gique": 6976,
      "associée": 6977,
      "Art": 6978,
      "notaires": 6979,
      "Avocats": 6980,
      "valeurs": 6981,
      "vérifi": 6982,
      "nombreuses": 6983,
      "interprétariat": 6984,
      "Valéry": 6985,
      "intégralement": 6986,
      "rectifié": 6987,
      "courriers": 6988,
      "prioritaires": 6989,
      "indépendant": 6990,
      "Management": 6991,
      "Bruy": 6992,
      "hospitalisation": 6993,
      "Maunand": 6994,
      "LP": 6995,
      "Pu": 6996,
      "dations": 6997,
      "iso": 6998,
      "nale": 6999,
      "conservé": 7000,
      "prévoir": 7001,
      "dences": 7002,
      "lus": 7003,
      "distribu": 7004,
      "vote": 7005,
      "voquée": 7006,
      "laient": 7007,
      "concluent": 7008,
      "CONSE": 7009,
      "grall": 7010,
      "plafond": 7011,
      "abstraction": 7012,
      "loués": 7013,
      "ariat": 7014,
      "bénéficie": 7015,
      "taï": 7016,
      "voltaï": 7017,
      "investisse": 7018,
      "Mathieu": 7019,
      "déposer": 7020,
      "exercées": 7021,
      "dépourvue": 7022,
      "préfet": 7023,
      "Abgrall": 7024,
      "logistique": 7025,
      "Rhin": 7026,
      "incendie": 7027,
      "ignorer": 7028,
      "Blan": 7029,
      "Ir": 7030,
      "RP": 7031,
      "WBG": 7032,
      "dipl": 7033,
      "procède": 7034,
      "exposé": 7035,
      "attente": 7036,
      "115": 7037,
      "produite": 7038,
      "lansan": 7039,
      "constante": 7040,
      "antis": 7041,
      "562": 7042,
      "3121": 7043,
      "quelque": 7044,
      "concernées": 7045,
      "affirmation": 7046,
      "interpréter": 7047,
      "Vallansan": 7048,
      "intéressés": 7049,
      "ographi": 7050,
      "réglementaire": 7051,
      "difficulté": 7052,
      "IEME": 7053,
      "interrompue": 7054,
      "lecture": 7055,
      "assorti": 7056,
      "participer": 7057,
      "exonération": 7058,
      "involontaires": 7059,
      "concurrenti": 7060,
      "Jobert": 7061,
      "détriment": 7062,
      "diplô": 7063,
      "Bo": 7064,
      "Card": 7065,
      "Dor": 7066,
      "Dire": 7067,
      "Lag": 7068,
      "May": 7069,
      "San": 7070,
      "Sec": 7071,
      "TRL": 7072,
      "cuni": 7073,
      "tice": 7074,
      "ana": 7075,
      "artis": 7076,
      "secré": 7077,
      "foncière": 7078,
      "notice": 7079,
      "poque": 7080,
      "travaillé": 7081,
      "salariales": 7082,
      "197": 7083,
      "manifesté": 7084,
      "503": 7085,
      "exige": 7086,
      "Ancel": 7087,
      "ajoutant": 7088,
      "formule": 7089,
      "imposé": 7090,
      "imposant": 7091,
      "instances": 7092,
      "tourisme": 7093,
      "EXP": 7094,
      "scellés": 7095,
      "Syndicat": 7096,
      "Versantis": 7097,
      "TRLP": 7098,
      "621": 7099,
      "DA": 7100,
      "GC": 7101,
      "test": 7102,
      "èmes": 7103,
      "époque": 7104,
      "requi": 7105,
      "cie": 7106,
      "détenir": 7107,
      "rentes": 7108,
      "actuel": 7109,
      "homici": 7110,
      "compréhen": 7111,
      "Boutié": 7112,
      "liquidateurs": 7113,
      "901": 7114,
      "cotisation": 7115,
      "ferme": 7116,
      "inapte": 7117,
      "nouvel": 7118,
      "opérateurs": 7119,
      "fabricant": 7120,
      "plaignant": 7121,
      "parisi": 7122,
      "fichier": 7123,
      "émanant": 7124,
      "Bacache": 7125,
      "DH": 7126,
      "FF": 7127,
      "For": 7128,
      "cre": 7129,
      "vaine": 7130,
      "conserver": 7131,
      "atten": 7132,
      "trat": 7133,
      "survenance": 7134,
      "cessé": 7135,
      "pécuni": 7136,
      "CEE": 7137,
      "144": 7138,
      "soutenant": 7139,
      "suicide": 7140,
      "accordée": 7141,
      "aucunement": 7142,
      "apparaiss": 7143,
      "442": 7144,
      "infirmer": 7145,
      "précédant": 7146,
      "Diop": 7147,
      "fournies": 7148,
      "discipline": 7149,
      "rapide": 7150,
      "Bruyère": 7151,
      "EXPTS": 7152,
      "Ges": 7153,
      "HG": 7154,
      "VI": 7155,
      "ba": 7156,
      "sci": 7157,
      "éra": 7158,
      "quaient": 7159,
      "confr": 7160,
      "ina": 7161,
      "vidé": 7162,
      "1965": 7163,
      "pénalité": 7164,
      "payées": 7165,
      "homo": 7166,
      "ardin": 7167,
      "montants": 7168,
      "Sop": 7169,
      "prétendue": 7170,
      "empêcher": 7171,
      "consulter": 7172,
      "guedoc": 7173,
      "confidenti": 7174,
      "Languedoc": 7175,
      "architecte": 7176,
      "envisagé": 7177,
      "accessoires": 7178,
      "adaptation": 7179,
      "téléphoniques": 7180,
      "cadastrée": 7181,
      "rappeler": 7182,
      "explications": 7183,
      "010": 7184,
      "Hy": 7185,
      "TN": 7186,
      "davantage": 7187,
      "mouve": 7188,
      "reconnaître": 7189,
      "sives": 7190,
      "prévision": 7191,
      "prévenir": 7192,
      "ambu": 7193,
      "êtres": 7194,
      "prohi": 7195,
      "101": 7196,
      "critère": 7197,
      "musi": 7198,
      "appartenance": 7199,
      "exposants": 7200,
      "avenir": 7201,
      "engagées": 7202,
      "connexion": 7203,
      "érard": 7204,
      "disproportionné": 7205,
      "candidats": 7206,
      "informatique": 7207,
      "strictement": 7208,
      "expulsion": 7209,
      "120": 7210,
      "PV": 7211,
      "Rasch": 7212,
      "Wur": 7213,
      "fu": 7214,
      "king": 7215,
      "raient": 7216,
      "éti": 7217,
      "excédé": 7218,
      "1232": 7219,
      "rapportait": 7220,
      "230": 7221,
      "constitutif": 7222,
      "lone": 7223,
      "DONNE": 7224,
      "indivisibilité": 7225,
      "remplis": 7226,
      "diligen": 7227,
      "Unis": 7228,
      "Assur": 7229,
      "régissant": 7230,
      "proportionnée": 7231,
      "tarif": 7232,
      "Bellone": 7233,
      "souhait": 7234,
      "Samuel": 7235,
      "stock": 7236,
      "hiérarchique": 7237,
      "Raschel": 7238,
      "631": 7239,
      "Ville": 7240,
      "cle": 7241,
      "intoxi": 7242,
      "telier": 7243,
      "chis": 7244,
      "améli": 7245,
      "dates": 7246,
      "MAF": 7247,
      "réparations": 7248,
      "signifiée": 7249,
      "couverte": 7250,
      "choisi": 7251,
      "Belli": 7252,
      "minimale": 7253,
      "ACTE": 7254,
      "maximum": 7255,
      "dégradation": 7256,
      "Aldigé": 7257,
      "valorisation": 7258,
      "perquisition": 7259,
      "craindre": 7260,
      "CONSEQUENCE": 7261,
      "611": 7262,
      "EM": 7263,
      "EARL": 7264,
      "FG": 7265,
      "lour": 7266,
      "ours": 7267,
      "indic": 7268,
      "auteurs": 7269,
      "ora": 7270,
      "prétexte": 7271,
      "forman": 7272,
      "veille": 7273,
      "009": 7274,
      "agres": 7275,
      "rapporte": 7276,
      "dispar": 7277,
      "potenti": 7278,
      "mination": 7279,
      "délibérations": 7280,
      "180": 7281,
      "térise": 7282,
      "garantiss": 7283,
      "caractérise": 7284,
      "plaçant": 7285,
      "effectifs": 7286,
      "illis": 7287,
      "équipe": 7288,
      "valider": 7289,
      "recru": 7290,
      "entendue": 7291,
      "interrompu": 7292,
      "ingénierie": 7293,
      "Philippe": 7294,
      "augmentation": 7295,
      "équipements": 7296,
      "futurs": 7297,
      "orientation": 7298,
      "témoign": 7299,
      "chirur": 7300,
      "Géné": 7301,
      "dépassement": 7302,
      "Toutefois": 7303,
      "Sylvaine": 7304,
      "Cardini": 7305,
      "513": 7306,
      "Op": 7307,
      "Var": 7308,
      "bus": 7309,
      "là": 7310,
      "témoins": 7311,
      "isant": 7312,
      "précon": 7313,
      "trouver": 7314,
      "dol": 7315,
      "ffage": 7316,
      "formalités": 7317,
      "interrup": 7318,
      "établies": 7319,
      "564": 7320,
      "responsables": 7321,
      "annuels": 7322,
      "Carillon": 7323,
      "organisations": 7324,
      "1132": 7325,
      "stipulation": 7326,
      "industriels": 7327,
      "conventionnelles": 7328,
      "utiliser": 7329,
      "résolutoire": 7330,
      "introduit": 7331,
      "incluant": 7332,
      "marchandise": 7333,
      "ologique": 7334,
      "assortie": 7335,
      "instrument": 7336,
      "chèques": 7337,
      "Logistics": 7338,
      "Secur": 7339,
      "BI": 7340,
      "Bérard": 7341,
      "Elec": 7342,
      "Lu": 7343,
      "spor": 7344,
      "ets": 7345,
      "ource": 7346,
      "irrégulier": 7347,
      "onnais": 7348,
      "608": 7349,
      "assister": 7350,
      "Dudit": 7351,
      "906": 7352,
      "élevé": 7353,
      "trancher": 7354,
      "trajet": 7355,
      "contribuables": 7356,
      "Cora": 7357,
      "supérieurs": 7358,
      "adhésion": 7359,
      "Etablissement": 7360,
      "Technip": 7361,
      "Simon": 7362,
      "homolo": 7363,
      "Hen": 7364,
      "MD": 7365,
      "image": 7366,
      "the": 7367,
      "ynard": 7368,
      "cion": 7369,
      "ino": 7370,
      "indépendance": 7371,
      "incompétent": 7372,
      "iste": 7373,
      "rétabli": 7374,
      "fiées": 7375,
      "préser": 7376,
      "performan": 7377,
      "224": 7378,
      "suivre": 7379,
      "ières": 7380,
      "matiques": 7381,
      "subordonnée": 7382,
      "cept": 7383,
      "beili": 7384,
      "clos": 7385,
      "grand": 7386,
      "Poin": 7387,
      "souhai": 7388,
      "dévolutif": 7389,
      "pathologie": 7390,
      "Gibeili": 7391,
      "Monteynard": 7392,
      "Wurtz": 7393,
      "011": 7394,
      "GT": 7395,
      "Hel": 7396,
      "Kriv": 7397,
      "Pire": 7398,
      "lable": 7399,
      "appelle": 7400,
      "rendait": 7401,
      "accueil": 7402,
      "cesser": 7403,
      "DES": 7404,
      "commence": 7405,
      "trimestre": 7406,
      "carence": 7407,
      "quelques": 7408,
      "Solu": 7409,
      "préva": 7410,
      "Bouvier": 7411,
      "confirmatif": 7412,
      "affectée": 7413,
      "Viaud": 7414,
      "assemblées": 7415,
      "engagés": 7416,
      "coupables": 7417,
      "libérale": 7418,
      "sollicite": 7419,
      "identifier": 7420,
      "renoncer": 7421,
      "réfère": 7422,
      "ologiques": 7423,
      "TTC": 7424,
      "immatriculé": 7425,
      "renouvelé": 7426,
      "événement": 7427,
      "photographies": 7428,
      "manuscrite": 7429,
      "Office": 7430,
      "Partners": 7431,
      "homicide": 7432,
      "Krivine": 7433,
      "Pireyre": 7434,
      "665": 7435,
      "AX": 7436,
      "Ei": 7437,
      "Gold": 7438,
      "Her": 7439,
      "bud": 7440,
      "jeu": 7441,
      "kil": 7442,
      "nous": 7443,
      "pacte": 7444,
      "rob": 7445,
      "lain": 7446,
      "cine": 7447,
      "inhé": 7448,
      "meub": 7449,
      "rique": 7450,
      "expé": 7451,
      "yenne": 7452,
      "demange": 7453,
      "007": 7454,
      "suivent": 7455,
      "ancienne": 7456,
      "directrice": 7457,
      "bénéficiait": 7458,
      "accomplis": 7459,
      "arrus": 7460,
      "réclamée": 7461,
      "Agent": 7462,
      "critiqué": 7463,
      "automatique": 7464,
      "Grandemange": 7465,
      "dispense": 7466,
      "souscrits": 7467,
      "sexuelles": 7468,
      "déduisent": 7469,
      "participé": 7470,
      "involontaire": 7471,
      "ouvrages": 7472,
      "Soutenant": 7473,
      "Cabarrus": 7474,
      "intoxication": 7475,
      "Poinseaux": 7476,
      "Eiffage": 7477,
      "budg": 7478,
      "Gall": 7479,
      "Hill": 7480,
      "IP": 7481,
      "Pon": 7482,
      "Poste": 7483,
      "dressé": 7484,
      "heur": 7485,
      "stra": 7486,
      "xami": 7487,
      "arti": 7488,
      "ciers": 7489,
      "avan": 7490,
      "estant": 7491,
      "articu": 7492,
      "donneur": 7493,
      "mélan": 7494,
      "tenaient": 7495,
      "célé": 7496,
      "défendre": 7497,
      "174": 7498,
      "antissement": 7499,
      "oblige": 7500,
      "journée": 7501,
      "issues": 7502,
      "ssée": 7503,
      "organiser": 7504,
      "contestées": 7505,
      "affecte": 7506,
      "Douxami": 7507,
      "locataires": 7508,
      "contractuellement": 7509,
      "prolongeant": 7510,
      "imposent": 7511,
      "immunité": 7512,
      "probante": 7513,
      "alloué": 7514,
      "souverain": 7515,
      "sauraient": 7516,
      "arbitrale": 7517,
      "New": 7518,
      "impayés": 7519,
      "Hauts": 7520,
      "Contestant": 7521,
      "610": 7522,
      "Jour": 7523,
      "llon": 7524,
      "mest": 7525,
      "td": 7526,
      "ément": 7527,
      "levé": 7528,
      "séques": 7529,
      "générateur": 7530,
      "nelles": 7531,
      "souscrite": 7532,
      "limitation": 7533,
      "désisté": 7534,
      "Marc": 7535,
      "informant": 7536,
      "magasin": 7537,
      "datée": 7538,
      "précédente": 7539,
      "désignés": 7540,
      "excessive": 7541,
      "protégé": 7542,
      "rachat": 7543,
      "méthode": 7544,
      "bordereau": 7545,
      "chirurgi": 7546,
      "911": 7547,
      "pteur": 7548,
      "reux": 7549,
      "détenus": 7550,
      "ission": 7551,
      "resser": 7552,
      "gérants": 7553,
      "Lefeu": 7554,
      "102": 7555,
      "1251": 7556,
      "194": 7557,
      "tisme": 7558,
      "placer": 7559,
      "fondés": 7560,
      "CRCAM": 7561,
      "retenues": 7562,
      "représentatives": 7563,
      "ultéri": 7564,
      "réglé": 7565,
      "terrasse": 7566,
      "prescrits": 7567,
      "électrique": 7568,
      "SNC": 7569,
      "définie": 7570,
      "psych": 7571,
      "défaillance": 7572,
      "Luxe": 7573,
      "Lefeuvre": 7574,
      "485": 7575,
      "641": 7576,
      "DUR": 7577,
      "KARS": 7578,
      "mations": 7579,
      "tissement": 7580,
      "citation": 7581,
      "dessaisi": 7582,
      "appelée": 7583,
      "obtenus": 7584,
      "agno": 7585,
      "dra": 7586,
      "voquer": 7587,
      "inspection": 7588,
      "intervenus": 7589,
      "opéré": 7590,
      "certitude": 7591,
      "onnaise": 7592,
      "située": 7593,
      "ENTY": 7594,
      "douet": 7595,
      "Piaz": 7596,
      "1997": 7597,
      "afférente": 7598,
      "comparaître": 7599,
      "troubles": 7600,
      "immin": 7601,
      "satisfaire": 7602,
      "photovoltaï": 7603,
      "courriels": 7604,
      "Bedouet": 7605,
      "avertissement": 7606,
      "unilatérale": 7607,
      "alimentaire": 7608,
      "subséquentes": 7609,
      "Grivel": 7610,
      "municip": 7611,
      "Assurances": 7612,
      "DURIN": 7613,
      "KARSENTY": 7614,
      "Piazza": 7615,
      "Bureau": 7616,
      "No": 7617,
      "Ta": 7618,
      "To": 7619,
      "bres": 7620,
      "écla": 7621,
      "enlèvement": 7622,
      "ostini": 7623,
      "active": 7624,
      "225": 7625,
      "227": 7626,
      "salariale": 7627,
      "invoquait": 7628,
      "salariées": 7629,
      "fruit": 7630,
      "menaces": 7631,
      "fondait": 7632,
      "espagno": 7633,
      "Exposé": 7634,
      "subordonné": 7635,
      "Duc": 7636,
      "sérieusement": 7637,
      "réellement": 7638,
      "rectifica": 7639,
      "aggravée": 7640,
      "Agostini": 7641,
      "offres": 7642,
      "Grall": 7643,
      "exempts": 7644,
      "notarié": 7645,
      "répétition": 7646,
      "toiture": 7647,
      "straté": 7648,
      "370": 7649,
      "Avi": 7650,
      "AFD": 7651,
      "BR": 7652,
      "cale": 7653,
      "recourir": 7654,
      "quar": 7655,
      "préféren": 7656,
      "Lease": 7657,
      "1021": 7658,
      "marques": 7659,
      "donnant": 7660,
      "CHSCT": 7661,
      "181": 7662,
      "uite": 7663,
      "espèces": 7664,
      "situés": 7665,
      "maintenir": 7666,
      "qualifier": 7667,
      "1130": 7668,
      "Sarl": 7669,
      "occupait": 7670,
      "participations": 7671,
      "impartialité": 7672,
      "acheteur": 7673,
      "diffamation": 7674,
      "italien": 7675,
      "BA": 7676,
      "FH": 7677,
      "Gillis": 7678,
      "daient": 7679,
      "pad": 7680,
      "ciel": 7681,
      "conception": 7682,
      "isc": 7683,
      "précaire": 7684,
      "allè": 7685,
      "mécan": 7686,
      "006": 7687,
      "Lecap": 7688,
      "Congo": 7689,
      "rances": 7690,
      "impéra": 7691,
      "siste": 7692,
      "amendes": 7693,
      "Chiron": 7694,
      "301": 7695,
      "comprise": 7696,
      "joueur": 7697,
      "905": 7698,
      "entité": 7699,
      "pesant": 7700,
      "557": 7701,
      "réduire": 7702,
      "fournit": 7703,
      "distinctes": 7704,
      "antérieurs": 7705,
      "MJA": 7706,
      "ologie": 7707,
      "révélé": 7708,
      "confusion": 7709,
      "conventionnels": 7710,
      "éligibilité": 7711,
      "défectueux": 7712,
      "Lagauche": 7713,
      "Lecaplain": 7714,
      "433": 7715,
      "Nou": 7716,
      "Nir": 7717,
      "Wal": 7718,
      "ition": 7719,
      "rs": 7720,
      "indûment": 7721,
      "oie": 7722,
      "parfai": 7723,
      "alsi": 7724,
      "vea": 7725,
      "férant": 7726,
      "108": 7727,
      "attachée": 7728,
      "179": 7729,
      "gies": 7730,
      "menace": 7731,
      "MAAF": 7732,
      "recouv": 7733,
      "trouvé": 7734,
      "Corlay": 7735,
      "revendication": 7736,
      "currence": 7737,
      "législatives": 7738,
      "conflit": 7739,
      "imputables": 7740,
      "Bretagne": 7741,
      "quoti": 7742,
      "récapitula": 7743,
      "Dorail": 7744,
      "mélangé": 7745,
      "Luxembour": 7746,
      "Nirdé": 7747,
      "parfaitement": 7748,
      "Ltd": 7749,
      "Paul": 7750,
      "Sous": 7751,
      "cais": 7752,
      "curs": 7753,
      "ique": 7754,
      "ning": 7755,
      "puni": 7756,
      "confiée": 7757,
      "ata": 7758,
      "auxili": 7759,
      "moyenne": 7760,
      "aban": 7761,
      "005": 7762,
      "prive": 7763,
      "cumul": 7764,
      "1242": 7765,
      "irré": 7766,
      "nationales": 7767,
      "Marse": 7768,
      "Pier": 7769,
      "faci": 7770,
      "évidence": 7771,
      "restauration": 7772,
      "appelants": 7773,
      "exploiter": 7774,
      "gratuit": 7775,
      "influence": 7776,
      "préconis": 7777,
      "613": 7778,
      "Cail": 7779,
      "Oise": 7780,
      "TW": 7781,
      "habilité": 7782,
      "requêtes": 7783,
      "occurrence": 7784,
      "préemp": 7785,
      "illégale": 7786,
      "privi": 7787,
      "228": 7788,
      "mettait": 7789,
      "Covid": 7790,
      "cahier": 7791,
      "sécur": 7792,
      "fautive": 7793,
      "alisme": 7794,
      "605": 7795,
      "atteintes": 7796,
      "AMR": 7797,
      "exceptionnel": 7798,
      "Guin": 7799,
      "laisser": 7800,
      "attributions": 7801,
      "impliquant": 7802,
      "figurait": 7803,
      "allouées": 7804,
      "pital": 7805,
      "brute": 7806,
      "ordinaire": 7807,
      "asile": 7808,
      "officiel": 7809,
      "composé": 7810,
      "démontrant": 7811,
      "psychiatri": 7812,
      "secret": 7813,
      "Ducloz": 7814,
      "Nant": 7815,
      "Ris": 7816,
      "rabat": 7817,
      "leau": 7818,
      "sines": 7819,
      "altern": 7820,
      "sug": 7821,
      "méa": 7822,
      "rendues": 7823,
      "postu": 7824,
      "résultent": 7825,
      "561": 7826,
      "abili": 7827,
      "prévalait": 7828,
      "allur": 7829,
      "vérité": 7830,
      "occuper": 7831,
      "formulées": 7832,
      "quitter": 7833,
      "fabrication": 7834,
      "calculée": 7835,
      "Esp": 7836,
      "multip": 7837,
      "millions": 7838,
      "Nouméa": 7839,
      "sécurisation": 7840,
      "Nanterre": 7841,
      "210": 7842,
      "432": 7843,
      "Prieur": 7844,
      "Rat": 7845,
      "fo": 7846,
      "ia": 7847,
      "spec": 7848,
      "talis": 7849,
      "usu": 7850,
      "vou": 7851,
      "édon": 7852,
      "demi": 7853,
      "laval": 7854,
      "sié": 7855,
      "injustifiée": 7856,
      "attes": 7857,
      "mic": 7858,
      "absolu": 7859,
      "clas": 7860,
      "défisc": 7861,
      "entrer": 7862,
      "cardie": 7863,
      "indifféren": 7864,
      "monsieur": 7865,
      "nombreux": 7866,
      "hôtels": 7867,
      "stipulait": 7868,
      "volume": 7869,
      "Mallet": 7870,
      "consentie": 7871,
      "Guerlot": 7872,
      "négociation": 7873,
      "assujet": 7874,
      "consignation": 7875,
      "panne": 7876,
      "Masne": 7877,
      "Chermont": 7878,
      "habillage": 7879,
      "Bélaval": 7880,
      "Ak": 7881,
      "DP": 7882,
      "TG": 7883,
      "TRF": 7884,
      "cô": 7885,
      "cti": 7886,
      "oine": 7887,
      "dere": 7888,
      "desquels": 7889,
      "manu": 7890,
      "mandats": 7891,
      "130": 7892,
      "1977": 7893,
      "formalisme": 7894,
      "interpel": 7895,
      "173": 7896,
      "transpor": 7897,
      "frapp": 7898,
      "cout": 7899,
      "syndicales": 7900,
      "organisé": 7901,
      "commercialisation": 7902,
      "696": 7903,
      "ordonnances": 7904,
      "542": 7905,
      "statutaires": 7906,
      "Davoine": 7907,
      "réputé": 7908,
      "Bricout": 7909,
      "ostain": 7910,
      "compromis": 7911,
      "huitième": 7912,
      "Bellino": 7913,
      "Marseille": 7914,
      "derechef": 7915,
      "835": 7916,
      "Cla": 7917,
      "fen": 7918,
      "devenus": 7919,
      "copi": 7920,
      "voix": 7921,
      "sables": 7922,
      "couru": 7923,
      "comprend": 7924,
      "its": 7925,
      "drait": 7926,
      "opposée": 7927,
      "198": 7928,
      "exercices": 7929,
      "considérations": 7930,
      "Picardie": 7931,
      "rémunéré": 7932,
      "faï": 7933,
      "hôtel": 7934,
      "imposait": 7935,
      "acquérir": 7936,
      "Foncière": 7937,
      "normes": 7938,
      "Violeau": 7939,
      "métallur": 7940,
      "Comté": 7941,
      "Chafaï": 7942,
      "Lévis": 7943,
      "performance": 7944,
      "Goldman": 7945,
      "323": 7946,
      "350": 7947,
      "677": 7948,
      "Equi": 7949,
      "Sci": 7950,
      "tative": 7951,
      "ourd": 7952,
      "indirect": 7953,
      "division": 7954,
      "restre": 7955,
      "appos": 7956,
      "actu": 7957,
      "prop": 7958,
      "trimest": 7959,
      "162": 7960,
      "responsabilités": 7961,
      "502": 7962,
      "Institu": 7963,
      "exclut": 7964,
      "notifiées": 7965,
      "bons": 7966,
      "376": 7967,
      "planning": 7968,
      "protecteur": 7969,
      "réclamer": 7970,
      "technicien": 7971,
      "rédigé": 7972,
      "mètres": 7973,
      "maximale": 7974,
      "acquitter": 7975,
      "Proc": 7976,
      "échanges": 7977,
      "postérieurs": 7978,
      "abouti": 7979,
      "excédant": 7980,
      "allégations": 7981,
      "stationnement": 7982,
      "amélior": 7983,
      "éclai": 7984,
      "Espagne": 7985,
      "Atelier": 7986,
      "BS": 7987,
      "Fo": 7988,
      "GN": 7989,
      "Tostain": 7990,
      "Wagu": 7991,
      "zz": 7992,
      "contient": 7993,
      "cey": 7994,
      "parvenir": 7995,
      "amant": 7996,
      "pourvu": 7997,
      "tesse": 7998,
      "adresser": 7999,
      "125": 8000,
      "mach": 8001,
      "172": 8002,
      "créer": 8003,
      "limitées": 8004,
      "franchis": 8005,
      "907": 8006,
      "contestations": 8007,
      "cotisante": 8008,
      "rappelés": 8009,
      "merie": 8010,
      "Cayenne": 8011,
      "familial": 8012,
      "insuffisante": 8013,
      "distinction": 8014,
      "succes": 8015,
      "hèse": 8016,
      "Buat": 8017,
      "librement": 8018,
      "Maritimes": 8019,
      "Person": 8020,
      "effica": 8021,
      "Turcey": 8022,
      "UES": 8023,
      "hypothécaire": 8024,
      "douanière": 8025,
      "artisan": 8026,
      "Luxembourg": 8027,
      "Risks": 8028,
      "propag": 8029,
      "Waguette": 8030,
      "481": 8031,
      "8e": 8032,
      "900": 8033,
      "Eure": 8034,
      "Mes": 8035,
      "NS": 8036,
      "Ter": 8037,
      "Tel": 8038,
      "izième": 8039,
      "émission": 8040,
      "eta": 8041,
      "entach": 8042,
      "vois": 8043,
      "manoeuvres": 8044,
      "surface": 8045,
      "tenté": 8046,
      "persi": 8047,
      "dron": 8048,
      "135": 8049,
      "1154": 8050,
      "1245": 8051,
      "ablement": 8052,
      "api": 8053,
      "prestat": 8054,
      "collectives": 8055,
      "Seiller": 8056,
      "Ménard": 8057,
      "qualifiée": 8058,
      "subies": 8059,
      "662": 8060,
      "maîtres": 8061,
      "échapp": 8062,
      "inopérantes": 8063,
      "introduc": 8064,
      "intimée": 8065,
      "ingéni": 8066,
      "bourg": 8067,
      "répété": 8068,
      "récupé": 8069,
      "expiré": 8070,
      "approuvé": 8071,
      "défiscalisation": 8072,
      "métallurgie": 8073,
      "Cam": 8074,
      "hner": 8075,
      "rappelle": 8076,
      "eté": 8077,
      "sibles": 8078,
      "parce": 8079,
      "dia": 8080,
      "oue": 8081,
      "exceptions": 8082,
      "luc": 8083,
      "agée": 8084,
      "1386": 8085,
      "1387": 8086,
      "mative": 8087,
      "visait": 8088,
      "corrob": 8089,
      "Maroc": 8090,
      "titulaires": 8091,
      "docteur": 8092,
      "Anti": 8093,
      "notifier": 8094,
      "bâtiments": 8095,
      "intentionnelle": 8096,
      "compétentes": 8097,
      "adhérents": 8098,
      "substituer": 8099,
      "contractuels": 8100,
      "perçue": 8101,
      "territoriale": 8102,
      "dégradations": 8103,
      "facturation": 8104,
      "agressions": 8105,
      "Institut": 8106,
      "plé": 8107,
      "cial": 8108,
      "invest": 8109,
      "déplacements": 8110,
      "coû": 8111,
      "réorganisation": 8112,
      "chage": 8113,
      "vigi": 8114,
      "unt": 8115,
      "assassi": 8116,
      "géographi": 8117,
      "défav": 8118,
      "suspi": 8119,
      "Covea": 8120,
      "Invoquant": 8121,
      "concernait": 8122,
      "604": 8123,
      "ositions": 8124,
      "343": 8125,
      "1992": 8126,
      "magne": 8127,
      "Match": 8128,
      "occupant": 8129,
      "Chaumont": 8130,
      "reprochant": 8131,
      "installations": 8132,
      "tardi": 8133,
      "accompagnement": 8134,
      "Savoie": 8135,
      "Menay": 8136,
      "répétibles": 8137,
      "reçue": 8138,
      "collaboration": 8139,
      "normale": 8140,
      "Kerner": 8141,
      "agnos": 8142,
      "systé": 8143,
      "Allemagne": 8144,
      "Bohner": 8145,
      "quarante": 8146,
      "Pierson": 8147,
      "Bohnert": 8148,
      "Eh": 8149,
      "Ge": 8150,
      "Lo": 8151,
      "Off": 8152,
      "cenci": 8153,
      "lun": 8154,
      "ram": 8155,
      "vain": 8156,
      "estin": 8157,
      "lia": 8158,
      "neurs": 8159,
      "via": 8160,
      "vitesse": 8161,
      "una": 8162,
      "cassée": 8163,
      "excède": 8164,
      "1984": 8165,
      "1987": 8166,
      "175": 8167,
      "justifient": 8168,
      "ignor": 8169,
      "hiti": 8170,
      "relativement": 8171,
      "susvisée": 8172,
      "maintenance": 8173,
      "collectifs": 8174,
      "faibles": 8175,
      "Licenci": 8176,
      "873": 8177,
      "différent": 8178,
      "impliqué": 8179,
      "causés": 8180,
      "remplie": 8181,
      "perçus": 8182,
      "Ghestin": 8183,
      "disponible": 8184,
      "démarches": 8185,
      "Blanc": 8186,
      "prévalant": 8187,
      "Wallis": 8188,
      "propagation": 8189,
      "Ehpad": 8190,
      "CB": 8191,
      "PD": 8192,
      "XL": 8193,
      "by": 8194,
      "ha": 8195,
      "ros": 8196,
      "tance": 8197,
      "çaient": 8198,
      "cia": 8199,
      "dég": 8200,
      "décer": 8201,
      "moteur": 8202,
      "salle": 8203,
      "moyennant": 8204,
      "compéti": 8205,
      "ecque": 8206,
      "actionnaire": 8207,
      "créée": 8208,
      "tissant": 8209,
      "gerie": 8210,
      "802": 8211,
      "1993": 8212,
      "passer": 8213,
      "495": 8214,
      "lent": 8215,
      "insuffisants": 8216,
      "Doumic": 8217,
      "adopté": 8218,
      "Corre": 8219,
      "habili": 8220,
      "architecture": 8221,
      "journalier": 8222,
      "spécifiquement": 8223,
      "animatrice": 8224,
      "tardive": 8225,
      "équivalente": 8226,
      "concrète": 8227,
      "souffrances": 8228,
      "Immobilière": 8229,
      "adjudication": 8230,
      "Sophie": 8231,
      "défavor": 8232,
      "Calais": 8233,
      "FC": 8234,
      "aie": 8235,
      "réper": 8236,
      "voire": 8237,
      "treizième": 8238,
      "ack": 8239,
      "figu": 8240,
      "étay": 8241,
      "gérance": 8242,
      "licence": 8243,
      "présentent": 8244,
      "217": 8245,
      "irrépétibles": 8246,
      "1975": 8247,
      "fraction": 8248,
      "menson": 8249,
      "substitution": 8250,
      "résidences": 8251,
      "confirme": 8252,
      "élection": 8253,
      "appréciée": 8254,
      "joindre": 8255,
      "correctionnels": 8256,
      "suspendu": 8257,
      "projets": 8258,
      "disposant": 8259,
      "échus": 8260,
      "placés": 8261,
      "violence": 8262,
      "individuelles": 8263,
      "hebdomadaires": 8264,
      "instructeur": 8265,
      "substantielle": 8266,
      "Beauvois": 8267,
      "lourde": 8268,
      "vigilance": 8269,
      "figurent": 8270,
      "Ly": 8271,
      "cats": 8272,
      "na": 8273,
      "çants": 8274,
      "quante": 8275,
      "sienne": 8276,
      "trand": 8277,
      "procédur": 8278,
      "gardi": 8279,
      "manité": 8280,
      "exécutée": 8281,
      "566": 8282,
      "Soge": 8283,
      "tivités": 8284,
      "inien": 8285,
      "Indu": 8286,
      "transmises": 8287,
      "904": 8288,
      "humanité": 8289,
      "tacite": 8290,
      "CFP": 8291,
      "appliqué": 8292,
      "pratiquée": 8293,
      "adelou": 8294,
      "certificats": 8295,
      "Franche": 8296,
      "dénaturation": 8297,
      "essentiel": 8298,
      "exigibles": 8299,
      "dange": 8300,
      "renseignement": 8301,
      "déduisant": 8302,
      "femmes": 8303,
      "Savinien": 8304,
      "couvrant": 8305,
      "incompatible": 8306,
      "interruptif": 8307,
      "Securitas": 8308,
      "Solutions": 8309,
      "Personal": 8310,
      "EME": 8311,
      "Frè": 8312,
      "Tri": 8313,
      "savait": 8314,
      "uis": 8315,
      "yce": 8316,
      "pros": 8317,
      "rités": 8318,
      "réouverture": 8319,
      "rénovation": 8320,
      "expose": 8321,
      "éter": 8322,
      "décide": 8323,
      "tudes": 8324,
      "contredite": 8325,
      "crip": 8326,
      "apporté": 8327,
      "notes": 8328,
      "1988": 8329,
      "intervenant": 8330,
      "portées": 8331,
      "employé": 8332,
      "connaisse": 8333,
      "régie": 8334,
      "Algé": 8335,
      "Design": 8336,
      "clinique": 8337,
      "affirmé": 8338,
      "jointe": 8339,
      "distingu": 8340,
      "stipulée": 8341,
      "sanctionner": 8342,
      "médecins": 8343,
      "essentiellement": 8344,
      "embau": 8345,
      "éduca": 8346,
      "collègues": 8347,
      "parentale": 8348,
      "handicap": 8349,
      "Fabrice": 8350,
      "requise": 8351,
      "suspicion": 8352,
      "systématique": 8353,
      "habilitation": 8354,
      "Frères": 8355,
      "716": 8356,
      "Danno": 8357,
      "FM": 8358,
      "Fut": 8359,
      "Kass": 8360,
      "Nex": 8361,
      "UD": 8362,
      "Ve": 8363,
      "YRE": 8364,
      "apé": 8365,
      "baisse": 8366,
      "faut": 8367,
      "gli": 8368,
      "xante": 8369,
      "requalifié": 8370,
      "sic": 8371,
      "déqu": 8372,
      "asser": 8373,
      "dolo": 8374,
      "REYRE": 8375,
      "soup": 8376,
      "158": 8377,
      "signal": 8378,
      "160": 8379,
      "demain": 8380,
      "270": 8381,
      "Sovi": 8382,
      "sommairement": 8383,
      "Mark": 8384,
      "présentés": 8385,
      "suffisantes": 8386,
      "803": 8387,
      "correspondait": 8388,
      "devront": 8389,
      "PIREYRE": 8390,
      "1224": 8391,
      "consulté": 8392,
      "explique": 8393,
      "norme": 8394,
      "Belgique": 8395,
      "interjeter": 8396,
      "souscripteur": 8397,
      "substitué": 8398,
      "démontrée": 8399,
      "calculé": 8400,
      "handicapé": 8401,
      "viennent": 8402,
      "inopposabilité": 8403,
      "extérieur": 8404,
      "préparation": 8405,
      "investisseurs": 8406,
      "Irrecevabilité": 8407,
      "Algérie": 8408,
      "Ass": 8409,
      "Calloc": 8410,
      "Eco": 8411,
      "LV": 8412,
      "OP": 8413,
      "Pecque": 8414,
      "SS": 8415,
      "gend": 8416,
      "uil": 8417,
      "vus": 8418,
      "remédi": 8419,
      "indirectement": 8420,
      "traire": 8421,
      "filiation": 8422,
      "vetia": 8423,
      "Ener": 8424,
      "1351": 8425,
      "196": 8426,
      "commerçants": 8427,
      "252": 8428,
      "instructions": 8429,
      "Cofi": 8430,
      "licenciée": 8431,
      "Inora": 8432,
      "maintenu": 8433,
      "bornage": 8434,
      "bénéficient": 8435,
      "DEUXIEME": 8436,
      "1994": 8437,
      "lendemain": 8438,
      "succurs": 8439,
      "proposer": 8440,
      "soixante": 8441,
      "échec": 8442,
      "individuel": 8443,
      "pha": 8444,
      "intimé": 8445,
      "déduisait": 8446,
      "Caston": 8447,
      "restrictions": 8448,
      "Natyce": 8449,
      "diminution": 8450,
      "Helvetia": 8451,
      "Guinamant": 8452,
      "Sovitrat": 8453,
      "Calloch": 8454,
      "Pecqueur": 8455,
      "succursale": 8456,
      "711": 8457,
      "JUR": 8458,
      "iers": 8459,
      "mment": 8460,
      "ralement": 8461,
      "envi": 8462,
      "laisse": 8463,
      "inser": 8464,
      "parfaite": 8465,
      "llection": 8466,
      "diagnos": 8467,
      "survenue": 8468,
      "provenant": 8469,
      "004": 8470,
      "136": 8471,
      "138": 8472,
      "124": 8473,
      "CIPM": 8474,
      "maxi": 8475,
      "155": 8476,
      "interprofessionnelle": 8477,
      "Aubert": 8478,
      "imposée": 8479,
      "avisé": 8480,
      "saisit": 8481,
      "écrits": 8482,
      "value": 8483,
      "Sodi": 8484,
      "constatés": 8485,
      "régimes": 8486,
      "475": 8487,
      "invitant": 8488,
      "précisent": 8489,
      "destinées": 8490,
      "réclame": 8491,
      "Guadelou": 8492,
      "Tout": 8493,
      "adressées": 8494,
      "reprochée": 8495,
      "problè": 8496,
      "énoncés": 8497,
      "comptabili": 8498,
      "envisage": 8499,
      "réquisitoire": 8500,
      "audio": 8501,
      "Commission": 8502,
      "BPCE": 8503,
      "loré": 8504,
      "superfici": 8505,
      "vérifications": 8506,
      "Journal": 8507,
      "dessaisissement": 8508,
      "environ": 8509,
      "insertion": 8510,
      "326": 8511,
      "335": 8512,
      "750": 8513,
      "CL": 8514,
      "FO": 8515,
      "Imm": 8516,
      "Onet": 8517,
      "OPer": 8518,
      "ZU": 8519,
      "fri": 8520,
      "èrent": 8521,
      "€,": 8522,
      "anché": 8523,
      "206": 8524,
      "réalis": 8525,
      "alté": 8526,
      "assain": 8527,
      "méconnaît": 8528,
      "attache": 8529,
      "161": 8530,
      "565": 8531,
      "obligatoires": 8532,
      "directives": 8533,
      "fautif": 8534,
      "mutualité": 8535,
      "cinquante": 8536,
      "tienne": 8537,
      "332": 8538,
      "circonstanci": 8539,
      "sollicitant": 8540,
      "dépendante": 8541,
      "imputation": 8542,
      "volontaires": 8543,
      "keting": 8544,
      "légitimement": 8545,
      "omè": 8546,
      "Italie": 8547,
      "viols": 8548,
      "successifs": 8549,
      "3253": 8550,
      "Louis": 8551,
      "Publi": 8552,
      "garantissant": 8553,
      "recrutement": 8554,
      "préserver": 8555,
      "préemption": 8556,
      "fenêtres": 8557,
      "324": 8558,
      "DM": 8559,
      "Fit": 8560,
      "source": 8561,
      "tôt": 8562,
      "dec": 8563,
      "esc": 8564,
      "sité": 8565,
      "insé": 8566,
      "indirecte": 8567,
      "indépendante": 8568,
      "sot": 8569,
      "sons": 8570,
      "généraux": 8571,
      "attaché": 8572,
      "servant": 8573,
      "126": 8574,
      "mettent": 8575,
      "viser": 8576,
      "peti": 8577,
      "frères": 8578,
      "menté": 8579,
      "limitant": 8580,
      "juridictionnel": 8581,
      "donnés": 8582,
      "atriculation": 8583,
      "tempor": 8584,
      "collectivités": 8585,
      "apparition": 8586,
      "formel": 8587,
      "Dumas": 8588,
      "contracté": 8589,
      "891": 8590,
      "empêchement": 8591,
      "TROISIEME": 8592,
      "solidaires": 8593,
      "importe": 8594,
      "réclamé": 8595,
      "capacités": 8596,
      "Fondation": 8597,
      "commandes": 8598,
      "confiées": 8599,
      "Bertrand": 8600,
      "ruraux": 8601,
      "IEF": 8602,
      "législative": 8603,
      "frauduleux": 8604,
      "frauduleuses": 8605,
      "futur": 8606,
      "libération": 8607,
      "occupés": 8608,
      "GRIEF": 8609,
      "Bolloré": 8610,
      "commettre": 8611,
      "Guyane": 8612,
      "Laboratoires": 8613,
      "voisinage": 8614,
      "compensateurs": 8615,
      "accessibles": 8616,
      "Calédon": 8617,
      "Caillard": 8618,
      "Immatriculation": 8619,
      "Calédonie": 8620,
      "388": 8621,
      "742": 8622,
      "Pons": 8623,
      "bit": 8624,
      "ections": 8625,
      "ît": 8626,
      "quanti": 8627,
      "déri": 8628,
      "iser": 8629,
      "virement": 8630,
      "alli": 8631,
      "lue": 8632,
      "nière": 8633,
      "perception": 8634,
      "bio": 8635,
      "irrégula": 8636,
      "finalement": 8637,
      "formations": 8638,
      "Auchan": 8639,
      "signer": 8640,
      "syn": 8641,
      "261": 8642,
      "décidée": 8643,
      "déterminés": 8644,
      "Caron": 8645,
      "indivisible": 8646,
      "consid": 8647,
      "considérées": 8648,
      "secondaire": 8649,
      "tranché": 8650,
      "matériaux": 8651,
      "péremptoire": 8652,
      "Champagne": 8653,
      "étendu": 8654,
      "modèle": 8655,
      "RENVOY": 8656,
      "étrangères": 8657,
      "hypothèque": 8658,
      "excessif": 8659,
      "rédigés": 8660,
      "remplit": 8661,
      "HPM": 8662,
      "téléphone": 8663,
      "échange": 8664,
      "rubrique": 8665,
      "séparation": 8666,
      "postale": 8667,
      "métropole": 8668,
      "circulaire": 8669,
      "compréhension": 8670,
      "transporteur": 8671,
      "Futuna": 8672,
      "glise": 8673,
      "irrégularités": 8674,
      "RENVOYER": 8675,
      "990": 8676,
      "Deri": 8677,
      "EY": 8678,
      "Opé": 8679,
      "Sé": 8680,
      "Son": 8681,
      "Sano": 8682,
      "fla": 8683,
      "ls": 8684,
      "ore": 8685,
      "ars": 8686,
      "oche": 8687,
      "prérog": 8688,
      "réseaux": 8689,
      "rencont": 8690,
      "étanché": 8691,
      "publici": 8692,
      "privation": 8693,
      "bigne": 8694,
      "mineure": 8695,
      "message": 8696,
      "atelier": 8697,
      "Construction": 8698,
      "190": 8699,
      "236": 8700,
      "intégri": 8701,
      "153": 8702,
      "dépendant": 8703,
      "pénalement": 8704,
      "gion": 8705,
      "opérant": 8706,
      "crédi": 8707,
      "routier": 8708,
      "Alpha": 8709,
      "apprécié": 8710,
      "hyper": 8711,
      "tirés": 8712,
      "proportionné": 8713,
      "statutaire": 8714,
      "trouvant": 8715,
      "Corpor": 8716,
      "Daubigne": 8717,
      "Bella": 8718,
      "variables": 8719,
      "récipro": 8720,
      "OReins": 8721,
      "arrié": 8722,
      "découle": 8723,
      "Espa": 8724,
      "ingérence": 8725,
      "plateau": 8726,
      "pathologi": 8727,
      "Ponsot": 8728,
      "imminent": 8729,
      "Tahiti": 8730,
      "assassinat": 8731,
      "soupçon": 8732,
      "maximales": 8733,
      "assainissement": 8734,
      "intégrité": 8735,
      "Daubigney": 8736,
      "420": 8737,
      "421": 8738,
      "545": 8739,
      "689": 8740,
      "642": 8741,
      "IC": 8742,
      "LANCE": 8743,
      "OS": 8744,
      "SRL": 8745,
      "TC": 8746,
      "tante": 8747,
      "remor": 8748,
      "conver": 8749,
      "détenait": 8750,
      "aline": 8751,
      "cés": 8752,
      "151": 8753,
      "INCI": 8754,
      "INPI": 8755,
      "tériel": 8756,
      "guet": 8757,
      "opérée": 8758,
      "tification": 8759,
      "271": 8760,
      "458": 8761,
      "routiers": 8762,
      "gravement": 8763,
      "résilié": 8764,
      "louée": 8765,
      "bénéficiant": 8766,
      "écartée": 8767,
      "répond": 8768,
      "Life": 8769,
      "affirme": 8770,
      "allocat": 8771,
      "véritable": 8772,
      "médico": 8773,
      "appliquait": 8774,
      "anom": 8775,
      "débiteurs": 8776,
      "possibilités": 8777,
      "autorisés": 8778,
      "stipulant": 8779,
      "trouvent": 8780,
      "Fabienne": 8781,
      "Lanoue": 8782,
      "convenait": 8783,
      "territoriales": 8784,
      "libéré": 8785,
      "néglig": 8786,
      "régulariser": 8787,
      "justificatifs": 8788,
      "déroulement": 8789,
      "Lorsque": 8790,
      "secrétaire": 8791,
      "Electri": 8792,
      "compétitivité": 8793,
      "Guadeloupe": 8794,
      "Sanofi": 8795,
      "422": 8796,
      "680": 8797,
      "710": 8798,
      "Am": 8799,
      "Are": 8800,
      "Mul": 8801,
      "PS": 8802,
      "SPA": 8803,
      "ck": 8804,
      "²,": 8805,
      "quasi": 8806,
      "ental": 8807,
      "iner": 8808,
      "détenues": 8809,
      "oral": 8810,
      "attention": 8811,
      "204": 8812,
      "avi": 8813,
      "ries": 8814,
      "réforme": 8815,
      "acc": 8816,
      "management": 8817,
      "provisions": 8818,
      "géré": 8819,
      "tus": 8820,
      "privés": 8821,
      "SCCV": 8822,
      "admise": 8823,
      "garant": 8824,
      "positions": 8825,
      "1790": 8826,
      "Chaline": 8827,
      "289": 8828,
      "306": 8829,
      "tisation": 8830,
      "consist": 8831,
      "excluait": 8832,
      "faible": 8833,
      "validé": 8834,
      "374": 8835,
      "netto": 8836,
      "honneur": 8837,
      "démons": 8838,
      "Sainte": 8839,
      "étendre": 8840,
      "contentieuse": 8841,
      "accepter": 8842,
      "imputer": 8843,
      "allégués": 8844,
      "douanières": 8845,
      "barème": 8846,
      "Pedron": 8847,
      "lyonnais": 8848,
      "consommateurs": 8849,
      "Soltner": 8850,
      "justificatif": 8851,
      "mouvement": 8852,
      "indications": 8853,
      "budget": 8854,
      "Procureur": 8855,
      "Bellamy": 8856,
      "Bab": 8857,
      "Gaud": 8858,
      "Hale": 8859,
      "cler": 8860,
      "ople": 8861,
      "inelles": 8862,
      "inexac": 8863,
      "dénommé": 8864,
      "cohé": 8865,
      "appare": 8866,
      "sonne": 8867,
      "mandant": 8868,
      "mén": 8869,
      "agers": 8870,
      "218": 8871,
      "minor": 8872,
      "travaillées": 8873,
      "11e": 8874,
      "interdis": 8875,
      "167": 8876,
      "sortie": 8877,
      "opérer": 8878,
      "signés": 8879,
      "immobilières": 8880,
      "confirmée": 8881,
      "incidents": 8882,
      "transi": 8883,
      "rappelées": 8884,
      "444": 8885,
      "communaut": 8886,
      "pare": 8887,
      "ordonnées": 8888,
      "acquisi": 8889,
      "exiger": 8890,
      "autorisant": 8891,
      "rompre": 8892,
      "conservatoires": 8893,
      "habituel": 8894,
      "ennage": 8895,
      "terrains": 8896,
      "offer": 8897,
      "familles": 8898,
      "qualifiés": 8899,
      "Garonne": 8900,
      "pertinent": 8901,
      "fichiers": 8902,
      "collège": 8903,
      "résidents": 8904,
      "navire": 8905,
      "régulières": 8906,
      "insurmontable": 8907,
      "panneaux": 8908,
      "coûts": 8909,
      "étanchéité": 8910,
      "Gaudinelles": 8911,
      "Halem": 8912,
      "Cle": 8913,
      "Hélè": 8914,
      "br": 8915,
      "bot": 8916,
      "monn": 8917,
      "uter": 8918,
      "émise": 8919,
      "tières": 8920,
      "quente": 8921,
      "conversion": 8922,
      "découvert": 8923,
      "copropriétaire": 8924,
      "coordination": 8925,
      "chasse": 8926,
      "rende": 8927,
      "exe": 8928,
      "notre": 8929,
      "distance": 8930,
      "minis": 8931,
      "nuis": 8932,
      "Conformément": 8933,
      "128": 8934,
      "154": 8935,
      "triennale": 8936,
      "165": 8937,
      "187": 8938,
      "Régie": 8939,
      "effectivité": 8940,
      "mentionnent": 8941,
      "Selar": 8942,
      "469": 8943,
      "Tele": 8944,
      "rapproch": 8945,
      "prolongé": 8946,
      "solvabilité": 8947,
      "éventuelles": 8948,
      "attributive": 8949,
      "discriminatoire": 8950,
      "rigent": 8951,
      "People": 8952,
      "présumé": 8953,
      "énergies": 8954,
      "augment": 8955,
      "contrôleur": 8956,
      "concrètement": 8957,
      "financer": 8958,
      "actuellement": 8959,
      "ambule": 8960,
      "séquestration": 8961,
      "apitre": 8962,
      "Antilles": 8963,
      "Hélène": 8964,
      "013": 8965,
      "414": 8966,
      "Isab": 8967,
      "NF": 8968,
      "NTE": 8969,
      "Prigent": 8970,
      "Sas": 8971,
      "STA": 8972,
      "aments": 8973,
      "cani": 8974,
      "hes": 8975,
      "vage": 8976,
      "wer": 8977,
      "Énoncé": 8978,
      "entis": 8979,
      "entrant": 8980,
      "selet": 8981,
      "dérogation": 8982,
      "parking": 8983,
      "cocontractant": 8984,
      "chapitre": 8985,
      "ouvrier": 8986,
      "pourvue": 8987,
      "mit": 8988,
      "accélé": 8989,
      "esthé": 8990,
      "appelées": 8991,
      "stante": 8992,
      "drome": 8993,
      "universe": 8994,
      "192": 8995,
      "Regis": 8996,
      "interroger": 8997,
      "causer": 8998,
      "sign": 8999,
      "impositions": 9000,
      "guerre": 9001,
      "affection": 9002,
      "usch": 9003,
      "espace": 9004,
      "contact": 9005,
      "réparée": 9006,
      "quatur": 9007,
      "fermage": 9008,
      "largement": 9009,
      "traitance": 9010,
      "lence": 9011,
      "visibles": 9012,
      "propreté": 9013,
      "fermetures": 9014,
      "prescrivent": 9015,
      "infil": 9016,
      "population": 9017,
      "redevance": 9018,
      "FAIT": 9019,
      "disponibles": 9020,
      "erroné": 9021,
      "sirs": 9022,
      "répression": 9023,
      "Drusch": 9024,
      "Melka": 9025,
      "plannings": 9026,
      "corrobor": 9027,
      "géographique": 9028,
      "gardiennage": 9029,
      "exequatur": 9030,
      "Isabelle": 9031,
      "DC": 9032,
      "El": 9033,
      "Giron": 9034,
      "H2": 9035,
      "MG": 9036,
      "fusion": 9037,
      "sport": 9038,
      "vr": 9039,
      "ève": 9040,
      "ceau": 9041,
      "205": 9042,
      "allant": 9043,
      "mili": 9044,
      "absor": 9045,
      "euro": 9046,
      "008": 9047,
      "concor": 9048,
      "endet": 9049,
      "237": 9050,
      "nergie": 9051,
      "constitutive": 9052,
      "267": 9053,
      "Carbon": 9054,
      "équilibre": 9055,
      "tranche": 9056,
[...]
