<pad>	0
</s>	0
<unk>	0
<s>	0
,	-2.98398
▁de	-3.04171
'	-3.21682
▁la	-3.45493
.	-3.93255
▁l	-3.93778
▁[	-4.1447
▁du	-4.16032
▁et	-4.16261
▁le	-4.17923
▁à	-4.18836
▁d	-4.4496
▁en	-4.63167
]	-4.72394
▁	-4.78873
▁par	-4.80602
▁des	-4.88197
▁les	-4.90512
▁a	-4.92421
▁M	-5.01395
▁que	-5.02185
s	-5.05237
▁société	-5.11508
-	-5.13225
▁n	-5.1709
▁Mme	-5.18321
▁au	-5.2951
▁;	-5.32604
▁cassation	-5.45466
▁qu	-5.46898
],	-5.51349
▁Cour	-5.56762
▁code	-5.58874
article	-5.64456
▁:	-5.67158
▁président	-5.70407
A	-5.71322
▁procédure	-5.72338
appel	-5.72568
▁chambre	-5.74329
▁pas	-5.74598
°	-5.74615
▁conseiller	-5.77752
▁dans	-5.7899
▁cour	-5.79343
▁pour	-5.8185
▁pourvoi	-5.8306
▁sur	-5.83759
▁2023	-5.84674
▁est	-5.8558
arrêt	-5.85641
▁civile	-5.86711
dresse	-5.87015
▁son	-5.9255
▁A	-5.95523
▁DE	-5.9908
▁un	-6.01487
▁qui	-6.02331
▁L	-6.04599
▁une	-6.05247
▁__________	-6.12016
▁été	-6.13507
▁moyen	-6.14682
▁avocat	-6.16106
▁publique	-6.16649
▁E	-6.17369
▁ce	-6.19462
▁rendu	-6.21306
▁sa	-6.21392
en	-6.21722
▁ne	-6.22277
▁aux	-6.22952
▁R	-6.26291
▁(	-6.26992
▁décision	-6.27647
▁Le	-6.28895
il	-6.30756
▁après	-6.34657
▁dont	-6.35921
▁application	-6.39353
_______________	-6.4041
▁U	-6.41847
▁F	-6.4291
▁CASSATION	-6.43538
▁I	-6.4441
e	-6.45015
▁ou	-6.45827
une	-6.47408
▁COUR	-6.49424
▁général	-6.50795
▁En	-6.50831
▁DU	-6.52234
▁contre	-6.57093
▁SCP	-6.57103
▁fait	-6.57676
un	-6.59502
er	-6.621
▁demande	-6.63193
▁avoir	-6.64988
▁il	-6.6573
ment	-6.67531
)	-6.67734
▁1	-6.68306
▁La	-6.684
▁siège	-6.69315
▁N	-6.69437
▁B	-6.7089
▁deux	-6.71197
L	-6.71962
▁«	-6.74321
▁formé	-6.75497
▁s	-6.75758
▁travail	-6.76572
▁Sur	-6.77795
▁se	-6.79927
▁loi	-6.8038
▁ses	-6.81989
▁P	-6.83463
T	-6.84808
a	-6.84861
▁lieu	-6.8653
D	-6.86645
▁juin	-6.87142
▁être	-6.88494
▁S	-6.88716
▁arrêt	-6.88837
▁où	-6.88886
▁euros	-6.88988
est	-6.89252
),	-6.91407
▁référendaire	-6.91682
▁débats	-6.92344
E	-6.93109
I	-6.93133
▁sans	-6.93194
▁2	-6.94142
▁vingt	-6.94872
▁cette	-6.94951
▁mars	-6.95283
▁»	-6.95581
▁greffier	-6.98766
▁étaient	-7.00293
▁observations	-7.00314
▁prononcé	-7.00947
▁litige	-7.01664
RE	-7.02345
▁conformé	-7.0398
▁titre	-7.04322
▁rapport	-7.04709
▁doyen	-7.05106
▁3	-7.0632
▁lors	-7.06776
audience	-7.08422
▁procureur	-7.09692
▁composée	-7.09776
▁É	-7.10343
▁conseillers	-7.1141
▁Q	-7.11476
NOM	-7.11548
▁non	-7.11597
▁mai	-7.1169
▁ainsi	-7.12254
▁somme	-7.1316
▁sont	-7.13629
▁avait	-7.13819
▁premier	-7.14254
▁Il	-7.14384
▁ces	-7.15296
▁droit	-7.15527
▁Pourvoi	-7.15912
▁domicilié	-7.162
▁faisant	-7.16601
H	-7.1661
▁septembre	-7.17294
▁leur	-7.17469
▁parties	-7.18521
y	-7.19232
▁fonction	-7.19322
▁délibéré	-7.19379
▁AU	-7.19443
▁rapporteur	-7.20047
▁sociale	-7.20709
▁avril	-7.20844
▁Ainsi	-7.20943
R	-7.21312
trois	-7.21349
▁articles	-7.21468
▁contrat	-7.21507
▁précités	-7.21982
▁LA	-7.22
B	-7.22206
▁4	-7.23102
▁alors	-7.23742
▁D	-7.23762
▁Ç	-7.23793
▁FRANÇAIS	-7.23874
▁mille	-7.23887
▁CHAMB	-7.23919
PLE	-7.23925
▁violé	-7.24118
PEU	-7.24221
▁présent	-7.24367
▁Vu	-7.24814
N	-7.25664
▁nature	-7.261
▁ont	-7.26129
▁audience	-7.26555
S	-7.27194
C	-7.27699
▁était	-7.29761
▁EN	-7.29923
▁1],	-7.30687
▁pénale	-7.30694
▁6	-7.31024
▁lui	-7.31049
▁ayant	-7.31211
O	-7.31222
▁présents	-7.31614
▁date	-7.32587
▁salarié	-7.33307
▁judiciaire	-7.33752
P	-7.33833
▁2],	-7.35216
Y	-7.35322
▁attaqué	-7.35756
M	-7.35845
G	-7.3623
▁alinéa	-7.38091
▁moyens	-7.38767
V	-7.39256
▁dossier	-7.39304
▁2.	-7.39327
U	-7.39524
▁spécialement	-7.39749
F	-7.40113
▁1.	-7.40167
▁2022	-7.41593
▁Paris	-7.41961
▁février	-7.41997
▁700	-7.42348
(	-7.4268
Z	-7.42748
▁juillet	-7.43532
▁juge	-7.43643
▁payer	-7.43762
J	-7.44297
▁Fait	-7.44341
W	-7.45188
X	-7.45214
▁dépens	-7.45332
▁présente	-7.45813
▁même	-7.45845
▁CONSÉQUENCE	-7.46352
▁2°/	-7.4642
opposant	-7.46435
▁statuer	-7.47222
▁1°/	-7.47331
▁jugement	-7.47595
▁domiciliée	-7.47853
près	-7.48017
▁grief	-7.48267
▁qualité	-7.48497
▁janvier	-7.49238
elle	-7.49326
▁décembre	-7.49516
▁demandes	-7.51252
udience	-7.51373
▁communiqué	-7.51417
▁7	-7.51542
K	-7.52165
▁avec	-7.52485
▁octobre	-7.52722
ocalité	-7.52917
▁droits	-7.55001
▁5	-7.55196
▁2021	-7.55393
▁rejette	-7.55715
▁devant	-7.55766
▁dès	-7.56408
____________	-7.56867
°/	-7.57845
ordonnance	-7.58109
▁entre	-7.58759
▁DÉC	-7.58815
▁elle	-7.59143
▁cause	-7.59455
employeur	-7.59666
▁dispositions	-7.59957
▁pris	-7.60288
▁y	-7.60424
▁peut	-7.60829
▁000	-7.60975
-1	-7.61331
▁8	-7.62301
▁Condamne	-7.62582
▁novembre	-7.63985
▁C	-7.64068
▁10	-7.64462
▁21	-7.64718
ant	-7.64803
encontre	-7.64877
▁deuxième	-7.66504
▁si	-7.66695
▁donc	-7.66928
▁13	-7.67785
▁première	-7.68596
▁jugé	-7.68604
2	-7.6937
▁résulte	-7.70319
instruction	-7.70703
▁Les	-7.71581
Réponse	-7.72869
▁22	-7.73531
▁9	-7.73659
noncé	-7.75812
▁requête	-7.7601
SION	-7.76424
▁Selon	-7.76712
▁soit	-7.76908
l	-7.7739
▁conclusions	-7.77453
▁paiement	-7.78151
▁civil	-7.78423
1	-7.78503
▁délai	-7.79768
▁manifestement	-7.80081
▁sous	-7.80335
ci	-7.80522
▁SARL	-7.80692
LE	-7.80744
▁doit	-7.80764
▁REJET	-7.81003
▁Par	-7.8116
TE	-7.81657
▁mise	-7.8179
▁criminelle	-7.82353
▁15	-7.82517
▁tribunal	-7.82613
t	-7.84554
▁3],	-7.8458
▁MOTIFS	-7.85008
▁PAR	-7.85314
▁12	-7.8554
▁acte	-7.8572
▁CES	-7.85963
▁14	-7.85973
4	-7.8636
▁11	-7.86851
▁ARR	-7.8692
▁plus	-7.87594
▁motivée	-7.87626
▁20	-7.87967
▁16	-7.88095
▁3.	-7.8891
▁attaquée	-7.88912
▁recours	-7.89154
▁France	-7.89995
▁laquelle	-7.90672
▁responsabilité	-7.90803
▁troisième	-7.90937
▁sécurité	-7.9123
▁décidé	-7.91339
espèce	-7.92583
ait	-7.92718
▁entraîner	-7.93346
▁1014,	-7.95176
▁licenciement	-7.95255
▁suite	-7.95992
▁actions	-7.967
▁celle	-7.96736
▁Rejet	-7.96788
▁4.	-7.96996
▁cas	-7.9761
▁ET	-7.97727
▁déléguée	-7.97846
▁comme	-7.98244
▁statuant	-7.98514
▁produit	-7.98519
▁préjudice	-7.98705
▁5.	-7.98821
▁17	-7.99078
▁pièces	-7.99132
▁motifs	-7.99212
appui	-7.99228
▁condamne	-7.99691
▁Exam	-7.99952
▁formée	-8.00175
▁avant	-8.00771
▁économique	-8.01443
▁conseillère	-8.01523
▁28	-8.01541
▁mois	-8.02379
▁part	-8.03046
avis	-8.03704
▁regard	-8.04768
▁19	-8.0489
▁6.	-8.06212
▁ni	-8.06705
exécution	-8.08102
▁CIVI	-8.09188
▁23	-8.09863
▁CIV	-8.10045
▁épouse	-8.10089
était	-8.10468
▁caisse	-8.11531
▁cet	-8.12155
▁personne	-8.12948
Arrêt	-8.1297
▁simplifiée	-8.13267
▁partie	-8.13301
▁7.	-8.13384
▁sociétés	-8.13452
▁texte	-8.1349
▁T	-8.14962
r	-8.15466
▁24	-8.15576
▁25	-8.16348
▁commerciale	-8.16648
affaire	-8.16663
▁base	-8.17021
▁30	-8.17269
assurance	-8.17642
▁motivé	-8.17704
▁mémoire	-8.18097
3	-8.1841
▁mais	-8.18499
▁déclaré	-8.18506
▁durée	-8.18782
▁567-1	-8.18841
▁légale	-8.19422
▁29	-8.19512
▁31	-8.19812
▁compter	-8.19887
▁ordonnance	-8.20369
à	-8.20492
▁27	-8.2083
▁dommages	-8.21173
▁compte	-8.22696
5	-8.22853
▁21-2	-8.23143
▁rédaction	-8.23216
▁tout	-8.23239
▁autres	-8.23822
▁prise	-8.24309
état	-8.24767
▁8.	-8.25289
▁écrites	-8.25359
▁Avocat	-8.25482
chambre	-8.25589
▁juridiction	-8.26345
▁18	-8.26678
▁2022,	-8.26935
▁garantie	-8.27284
▁celui	-8.27295
▁Pour	-8.27419
écision	-8.27807
▁Première	-8.27905
▁désistement	-8.28367
▁éléments	-8.28371
▁3°/	-8.28411
es	-8.28673
▁textes	-8.28915
▁Défendeur	-8.29254
▁ORDONNANCE	-8.29488
▁invoque	-8.29816
▁Demandeur	-8.29915
▁présidence	-8.29954
▁V	-8.30008
▁intérêts	-8.30054
▁G	-8.30122
▁2021,	-8.30193
é	-8.30286
9	-8.30584
▁branche	-8.30691
▁maladie	-8.30702
▁Ordonnance	-8.30778
▁faire	-8.31071
▁faits	-8.31623
ne	-8.31766
0	-8.31844
▁août	-8.32186
▁limitée	-8.33066
▁montant	-8.33094
▁charge	-8.33148
▁financière	-8.33991
▁professionnelle	-8.34275
avait	-8.34938
au	-8.35092
▁conditions	-8.35223
▁mesure	-8.35227
▁sera	-8.35262
la	-8.35337
▁faute	-8.35855
▁principe	-8.36478
▁4],	-8.3675
6	-8.37173
▁autre	-8.37415
▁9.	-8.37629
▁bien	-8.38042
▁tous	-8.38257
instance	-8.38359
▁notamment	-8.38599
▁toutes	-8.38615
▁leurs	-8.39396
▁retient	-8.39796
existence	-8.39908
▁détention	-8.40228
▁sommes	-8.4077
▁ans	-8.40948
▁constaté	-8.41154
▁salariés	-8.41408
▁public	-8.41622
▁nom	-8.41851
absence	-8.42334
▁marge	-8.42593
▁demanderesse	-8.43384
▁défenderesse	-8.43471
▁termes	-8.4352
▁radiation	-8.44113
▁tant	-8.44471
▁délégué	-8.44486
▁aucun	-8.46066
▁preuve	-8.46114
▁agissant	-8.46294
▁sorte	-8.4653
▁ait	-8.46905
re	-8.47007
▁chef	-8.47044
▁toute	-8.47338
nt	-8.47788
▁MM	-8.47842
▁greffe	-8.47921
indemnité	-8.48518
▁conséquences	-8.48555
▁privé	-8.48752
▁diligences	-8.49099
▁ANNULE	-8.49234
▁défense	-8.49407
8	-8.49433
▁saisi	-8.50048
▁salariée	-8.50099
autre	-8.50644
▁heures	-8.51001
▁conseil	-8.51844
▁CASS	-8.5241
▁elles	-8.52412
▁10.	-8.52511
▁JUIN	-8.52802
▁2014	-8.52938
▁déclarer	-8.53354
objet	-8.53499
▁commerce	-8.53838
▁personnel	-8.53883
▁raison	-8.53944
▁transmis	-8.54211
▁jour	-8.54245
▁déclaration	-8.54499
exercice	-8.55106
▁temps	-8.55215
7	-8.55221
▁NON	-8.55343
▁rejeter	-8.55421
▁invoqués	-8.55453
entreprise	-8.55612
action	-8.55637
▁dispositif	-8.5586
▁conséquence	-8.55913
▁syndicat	-8.56116
▁»,	-8.56187
▁période	-8.5627
▁pouvait	-8.564
▁trois	-8.56558
▁-	-8.57004
▁motif	-8.57195
▁dernier	-8.57307
▁relevé	-8.57319
▁liquidateur	-8.57348
▁applicable	-8.57769
▁lorsque	-8.57922
▁invoqué	-8.58257
▁produits	-8.58422
MI	-8.58569
▁condamné	-8.58632
▁second	-8.58716
▁caractère	-8.58716
▁anonyme	-8.58768
association	-8.58978
▁p	-8.59239
▁ALORS	-8.59242
▁permettre	-8.59343
▁clause	-8.59544
▁susvisé	-8.59783
▁26	-8.59839
▁2016	-8.60126
▁chefs	-8.60808
▁Dit	-8.60893
▁2016,	-8.61453
ent	-8.61582
▁saisie	-8.6202
Aix	-8.62222
Provence	-8.62624
▁ensemble	-8.62944
▁2023,	-8.63138
▁convention	-8.63642
NELLE	-8.63734
▁CRI	-8.63789
▁cassé	-8.6614
▁antérieure	-8.66659
▁condamner	-8.67018
intérêts	-8.67028
▁défaut	-8.67188
▁transcrit	-8.67244
▁incident	-8.67677
▁nullité	-8.67761
▁vente	-8.6813
▁constatations	-8.68235
elon	-8.68365
▁11.	-8.68724
▁défendeurs	-8.68902
▁2020	-8.68912
▁donné	-8.69002
▁prescription	-8.69363
▁Azar	-8.69655
▁quand	-8.69907
▁numéro	-8.70057
▁principal	-8.70097
▁Caroli	-8.70706
▁générale	-8.71358
▁juges	-8.71395
▁réparation	-8.71602
▁étant	-8.71808
▁Constat	-8.72006
ONNAL	-8.72363
▁2,	-8.72367
▁fondé	-8.72437
▁travaux	-8.72542
▁lettre	-8.72988
▁renvoi	-8.73051
▁créance	-8.73106
▁Cassation	-8.73625
▁déposé	-8.73987
▁contrôle	-8.74056
▁Bonna	-8.74171
▁demandeur	-8.74803
▁salaire	-8.74937
▁effet	-8.75285
▁retenu	-8.75494
▁disposition	-8.7568
▁appel	-8.76187
▁européenne	-8.76326
▁opposant	-8.7639
▁irrecevable	-8.76678
▁2021),	-8.76824
avoir	-8.77308
▁pourvois	-8.78422
▁avaient	-8.78702
▁fond	-8.78707
le	-8.78918
▁banque	-8.79218
▁MARS	-8.79427
▁libertés	-8.79657
▁partiellement	-8.79982
▁QUE	-8.80025
▁renvoie	-8.8028
▁mis	-8.80591
▁H	-8.80694
▁trouvaient	-8.80699
▁seulement	-8.81121
▁issue	-8.81302
▁2017,	-8.8148
▁dire	-8.81519
/	-8.81734
▁prud	-8.81938
▁état	-8.81968
▁immobilière	-8.82485
▁justice	-8.82536
▁retenant	-8.83128
ils	-8.83237
ensemble	-8.83295
▁2012	-8.833
▁directeur	-8.83416
▁Un	-8.83435
▁légal	-8.83881
▁profit	-8.83929
▁situation	-8.83957
▁partielle	-8.84086
ALE	-8.84234
▁sauf	-8.84401
▁associés	-8.84944
information	-8.8496
▁5],	-8.85013
▁fin	-8.85473
▁J	-8.85496
▁rupture	-8.85755
▁Remet	-8.85768
▁propres	-8.85892
▁victime	-8.85937
▁2020,	-8.86013
▁cadre	-8.86119
EMB	-8.86156
▁SOCI	-8.86194
▁assurances	-8.86562
▁SOC	-8.86617
▁IARD	-8.86715
▁section	-8.86975
▁SEPT	-8.86991
administration	-8.87196
application	-8.87616
▁Me	-8.87916
▁tenu	-8.88087
▁12.	-8.88289
▁Célice	-8.88733
on	-8.88784
▁Lyon	-8.89089
obligation	-8.89099
▁aurait	-8.89278
▁Texidor	-8.89367
▁MAI	-8.89454
▁nouveau	-8.89502
▁Périer	-8.89651
▁déduit	-8.90106
▁bail	-8.90255
▁valoir	-8.90578
▁constate	-8.90865
▁point	-8.91115
pôle	-8.91911
aient	-8.92265
▁violation	-8.92312
▁congés	-8.92583
▁aucune	-8.92597
▁seul	-8.92605
▁justifié	-8.92658
▁DEUXIÈME	-8.92749
▁in	-8.92967
▁donner	-8.92978
▁AVRIL	-8.93263
▁obligation	-8.93786
▁fondement	-8.93866
▁recevabilité	-8.94075
▁2019	-8.9431
▁santé	-8.94372
admission	-8.94596
▁Convention	-8.9467
▁cours	-8.94675
▁rechercher	-8.94835
▁cotisations	-8.94876
▁Versailles	-8.95265
de	-8.95721
▁primaire	-8.95795
▁lequel	-8.95871
▁2017	-8.95943
▁condamnation	-8.96065
▁b	-8.96107
▁tendant	-8.96183
▁2015	-8.96366
▁portant	-8.96406
▁prononcée	-8.96492
▁provisoire	-8.96553
établissement	-8.96556
▁peine	-8.96906
▁Gatineau	-8.9701
▁Rebeyrol	-8.97086
▁pu	-8.97345
in	-8.97415
▁débouter	-8.97553
▁2019,	-8.97554
▁SCI	-8.97558
▁Fattaccini	-8.97626
▁réelle	-8.97695
homme	-8.97909
▁griefs	-8.98158
URSSAF	-8.98317
▁résultant	-8.98549
▁copropriétaires	-8.98662
▁sens	-8.98717
▁Boré	-8.98782
▁Bruneton	-8.99171
▁Mégret	-8.99171
Salve	-8.99171
▁lien	-8.99537
▁documents	-8.99744
▁rappel	-8.99856
▁liquidation	-8.99877
activité	-9.00045
▁unique	-9.00171
al	-9.00258
▁perte	-9.00263
assureur	-9.00463
▁cinq	-9.00694
acte	-9.01431
▁c	-9.01431
▁venant	-9.01726
ier	-9.02014
▁procès	-9.02267
▁activité	-9.02315
▁Z	-9.02673
▁Mmes	-9.02787
▁méconnu	-9.02989
▁services	-9.03045
▁K	-9.03223
▁soutien	-9.03927
▁biens	-9.04053
▁sérieuse	-9.04085
▁jours	-9.04115
▁COMM	-9.04236
▁mandataire	-9.04321
▁susvisés	-9.04386
▁payés	-9.0449
si	-9.04491
▁recouvrement	-9.04626
▁service	-9.05257
▁rémunération	-9.0531
▁taux	-9.05872
▁dit	-9.0598
▁SAS	-9.06389
▁autrement	-9.07382
▁social	-9.07549
▁devenu	-9.07579
▁pendant	-9.0772
que	-9.07851
annulation	-9.08253
▁dix	-9.08285
CO	-9.08319
▁afin	-9.08617
▁2015,	-9.08807
▁outre	-9.09142
▁fonds	-9.09351
▁justifier	-9.0959
▁seule	-9.09819
▁eu	-9.10263
▁voie	-9.10274
▁Cabinet	-9.10565
▁jusqu	-9.10568
▁ressort	-9.10648
▁Conseil	-9.10803
c	-9.1082
▁personnes	-9.10947
organisation	-9.10953
▁connaissance	-9.11003
ER	-9.11234
▁mention	-9.11393
▁13.	-9.11521
▁2018	-9.11615
▁assigné	-9.11631
▁critique	-9.11794
▁rejeté	-9.11808
ès	-9.12122
▁devait	-9.12171
▁ceux	-9.12234
▁telle	-9.12484
▁question	-9.12674
▁instance	-9.12804
accord	-9.13244
▁six	-9.13769
▁moins	-9.14307
▁Société	-9.14489
▁fins	-9.14706
▁décret	-9.14762
▁MOYEN	-9.14853
▁frais	-9.15045
▁1026	-9.15454
▁groupe	-9.1546
▁nécessaire	-9.15465
▁depuis	-9.15693
▁contraire	-9.1587
▁désister	-9.15955
LAR	-9.16015
▁sauvegarde	-9.1614
▁tiré	-9.16548
▁supplémentaires	-9.16646
▁constitue	-9.16683
ayant	-9.16745
▁lorsqu	-9.16745
ordre	-9.16792
▁déchéance	-9.16809
office	-9.17073
▁co	-9.17232
p	-9.17343
juridictionnelle	-9.17372
ont	-9.17481
▁règlement	-9.17608
▁prix	-9.17835
▁prévue	-9.17844
même	-9.17856
▁finances	-9.18089
▁font	-9.18292
▁actes	-9.18589
▁objet	-9.18858
▁contrats	-9.18884
▁domiciliés	-9.19039
Vén	-9.19144
usia	-9.19144
▁2018,	-9.19266
▁Ismail	-9.19429
▁peuvent	-9.1943
▁recevable	-9.1946
▁risque	-9.19474
avocat	-9.19722
▁résultait	-9.20004
▁établi	-9.20074
existe	-9.20521
elles	-9.20772
▁W	-9.2137
▁ordonné	-9.21379
autorité	-9.21402
ation	-9.21584
▁indemnité	-9.21854
▁matière	-9.2189
▁atteinte	-9.21992
▁X	-9.2209
▁relève	-9.22317
▁redressement	-9.22436
▁véhicule	-9.22885
IÈRE	-9.23029
▁branches	-9.2305
▁commis	-9.23143
▁tiers	-9.23526
indemnisation	-9.2369
▁qualités	-9.23842
▁recueilli	-9.23953
▁ès	-9.24062
▁prêt	-9.2411
égard	-9.24295
n	-9.24402
▁suivie	-9.24696
▁rôle	-9.2503
▁MMA	-9.25033
AU	-9.25163
▁DÉ	-9.25268
▁examiné	-9.2533
IQUE	-9.25334
▁quatre	-9.25463
▁FINANC	-9.25537
▁gestion	-9.25543
▁moral	-9.25747
▁2013	-9.25923
▁également	-9.26276
▁mesures	-9.26403
▁rendue	-9.26571
▁comité	-9.26736
▁emploi	-9.26798
▁puis	-9.27162
▁notification	-9.27278
▁constater	-9.27308
exploitation	-9.27479
▁14.	-9.27538
SISTEMENT	-9.27693
▁celles	-9.27786
▁valeur	-9.27898
▁fiscale	-9.2802
▁Vigneau	-9.28118
▁Y	-9.28402
▁pouvoir	-9.28411
▁relatives	-9.28668
▁publiques	-9.28794
exclusion	-9.28942
▁cependant	-9.29051
▁forme	-9.29343
▁diverses	-9.29374
▁examen	-9.29447
CIA	-9.29537
▁dernière	-9.29681
ou	-9.29945
IGNE	-9.30003
▁conclu	-9.30079
▁suivante	-9.30136
▁nombre	-9.30214
▁défendeur	-9.30323
▁quatrième	-9.30535
▁Aux	-9.30766
h	-9.30783
▁remise	-9.30812
▁Elle	-9.30889
intérêt	-9.31217
▁6],	-9.3123
▁péremption	-9.31393
▁contestation	-9.31615
▁propriété	-9.31659
ADMIS	-9.31749
o	-9.32222
▁liberté	-9.32491
▁ADMIS	-9.32664
▁confirmé	-9.32814
ieurs	-9.32889
▁collective	-9.32928
).	-9.33041
et	-9.33122
▁Crédit	-9.3357
▁globale	-9.33594
▁TROISIÈME	-9.33681
▁agricole	-9.33714
▁nationale	-9.33802
▁Teiller	-9.33901
▁encore	-9.33939
▁avis	-9.34009
▁Thomas	-9.34284
▁afférents	-9.34493
être	-9.34736
homale	-9.34792
emprisonnement	-9.35235
▁PREMIÈRE	-9.35459
▁relatif	-9.35494
▁signé	-9.35532
▁Ode	-9.35633
▁obligations	-9.3565
▁français	-9.35842
▁455	-9.3585
EILLE	-9.35894
▁concernant	-9.35914
▁Mais	-9.35938
OMMER	-9.35989
▁faisait	-9.36023
▁légales	-9.36195
Union	-9.36775
▁immobilier	-9.36874
▁permettant	-9.36929
▁5°/	-9.3731
▁pénal	-9.37885
▁vue	-9.37939
▁procéder	-9.38078
▁plan	-9.38084
▁2013,	-9.38149
▁fondée	-9.38326
▁circonstances	-9.38576
▁préalable	-9.3864
▁cession	-9.38822
TRE	-9.39027
-19	-9.39113
▁construction	-9.39174
▁répondre	-9.39354
▁développée	-9.39373
▁Caisse	-9.39477
▁3]	-9.39807
▁Requête	-9.39815
▁condition	-9.40188
▁expressément	-9.40285
aide	-9.40382
▁tenue	-9.40499
▁retraite	-9.40965
▁déterminant	-9.41092
▁Car	-9.41194
▁résiliation	-9.41231
▁énonce	-9.413
▁doivent	-9.41469
▁relative	-9.41547
16	-9.41647
▁grave	-9.41906
▁dû	-9.41986
▁mission	-9.42038
▁Hazan	-9.42067
▁contenant	-9.42188
▁consort	-9.42194
▁Waquet	-9.42307
▁(1	-9.42741
▁jugeant	-9.42776
▁Farge	-9.42788
▁manière	-9.42788
▁Pi	-9.43088
▁tel	-9.43105
▁données	-9.43224
▁chose	-9.43272
▁administrative	-9.43484
▁subi	-9.43727
autres	-9.43923
▁sein	-9.44057
▁années	-9.4422
▁cha	-9.44234
▁demandé	-9.44801
▁soumis	-9.44925
▁commercial	-9.45294
▁suivant	-9.45528
▁totale	-9.45676
d	-9.45679
▁500	-9.46589
▁593	-9.46631
ANCE	-9.46888
▁règles	-9.47049
▁débiteur	-9.47601
▁familiales	-9.47705
▁vie	-9.4781
▁française	-9.47909
▁prévenu	-9.4819
▁réalisation	-9.48247
▁manquement	-9.4841
▁ailleurs	-9.48484
▁commune	-9.48507
assemblée	-9.48563
ad	-9.48603
zan	-9.48638
▁dommage	-9.48763
▁demandeurs	-9.48966
▁statué	-9.49013
▁harcèlement	-9.4927
Caen	-9.49601
1009-1	-9.49679
▁Rocheteau	-9.49787
Sarano	-9.49916
▁appartient	-9.49966
▁prévues	-9.5004
▁Goulet	-9.50047
▁mandat	-9.50482
▁suit	-9.50505
▁prime	-9.50742
▁défenderesses	-9.50863
▁République	-9.50983
▁15.	-9.51052
▁serait	-9.5115
▁Foussard	-9.51221
▁restitution	-9.51262
▁Froger	-9.51486
É	-9.51495
aux	-9.51832
▁terme	-9.51907
▁oeuvre	-9.51932
intéressé	-9.5212
▁Banque	-9.52144
ortée	-9.52188
▁978	-9.52443
▁directive	-9.52463
immeuble	-9.52507
▁remplacement	-9.5268
▁sursis	-9.52814
i	-9.53148
▁partiel	-9.53359
▁accord	-9.53448
▁protection	-9.53495
nica	-9.53603
▁_______________	-9.53772
▁action	-9.53835
▁seconde	-9.53863
▁liste	-9.53932
▁2011	-9.53969
▁locataire	-9.54478
▁poste	-9.54669
▁Molinié	-9.54695
▁Thiriez	-9.54695
▁Aucun	-9.54695
▁Champ	-9.54808
▁présence	-9.54831
▁prétentions	-9.54839
▁refus	-9.54844
▁respect	-9.54961
▁police	-9.54967
▁verser	-9.55136
ROY	-9.55516
▁ancien	-9.5556
▁t	-9.5578
▁Sud	-9.55957
▁contractuelle	-9.55993
Etat	-9.56056
▁treiz	-9.56064
▁régime	-9.56112
▁préavis	-9.56209
▁correspondant	-9.5636
verbal	-9.56468
▁demeure	-9.56639
-2	-9.56791
▁commission	-9.56806
▁territoire	-9.57033
agissant	-9.57036
▁prendre	-9.57063
▁nouvelle	-9.57124
u	-9.57169
▁dépôt	-9.57312
▁légalement	-9.574
▁points	-9.57572
▁époux	-9.57929
▁constitutionnel	-9.5814
▁établissement	-9.58211
▁Grévy	-9.58294
▁Thouvenin	-9.58294
▁compétence	-9.58365
▁Coudray	-9.58435
▁bonne	-9.58452
▁décès	-9.58578
2-10	-9.58856
▁Océane	-9.58859
▁justifie	-9.58868
▁exécution	-9.58934
▁voir	-9.5903
▁infractions	-9.59538
▁ministère	-9.59571
20	-9.59856
all	-9.59858
allocations	-9.59872
▁Gratian	-9.60287
accident	-9.60317
▁(2	-9.60699
infraction	-9.60842
▁volonté	-9.60864
MAS	-9.60909
expertise	-9.61192
▁caution	-9.61254
▁bornant	-9.61444
▁calcul	-9.61577
14	-9.61986
▁certaine	-9.62338
▁confiscation	-9.62467
▁libéral	-9.62722
union	-9.62846
▁direction	-9.63158
▁bureau	-9.63349
▁juger	-9.63527
emploi	-9.63558
▁prévu	-9.63571
▁correctionnel	-9.63727
▁reprise	-9.638
AVOIR	-9.63857
▁2010	-9.63893
▁contradictoire	-9.63901
▁commun	-9.64
▁annulé	-9.64066
▁arrêts	-9.64165
60	-9.64285
▁vigueur	-9.64396
2-13	-9.64405
▁professionnel	-9.64952
▁élément	-9.65049
▁charges	-9.6512
▁unipersonnelle	-9.65299
▁OCT	-9.65451
écarter	-9.65499
▁remboursement	-9.65602
▁réception	-9.658
▁formation	-9.66045
▁prononcer	-9.66069
▁invoquent	-9.66292
▁applicables	-9.66725
▁empêché	-9.66928
▁Van	-9.66988
▁limite	-9.67036
▁produites	-9.67074
18	-9.67138
occasion	-9.67215
▁Bordeaux	-9.67251
▁collectif	-9.6726
▁litigieux	-9.67284
▁domicile	-9.67286
▁judiciaires	-9.67394
▁précis	-9.67496
feu	-9.67592
année	-9.67691
▁4]	-9.67751
BRE	-9.67798
▁régionale	-9.67879
DIT	-9.67892
▁2009	-9.6807
▁pourtant	-9.68093
▁déjà	-9.68213
▁caractériser	-9.6822
▁nécessaires	-9.68361
▁dénommée	-9.68391
expert	-9.68456
ée	-9.68458
ouvrage	-9.68466
▁néanmoins	-9.68525
▁bénéfice	-9.68822
▁Conseils	-9.68881
▁communication	-9.68982
▁déduire	-9.68994
▁Monsieur	-9.69003
▁assisté	-9.69171
▁place	-9.69311
▁civils	-9.69362
▁16.	-9.69366
▁comptes	-9.69399
heures	-9.69787
▁permis	-9.6994
▁prioritaire	-9.70099
▁fermeture	-9.70099
▁propriétaire	-9.70128
▁créances	-9.70195
▁portée	-9.70357
▁transport	-9.70558
▁moment	-9.70576
▁accident	-9.70703
▁versées	-9.7079
nstitutionnalité	-9.70879
▁exigences	-9.70986
aucune	-9.70999
France	-9.71023
▁prononçant	-9.71055
▁engagé	-9.71193
22	-9.71228
▁sollicité	-9.71352
▁7],	-9.71383
les	-9.7142
▁production	-9.71444
▁Axa	-9.71543
ur	-9.71688
▁mettre	-9.71698
▁faite	-9.71946
▁présentes	-9.71984
▁fixé	-9.72169
▁ensuite	-9.72183
▁relation	-9.72192
▁contradiction	-9.72344
▁traitement	-9.72355
▁indemnités	-9.72505
origine	-9.73306
or	-9.73336
▁Saint	-9.73408
▁encourue	-9.735
▁opérations	-9.73564
el	-9.73635
▁complémentaires	-9.737
▁retenir	-9.73815
▁chacun	-9.73821
▁coupable	-9.73833
étaient	-9.73972
sière	-9.74068
▁Rennes	-9.74101
▁condamnant	-9.74145
▁Prado	-9.74147
▁déterminée	-9.74247
▁[3]	-9.74269
▁capital	-9.74314
▁2]	-9.74572
▁désigné	-9.74648
▁Code	-9.7465
▁[1]	-9.74733
▁O	-9.7504
hommes	-9.75168
▁employeur	-9.75299
▁fondamentales	-9.75848
▁Laro	-9.75849
21-25.	-9.75912
▁prestations	-9.75963
▁quinz	-9.7599
▁22-14.	-9.76226
▁crédit	-9.76516
▁représentée	-9.76662
interdiction	-9.76666
▁Pôle	-9.76862
▁nécessairement	-9.76891
▁fois	-9.77015
▁Et	-9.77062
▁national	-9.77146
▁vertu	-9.77162
▁engagée	-9.772
▁décisions	-9.77385
examen	-9.7752
assuré	-9.77541
▁congé	-9.7755
▁exactement	-9.77878
▁veuve	-9.78017
▁départ	-9.78033
▁spéciale	-9.78336
▁compris	-9.78349
f	-9.78494
▁désignée	-9.7857
▁CH	-9.78581
13	-9.78598
▁Douai	-9.78841
21	-9.78924
▁6°/	-9.79113
▁impôts	-9.79327
▁re	-9.79471
▁Moyen	-9.79574
▁lesquelles	-9.7965
adastre	-9.79768
▁procédé	-9.79927
▁retard	-9.80099
▁version	-9.80101
mi	-9.80192
▁hors	-9.80274
neuf	-9.80319
▁jugée	-9.80375
▁condamnations	-9.80526
▁mêmes	-9.80602
▁relevant	-9.80626
23	-9.80626
10	-9.80787
▁JUILLET	-9.80979
▁procédures	-9.81016
▁usage	-9.81139
▁solidum	-9.81156
▁conséquent	-9.81511
▁FS	-9.81568
▁statut	-9.81585
25	-9.81659
▁prévoyance	-9.81689
▁104	-9.81748
▁mutuel	-9.81767
effet	-9.82107
▁lesquels	-9.82224
▁résidence	-9.823
▁2011,	-9.82316
15	-9.82341
▁1]	-9.82387
01	-9.82398
▁Renault	-9.82404
▁requalification	-9.82404
▁vérifier	-9.82407
▁entreprises	-9.82506
▁Antoine	-9.82763
▁''	-9.82834
▁reclassement	-9.82943
▁ajoute	-9.83039
▁annulation	-9.83079
-11	-9.83153
Paris	-9.83196
▁seules	-9.83251
▁patrimoine	-9.83305
dier	-9.83305
▁reçu	-9.83383
age	-9.83672
04	-9.83746
v	-9.83812
▁Boulloche	-9.83849
▁maintien	-9.83849
▁rejetée	-9.83899
▁représentant	-9.83936
▁versement	-9.83949
▁législation	-9.84031
80	-9.84203
▁Taillan	-9.84396
ouverture	-9.84456
is	-9.84514
24	-9.84551
17	-9.8463
▁préjudices	-9.84639
▁constat	-9.84702
▁relever	-9.84764
amende	-9.84849
aucun	-9.84877
▁prononcées	-9.84913
te	-9.84942
▁référence	-9.84947
▁ré	-9.85001
▁hauteur	-9.85133
▁délit	-9.85416
▁représenté	-9.85434
▁notifié	-9.856
▁considération	-9.85601
assises	-9.85717
▁modalités	-9.85921
▁LM	-9.85941
▁Leroy	-9.86057
▁Colin	-9.86062
▁1].	-9.86093
▁2006	-9.86118
▁condamnée	-9.86304
Thomas	-9.86344
30	-9.86691
▁Des	-9.86762
▁Stoclet	-9.86804
▁entreprise	-9.86876
inger	-9.86893
▁courrier	-9.86915
▁responsable	-9.86942
▁contentieux	-9.87259
▁susceptible	-9.87294
▁Gilbert	-9.87299
▁22-16.	-9.87447
▁sanction	-9.87453
28	-9.87721
▁Jean	-9.87778
02	-9.87911
▁formées	-9.87956
habitation	-9.87958
▁Luc	-9.87963
▁important	-9.87964
▁peu	-9.88238
▁circonstance	-9.88247
▁lieux	-9.88392
ING	-9.88433
▁103	-9.88567
▁débat	-9.8863
▁bailleur	-9.88632
Colombie	-9.88696
▁suffisamment	-9.88787
29	-9.88877
50	-9.89011
CE	-9.89019
▁document	-9.89162
assurer	-9.89206
2-11	-9.89226
00	-9.89285
▁enregistré	-9.89307
26	-9.89394
▁assistée	-9.89439
▁ANNEXE	-9.89463
▁repos	-9.89484
▁anciennement	-9.89535
▁17.	-9.89538
▁obtenir	-9.89569
▁privée	-9.8979
huit	-9.89987
▁projet	-9.90002
an	-9.90072
▁huit	-9.901
▁Catherine	-9.90236
▁informé	-9.90331
▁locaux	-9.9043
▁fonctions	-9.90495
Gis	-9.90503
accès	-9.90569
▁connaître	-9.90626
exercer	-9.90775
▁débouté	-9.90856
▁annexé	-9.90973
▁an	-9.91002
▁accomplies	-9.91295
▁litigieuse	-9.91357
▁réponse	-9.91407
▁professionnels	-9.91454
eur	-9.91509
▁Montpellier	-9.9152
▁1134	-9.91609
34	-9.91627
▁Nord	-9.91814
▁quant	-9.9194
lon	-9.92067
▁possibilité	-9.92146
;	-9.92154
▁présenter	-9.92237
▁mémoires	-9.92669
dite	-9.92729
aud	-9.92903
▁obligatoire	-9.92946
▁Pinatel	-9.9299
▁indemnisation	-9.9306
▁délibération	-9.93148
▁rejet	-9.93154
▁revenus	-9.93229
▁marché	-9.9335
▁chacune	-9.93381
lli	-9.93463
▁fraude	-9.9359
▁fiscales	-9.93624
▁proposé	-9.93789
▁créancier	-9.93962
▁référendaires	-9.93992
33	-9.94026
▁2009,	-9.94111
Thaler	-9.94193
▁Fabiani	-9.94193
▁concurrence	-9.94197
40	-9.94364
▁22-17.	-9.94394
▁onze	-9.94395
GISS	-9.94403
87	-9.94591
ouze	-9.94607
▁sept	-9.94685
▁prévoit	-9.95004
▁dirigé	-9.95008
▁constitution	-9.95043
▁2].	-9.95123
▁rectification	-9.95176
▁référé	-9.9518
▁foi	-9.95189
96	-9.95191
▁avocats	-9.95211
▁médecin	-9.95221
▁effectivement	-9.95311
▁établir	-9.95336
64	-9.9561
83	-9.95677
▁dette	-9.95681
▁régulièrement	-9.95697
▁signature	-9.95821
▁fixer	-9.95842
▁juridique	-9.95875
▁6,	-9.96001
▁but	-9.96007
▁Monge	-9.96026
46	-9.96181
▁statue	-9.96199
▁invitée	-9.9621
▁titulaire	-9.96416
06	-9.96569
ge	-9.96635
▁ci	-9.96636
▁appartenant	-9.96655
86	-9.96785
▁Mat	-9.96878
ce	-9.96998
▁».	-9.97162
▁nul	-9.97285
67	-9.97382
▁porter	-9.97525
▁placement	-9.97583
▁For	-9.97642
▁adressé	-9.9771
timent	-9.97721
78	-9.97776
]-[	-9.978
▁II	-9.97814
▁déclarée	-9.9799
entrée	-9.97997
▁prolongation	-9.98103
▁contrainte	-9.98109
impossibilité	-9.98109
73	-9.98133
▁membres	-9.98161
▁enfants	-9.98298
▁dénaturer	-9.98313
▁convient	-9.98314
expiration	-9.9832
▁dissimulé	-9.98325
rasco	-9.98341
▁vu	-9.98367
▁refusé	-9.98902
88	-9.98927
▁propre	-9.9894
▁Lapasset	-9.98946
▁porte	-9.98963
avaient	-9.99389
ILL	-9.9947
▁savoir	-9.99588
▁Vai	-9.99589
89	-9.99647
▁devenue	-9.99669
és	-9.99689
70	-9.99694
▁Réunion	-9.99796
▁solde	-9.99803
▁consommation	-9.99812
▁compensatrice	-10.0001
85	-10.0003
▁2008	-10.0016
▁Lab	-10.0021
12	-10.0024
▁acquis	-10.0028
▁grande	-10.0033
▁personnelle	-10.0039
IER	-10.0042
b	-10.0043
▁présenté	-10.0043
▁102	-10.0044
ette	-10.0046
▁correctionnelle	-10.0048
97	-10.0059
▁OD	-10.0059
▁rend	-10.0061
▁réalité	-10.0065
▁parcelle	-10.0066
Alpes	-10.0068
▁1240	-10.007
▁TA	-10.0074
▁Associés	-10.0087
ssette	-10.0087
▁bénéficier	-10.0093
03	-10.0099
▁LE	-10.01
75	-10.0104
▁Mamou	-10.0109
▁concerne	-10.014
▁cessation	-10.0152
THO	-10.0152
77	-10.0154
▁irrecevables	-10.0157
43	-10.0163
AND	-10.0174
▁cinquième	-10.0175
▁8],	-10.0197
▁Europe	-10.0208
▁intervenue	-10.0208
▁2010,	-10.0217
it	-10.0228
▁prestation	-10.0241
48	-10.0252
94	-10.0264
▁Aide	-10.0267
Venezuela	-10.0283
▁auquel	-10.0283
▁figurant	-10.0305
19	-10.0322
Malignac	-10.0327
▁Rousseau	-10.0327
55	-10.0328
ri	-10.0334
99	-10.0336
▁Nîmes	-10.0339
05	-10.0342
08	-10.0348
▁conforme	-10.0349
ité	-10.0357
après	-10.0358
76	-10.0362
▁Grenoble	-10.0365
▁sociales	-10.037
▁régional	-10.0375
▁RG	-10.038
▁bon	-10.0384
▁pouvant	-10.0394
▁réduction	-10.0394
▁bulletin	-10.0416
▁Besse	-10.0418
▁recherche	-10.042
72	-10.0428
▁saisine	-10.045
▁risques	-10.0453
▁Tapie	-10.0461
▁plein	-10.0461
▁contesté	-10.0465
▁conventionnelle	-10.0472
68	-10.0473
▁fondant	-10.0477
▁18.	-10.0483
39	-10.0491
ton	-10.0499
98	-10.0511
▁SG	-10.0523
▁commissaire	-10.0525
▁Centre	-10.0531
▁déchu	-10.0534
▁ORDONN	-10.055
74	-10.055
▁Ing	-10.0553
▁QU	-10.0566
79	-10.0573
22-18	-10.058
étant	-10.0582
31	-10.0584
▁[3],	-10.0592
▁2007	-10.0594
▁m	-10.0595
fondé	-10.0602
ux	-10.0609
Amiens	-10.0619
▁cabinet	-10.0619
▁particulier	-10.0623
▁présentées	-10.0623
▁mutuelles	-10.0626
ine	-10.0632
▁105	-10.064
▁dispose	-10.0646
▁soins	-10.0648
▁salaires	-10.0651
62	-10.0656
ard	-10.0661
▁garde	-10.0664
▁soient	-10.0665
▁département	-10.0667
g	-10.0668
▁trente	-10.0687
▁Mollard	-10.0687
rousse	-10.0687
▁entraîne	-10.0689
▁civiles	-10.07
▁Bauer	-10.071
▁discrimination	-10.0713
ra	-10.0715
▁présentée	-10.072
49	-10.0722
66	-10.0731
▁magistrats	-10.0736
ang	-10.0738
▁directement	-10.0742
▁définitive	-10.0743
▁duquel	-10.0756
53	-10.0762
▁certaines	-10.0766
▁permet	-10.0769
35	-10.0772
▁effets	-10.0789
▁qualification	-10.0808
▁victimes	-10.081
▁inopérant	-10.0813
▁livre	-10.0813
Violas	-10.0826
▁5]	-10.083
▁591	-10.0831
▁constitué	-10.0836
NGE	-10.0836
▁précise	-10.0836
▁dues	-10.0837
▁[2]	-10.0839
▁seuls	-10.0843
2-15	-10.0844
▁Feschotte	-10.0849
▁confirmer	-10.085
▁Provence	-10.0858
▁délais	-10.087
Desbois	-10.0872
▁financier	-10.0878
▁précité	-10.0907
dit	-10.091
36	-10.0915
▁reconnaissance	-10.0919
Montagn	-10.0919
▁justification	-10.0922
obtenir	-10.0929
▁dénaturé	-10.0942
▁réinscription	-10.0943
▁simple	-10.0959
▁Sebagh	-10.0966
▁Duhamel	-10.0966
▁Toulouse	-10.0979
37	-10.0983
45	-10.0984
▁suivants	-10.0993
63	-10.0994
▁maison	-10.0994
▁désignation	-10.0996
▁effectué	-10.1002
▁FD	-10.1012
▁développement	-10.1014
▁tenant	-10.1037
ées	-10.1051
▁CM	-10.1058
▁juridictions	-10.1059
▁Coutou	-10.1061
▁prévaloir	-10.1061
▁stupéfiants	-10.1062
▁saurait	-10.1072
52	-10.1076
▁maître	-10.1078
▁(3	-10.1082
▁2016.	-10.1088
▁centre	-10.1088
41	-10.1096
47	-10.1097
▁absence	-10.1105
▁indéterminée	-10.111
▁Jo	-10.1115
▁Admission	-10.1132
▁copropriété	-10.1132
▁égard	-10.1139
▁2008,	-10.1148
▁Allianz	-10.1156
▁Letourneur	-10.1156
▁pouvaient	-10.1156
appelant	-10.116
▁poursuite	-10.1167
▁pièce	-10.1183
▁postérieurement	-10.1186
1-18	-10.1191
impression	-10.1204
▁invoquée	-10.1213
Maitre	-10.1229
▁causé	-10.1241
Gury	-10.1253
▁preneur	-10.1253
▁Ayant	-10.1253
31-5	-10.1255
▁transcription	-10.1255
▁appartenait	-10.1255
▁proposition	-10.1261
▁MO	-10.1263
exception	-10.1266
sept	-10.1266
69	-10.1266
'[	-10.1267
▁garantir	-10.1279
▁façon	-10.1301
▁Duval	-10.1301
▁établie	-10.1301
▁client	-10.1302
ot	-10.1305
nare	-10.131
▁adoptés	-10.1314
▁prescrite	-10.1324
▁autorisation	-10.1326
▁limites	-10.1329
▁délégation	-10.133
57	-10.1336
▁poursuites	-10.1342
07	-10.1347
-4	-10.1351
▁derniers	-10.1361
90	-10.1363
▁624	-10.138
▁Dan	-10.1388
▁eux	-10.1395
▁syndic	-10.1397
▁plainte	-10.1409
▁considéré	-10.1416
NE	-10.1418
▁chance	-10.1424
44	-10.1434
82	-10.1438
▁parts	-10.1438
▁soumise	-10.1441
8°/	-10.1445
▁peines	-10.1458
▁2022),	-10.1462
▁Rinuy	-10.1473
▁Alain	-10.1474
Graff	-10.1476
Daudret	-10.1498
▁Spinosi	-10.1498
▁passif	-10.1498
▁règle	-10.1521
▁déterminer	-10.1524
▁énonçant	-10.1529
▁SL	-10.1531
▁notaire	-10.1534
▁effective	-10.1535
▁affirmant	-10.1548
sky	-10.1548
établir	-10.1564
▁registres	-10.1574
▁effectuées	-10.1585
▁Somm	-10.1595
▁ouverte	-10.16
32	-10.1611
uchan	-10.1622
ir	-10.1624
▁452	-10.1633
administrateur	-10.164
59	-10.1647
▁Poupot	-10.1648
▁électronique	-10.166
engagement	-10.1669
tir	-10.1669
▁connexité	-10.1673
▁causes	-10.1675
appréciation	-10.1691
21-23	-10.1699
▁Layemar	-10.1699
▁publics	-10.1712
▁Valdelièvre	-10.1724
▁force	-10.1724
▁douanes	-10.1728
▁dépendance	-10.175
▁remettre	-10.1751
84	-10.1754
38	-10.1762
▁énonciations	-10.1775
▁matérielle	-10.1776
▁50	-10.1781
▁médical	-10.1782
▁vendeur	-10.1791
Denis	-10.1801
11	-10.1803
▁RENVOIE	-10.1805
▁Mutuelle	-10.1813
▁cautionnement	-10.1816
Rameix	-10.1819
▁agents	-10.1825
▁administration	-10.1829
92	-10.183
agent	-10.1839
▁Lance	-10.184
ancienneté	-10.1846
▁Jouan	-10.1852
▁interjeté	-10.1852
neau	-10.1853
▁enregistrée	-10.1873
▁préciser	-10.1878
▁pertes	-10.188
▁Fond	-10.1881
intégralité	-10.1897
▁constituait	-10.1904
▁transports	-10.1904
▁désordres	-10.1912
▁informations	-10.1914
51	-10.1914
▁violences	-10.1918
▁radi	-10.1928
▁Isola	-10.193
▁protocole	-10.193
▁énoncé	-10.1937
VS	-10.1946
respect	-10.195
x	-10.1968
▁conclusion	-10.197
▁joints	-10.1976
▁souscrit	-10.1977
▁faux	-10.1982
▁chargé	-10.1993
81	-10.1996
[	-10.1998
ti	-10.2004
▁1382	-10.2015
93	-10.2021
▁coût	-10.2022
▁participation	-10.2022
▁uniquement	-10.2024
▁dernières	-10.2035
▁surplus	-10.2061
61	-10.2062
▁sociaux	-10.2064
▁Iard	-10.2105
▁Thou	-10.2113
▁transfert	-10.2113
aurait	-10.2125
insuffisance	-10.2135
▁Martin	-10.2139
▁Boucard	-10.2139
▁Bénabent	-10.2139
▁préalablement	-10.2142
▁propos	-10.2154
us	-10.2159
Palat	-10.2166
95	-10.2184
▁technique	-10.2184
▁réseau	-10.2192
▁signification	-10.2192
▁Boyer	-10.2194
▁écarté	-10.2206
▁épidémie	-10.2207
▁système	-10.2208
56	-10.221
▁courir	-10.2212
ie	-10.2218
▁CGT	-10.2232
at	-10.2234
▁générales	-10.224
▁fixation	-10.2246
▁Grand	-10.2254
▁écrit	-10.2255
27	-10.226
▁européen	-10.227
Kar	-10.228
▁légitime	-10.2303
▁tels	-10.2307
inexécution	-10.2307
▁OR	-10.2314
acquisition	-10.2324
▁Delbano	-10.2326
▁matériel	-10.2327
om	-10.2337
ld	-10.2348
▁engagement	-10.2353
▁Pontonnier	-10.2353
▁Capitaine	-10.2354
chez	-10.2362
irrecevabilité	-10.2381
▁5,	-10.2382
▁expertise	-10.239
▁décompte	-10.2398
42	-10.2398
vers	-10.2406
▁contrepartie	-10.2408
k	-10.2432
▁Vigne	-10.2433
▁activités	-10.2435
expropriation	-10.2435
ate	-10.245
▁niveau	-10.2462
▁pouvoirs	-10.2493
▁astreinte	-10.2515
▁prévention	-10.2517
▁Alors	-10.2517
ut	-10.2522
09	-10.2525
▁2016-131	-10.255
▁visés	-10.255
▁temporaire	-10.255
▁comportement	-10.2554
enty	-10.2557
65	-10.257
Flore	-10.2572
▁puisse	-10.2573
▁1015	-10.2576
▁complémentaire	-10.2592
entretien	-10.26
▁faculté	-10.26
Azur	-10.26
▁456	-10.261
autorisation	-10.2628
▁infraction	-10.2639
issue	-10.2647
▁parcelles	-10.2655
▁jamais	-10.2656
▁chargée	-10.2658
▁impropres	-10.2682
▁blanchiment	-10.2684
▁toutefois	-10.2684
dessus	-10.2687
▁erreur	-10.2687
▁constatée	-10.2693
▁membre	-10.2704
▁déclarations	-10.2706
occupation	-10.2706
▁distribution	-10.2712
▁considérant	-10.2712
▁déclare	-10.2712
té	-10.2712
examiner	-10.2713
▁9],	-10.2719
▁mutuelle	-10.2719
▁travailleurs	-10.2737
▁versée	-10.2745
▁écritures	-10.2745
▁décédé	-10.2749
eth	-10.2751
▁location	-10.2753
▁Guer	-10.2755
impôt	-10.2761
vient	-10.2762
▁conteste	-10.2765
71	-10.2776
z	-10.2778
▁remis	-10.2778
▁Val	-10.2793
▁Durin	-10.2796
▁prétendre	-10.2798
▁trouve	-10.2799
▁fixe	-10.2812
▁affaires	-10.2815
▁local	-10.2819
m	-10.2825
▁placé	-10.2827
▁autorités	-10.2838
▁exposés	-10.2844
art	-10.2851
▁Civ	-10.2868
91	-10.2879
▁Coste	-10.2881
▁questions	-10.2886
ar	-10.2889
im	-10.2904
▁Chevalier	-10.291
▁CAP	-10.2917
▁_______	-10.292
▁certificat	-10.2932
▁Mariette	-10.2939
arrêté	-10.2941
▁ECF	-10.2943
usage	-10.2945
du	-10.2949
54	-10.2957
▁réalisés	-10.2963
▁constituer	-10.2965
▁Lavaud	-10.2967
▁Rhône	-10.2969
▁certains	-10.2985
▁déchue	-10.2989
▁site	-10.3029
▁RB	-10.303
▁principes	-10.3034
▁GM	-10.3041
lement	-10.3049
▁So	-10.3053
▁quatorze	-10.3083
ordonner	-10.3085
▁démontrer	-10.3087
▁arrêté	-10.3103
▁déclarant	-10.3113
▁international	-10.3119
▁[4]	-10.3136
ignard	-10.3142
▁populaire	-10.3142
▁organisée	-10.3152
▁périodes	-10.3187
apprécier	-10.3208
▁FB	-10.3221
▁auraient	-10.3223
inscription	-10.3235
▁Dumont	-10.3259
58	-10.3264
▁retenue	-10.3271
▁1)	-10.3281
▁vol	-10.3284
▁magistrat	-10.3285
▁échéant	-10.3289
affectant	-10.329
ic	-10.3291
atteinte	-10.3298
▁Chauve	-10.3319
enquête	-10.334
▁déboute	-10.3346
▁Groupe	-10.3346
▁respectivement	-10.3349
ville	-10.3355
▁rejetant	-10.3356
lisab	-10.3376
acquéreur	-10.3378
▁Ru	-10.3383
▁19.	-10.3393
▁prétend	-10.3393
▁nécessité	-10.3405
▁gravité	-10.3409
▁Piet	-10.3411
▁40	-10.3412
▁obstacle	-10.3415
huissier	-10.3415
▁2004	-10.342
▁objectifs	-10.3438
incapacité	-10.3446
▁lot	-10.3453
▁agir	-10.3463
▁exerçant	-10.3471
▁supposer	-10.3471
▁Je	-10.3477
▁effectif	-10.3478
▁encontre	-10.3496
▁renvoyé	-10.3499
▁consultation	-10.353
▁comptable	-10.3532
▁106	-10.354
▁Cependant	-10.356
opération	-10.3568
▁fausse	-10.3587
▁satisfait	-10.3588
▁réparer	-10.3593
▁Bos	-10.36
▁réserve	-10.36
▁porté	-10.3607
ITAI	-10.3621
▁Hascher	-10.3621
▁holding	-10.3621
Arnou	-10.3621
▁délivrance	-10.3621
▁bande	-10.3621
ETTE	-10.3621
▁assuré	-10.3629
▁syndicale	-10.363
égalité	-10.3639
▁critiqués	-10.3642
▁rappelé	-10.3649
▁catégorie	-10.365
▁Constitution	-10.3652
▁22-19.	-10.3653
▁équivoque	-10.3657
▁intervenir	-10.3658
ARI	-10.3681
▁Laurent	-10.3683
▁amiable	-10.3685
▁abus	-10.3696
▁contestée	-10.3703
18-1	-10.371
▁Andrich	-10.3714
▁décidant	-10.3714
▁manquements	-10.3714
▁2000	-10.3728
▁résultat	-10.3743
Orléans	-10.3745
▁poursuivi	-10.3756
▁susceptibles	-10.3757
▁relatifs	-10.3766
▁premiers	-10.3772
▁Cavrois	-10.3776
▁2),	-10.3787
▁prescrit	-10.3788
me	-10.3799
▁provision	-10.3806
▁Désistement	-10.3807
▁présomption	-10.3807
ym	-10.3817
▁intervenu	-10.3819
▁pourra	-10.382
▁demander	-10.3825
▁Sung	-10.3839
▁clauses	-10.3844
▁indiqué	-10.3863
▁modification	-10.3869
▁justifiait	-10.387
▁régulier	-10.39
apos	-10.3932
▁soutenait	-10.3933
▁licencié	-10.3945
ssel	-10.3952
▁régulière	-10.3952
▁établissements	-10.3953
▁illicite	-10.3964
▁pension	-10.3965
rait	-10.3996
▁bénéficiaire	-10.3997
▁1147	-10.4009
▁total	-10.4009
▁soutient	-10.4012
▁modifié	-10.4014
▁loyers	-10.4025
▁fixée	-10.4028
▁logement	-10.4029
▁Auroy	-10.4029
▁champ	-10.4029
▁contester	-10.4032
▁ajoutent	-10.4033
▁trè	-10.4041
▁2°)	-10.4041
▁déterminé	-10.4043
deux	-10.4044
▁1°)	-10.4046
▁devoir	-10.4056
▁suspension	-10.4093
▁jouissance	-10.4093
▁caducité	-10.4093
▁ressources	-10.4099
▁directe	-10.4111
▁quoi	-10.4117
▁équitable	-10.4125
▁méconnaissance	-10.4125
▁trouble	-10.4132
▁consenti	-10.4139
▁De	-10.4158
▁Sornay	-10.4158
aménagement	-10.4172
▁statuts	-10.4177
▁[1],	-10.4184
▁[4],	-10.421
▁ordonner	-10.4219
▁Compagnie	-10.4223
▁Martinel	-10.4224
▁enfin	-10.4224
assignation	-10.4237
▁nouvelles	-10.4242
lot	-10.4245
▁difficultés	-10.4248
Robillot	-10.4255
▁choix	-10.4255
▁clôture	-10.4255
épidémie	-10.4271
▁support	-10.4276
▁f	-10.4277
▁forfait	-10.4287
▁principale	-10.4288
▁succession	-10.4288
ini	-10.4293
étendue	-10.4303
▁tenir	-10.4321
▁marque	-10.4325
▁éventuel	-10.4332
▁direct	-10.4354
▁Buk	-10.4354
▁mère	-10.4388
▁incombe	-10.4389
▁(4	-10.4396
▁aussi	-10.4397
eau	-10.4399
▁experts	-10.4414
▁garanties	-10.4415
▁exécutoire	-10.4423
▁considérer	-10.4423
▁Madame	-10.4428
▁telles	-10.443
▁antérieurement	-10.4431
ill	-10.4433
attribution	-10.4436
exécuter	-10.4439
▁association	-10.4452
beke	-10.4454
▁rural	-10.4454
▁nationalité	-10.4455
abord	-10.4455
▁10],	-10.4457
▁SA	-10.447
escroquerie	-10.4471
▁parquet	-10.4487
▁terrain	-10.449
▁mentions	-10.4495
▁Poitiers	-10.4499
▁véhicules	-10.4503
▁hypothèse	-10.4503
▁interdiction	-10.4518
▁tableau	-10.452
▁limiter	-10.4527
▁accompli	-10.4533
▁accueilli	-10.4538
▁récidive	-10.4555
▁reprochés	-10.4555
alia	-10.4581
écrit	-10.4583
▁Lament	-10.4599
▁Colmar	-10.4601
▁régularité	-10.4622
▁rétention	-10.4622
▁constatant	-10.4631
▁47	-10.4637
▁libre	-10.4644
▁excessives	-10.4647
▁retrait	-10.4647
▁productions	-10.4655
assiette	-10.4656
▁profession	-10.466
écu	-10.4666
gé	-10.4667
enregistrement	-10.4674
▁Pinet	-10.4691
EL	-10.4702
ap	-10.4714
▁Limited	-10.4725
▁Huglo	-10.4725
▁forfaitaire	-10.4726
▁remises	-10.4726
▁recommandée	-10.4731
▁surveillance	-10.4739
▁2005	-10.4764
abus	-10.4779
▁dirigée	-10.4793
▁quelconque	-10.4793
étis	-10.4794
▁101	-10.4794
▁équivaut	-10.4794
▁35	-10.4804
▁Rouen	-10.4806
▁Nicol	-10.4815
▁visite	-10.4833
▁contribuable	-10.4833
▁besoin	-10.4833
▁conclure	-10.4835
▁exclusivement	-10.4837
▁annexés	-10.4837
▁III	-10.4845
oeuvre	-10.4849
AL	-10.4853
▁Boud	-10.4863
delà	-10.4868
▁résolution	-10.4869
▁lié	-10.4885
▁réalisé	-10.4886
actif	-10.4889
ère	-10.4897
▁bailleresse	-10.4898
▁malfaiteurs	-10.4898
observations	-10.4903
▁Nancy	-10.4907
yer	-10.491
▁prises	-10.4919
UI	-10.4922
▁souverainement	-10.494
▁permanente	-10.4947
co	-10.4948
▁délivré	-10.4955
tonnier	-10.4968
▁durant	-10.4969
▁disciplinaire	-10.4974
ion	-10.4981
▁horaires	-10.4984
assistance	-10.499
cinq	-10.499
▁Alpes	-10.4998
aré	-10.5
▁Bernard	-10.5003
▁Rovinski	-10.5003
▁factures	-10.5017
▁Loire	-10.5025
▁complet	-10.5038
▁possession	-10.5038
▁constituent	-10.5046
▁Co	-10.5048
▁étranger	-10.5068
▁gérant	-10.5071
▁mentionne	-10.5079
▁paragraphe	-10.508
▁semaine	-10.5081
▁représentation	-10.5082
▁devra	-10.509
intervention	-10.5097
▁spécifique	-10.5104
▁intérêt	-10.5106
▁Holding	-10.5109
▁notifiée	-10.5111
▁Si	-10.5112
▁2007,	-10.5121
▁information	-10.5126
tt	-10.5138
▁Guihal	-10.5145
▁permettent	-10.5145
▁suivi	-10.5156
▁intégrale	-10.5169
▁postes	-10.5171
▁clients	-10.5176
▁circulation	-10.5181
1-17	-10.5195
▁tard	-10.5217
▁Leblanc	-10.5217
▁BNP	-10.5217
▁versé	-10.5244
▁ordonnée	-10.5247
▁justifiant	-10.5253
recevoir	-10.5278
▁adressée	-10.5289
▁quelle	-10.5291
▁loyer	-10.5294
▁financement	-10.53
▁refusant	-10.5302
▁identique	-10.5303
▁courant	-10.5347
▁situé	-10.5353
enfant	-10.536
▁ORejR	-10.5362
▁possible	-10.5362
▁produire	-10.5362
▁physique	-10.5371
▁exercé	-10.538
▁année	-10.5384
▁fonder	-10.5386
quatre	-10.5389
▁Ma	-10.5394
▁déboutant	-10.5399
▁dirigeant	-10.5409
▁demanderesses	-10.5409
▁publié	-10.541
Ile	-10.5411
▁Une	-10.5423
▁Est	-10.5424
▁motivation	-10.5435
▁renonciation	-10.5435
▁consentement	-10.5435
▁fils	-10.5437
▁/	-10.5458
auteur	-10.5462
qu	-10.5469
▁refuser	-10.5472
▁Insurance	-10.5472
▁prévoyant	-10.5472
▁totalité	-10.5476
expliquer	-10.5503
▁commise	-10.5504
▁Grignon	-10.5509
▁préliminaire	-10.5509
▁32	-10.5518
▁prévus	-10.552
▁critères	-10.5537
irrégularité	-10.5537
évaluation	-10.5537
▁Ouest	-10.5539
▁répond	-10.5539
▁tend	-10.5546
amiante	-10.5546
▁Dumoulin	-10.5546
▁précision	-10.5549
▁respectives	-10.5551
▁observer	-10.5553
ul	-10.5576
Bourdeau	-10.5584
▁subsidiairement	-10.5595
organisme	-10.5613
▁respecter	-10.5621
▁Paribas	-10.5621
▁cadres	-10.5634
▁Company	-10.5659
▁irrégulière	-10.5659
▁toujours	-10.5659
▁définitif	-10.5659
▁Texier	-10.5662
▁industrielle	-10.5666
▁2022.	-10.5679
▁JL	-10.569
▁impossibilité	-10.5696
▁Mich	-10.5698
▁internationale	-10.57
▁déloyale	-10.5701
▁déféré	-10.5718
▁complète	-10.5734
▁différents	-10.5755
RN	-10.5772
andis	-10.5773
èle	-10.5774
▁radiée	-10.5774
▁paie	-10.5785
▁marchandises	-10.58
os	-10.58
▁100	-10.5802
▁promesse	-10.5811
▁tenus	-10.5816
▁solidairement	-10.5818
▁secteur	-10.5818
▁caractérisé	-10.5818
▁relèvent	-10.5819
▁conduite	-10.5838
▁aient	-10.5847
▁copie	-10.5865
eaux	-10.5869
▁21-14.	-10.5887
▁souscription	-10.5888
▁communiquer	-10.5889
▁conducteur	-10.59
▁compétent	-10.5908
▁compétente	-10.5916
ec	-10.5923
aquin	-10.5926
▁saisis	-10.5931
▁contribution	-10.594
exposante	-10.5961
▁fondamentaux	-10.5965
▁sinistre	-10.5965
▁fonctionnement	-10.5965
▁1353	-10.5973
Brochier	-10.6004
▁estimé	-10.6004
▁père	-10.6006
▁distinct	-10.6024
▁formelle	-10.6024
▁ad	-10.6029
▁contenu	-10.6033
▁François	-10.6043
▁substance	-10.6043
▁répartition	-10.6043
▁devaient	-10.6043
▁morale	-10.6044
▁Del	-10.6047
▁[2],	-10.6048
▁20.	-10.6056
▁associé	-10.6058
▁certain	-10.6076
erreur	-10.6082
▁pied	-10.6082
▁route	-10.6082
▁Bull	-10.6082
▁1°	-10.6113
identité	-10.6116
▁Tech	-10.6121
▁Bouniol	-10.6121
▁médicaux	-10.6121
▁renvoyer	-10.6121
▁Boutet	-10.6121
▁affirmer	-10.6134
OUL	-10.6141
▁dépenses	-10.6143
▁saisir	-10.6145
▁honoraires	-10.6147
▁Vi	-10.615
▁Hourdeaux	-10.6161
▁visant	-10.6167
ry	-10.6168
▁Recevabilité	-10.6201
▁foncier	-10.6201
▁livraison	-10.6201
▁complément	-10.6203
▁comporte	-10.6207
▁imparti	-10.6211
▁différence	-10.6216
▁médicale	-10.6227
▁impossible	-10.624
▁sixième	-10.6241
adi	-10.6258
▁Bru	-10.6281
▁maintenues	-10.6287
▁étrangers	-10.6313
▁solidarité	-10.6321
▁Charte	-10.6321
▁accueillie	-10.6323
▁commandement	-10.6328
▁groupement	-10.6336
▁entrepris	-10.6343
▁puisqu	-10.6346
▁stipulations	-10.6349
Rhône	-10.6358
ensuit	-10.6361
extradition	-10.6361
Association	-10.6362
as	-10.6363
gère	-10.6363
-12	-10.6365
Meier	-10.6373
▁particulières	-10.6377
▁déposées	-10.6386
▁quel	-10.6387
applique	-10.6395
▁assureur	-10.6398
▁garanti	-10.6398
▁obtenu	-10.64
▁Echappé	-10.6401
ing	-10.6412
▁publication	-10.6419
▁disposait	-10.6442
▁bis	-10.6457
offre	-10.6457
▁aggravées	-10.6471
▁Lacquem	-10.6483
▁1009-3	-10.6483
emprunteur	-10.6483
AGS	-10.649
-20	-10.6495
▁tirée	-10.6507
▁BD	-10.651
▁divers	-10.6521
▁complicité	-10.6524
▁réinscrite	-10.6524
VAL	-10.6534
▁tentative	-10.6541
affaires	-10.6544
▁familiale	-10.6548
▁neuf	-10.6555
tion	-10.6561
▁manifestant	-10.6565
▁partage	-10.6567
▁permettai	-10.6579
ique	-10.658
▁CGEA	-10.6582
▁45	-10.659
▁exercer	-10.6592
▁vis	-10.6597
um	-10.6601
▁baux	-10.661
▁représentants	-10.6627
lieu	-10.6641
▁CF	-10.6644
▁Balat	-10.6648
▁solliciter	-10.6649
▁Chambre	-10.6654
▁exclu	-10.6654
▁utilement	-10.6658
ro	-10.6662
exposant	-10.6675
▁émis	-10.6677
▁Caen	-10.6682
▁manifeste	-10.6693
▁abusive	-10.6709
▁concernés	-10.6727
▁raisonnable	-10.6731
interprétation	-10.6732
▁portait	-10.6733
entre	-10.6754
q	-10.6761
▁correspond	-10.6763
▁2021.	-10.6771
▁exercice	-10.6772
GLO	-10.6774
▁rembourser	-10.6774
▁rendre	-10.6778
▁communes	-10.6781
▁comporter	-10.6795
ement	-10.6803
nnie	-10.6811
▁réalisée	-10.6813
▁2017.	-10.6815
▁réintégration	-10.6816
utilisation	-10.6816
▁résulter	-10.6818
▁HU	-10.6819
▁subsidiaire	-10.6821
ac	-10.6825
▁inter	-10.6825
▁précisément	-10.6825
▁hebdomadaire	-10.6836
▁assurer	-10.6839
▁acquéreurs	-10.6859
▁annuelle	-10.6861
▁écrite	-10.6862
▁court	-10.6875
▁chiffre	-10.688
▁627	-10.6881
▁contractuelles	-10.6886
▁manque	-10.6889
▁Au	-10.6899
▁PREMIER	-10.69
▁enquêteurs	-10.6901
Versailles	-10.6902
▁Dijon	-10.691
▁accepté	-10.6914
▁enquête	-10.6932
▁exercée	-10.694
▁enrôlée	-10.6943
▁borne	-10.6943
▁transmission	-10.6943
▁présumer	-10.6943
▁dépourvu	-10.6943
▁engagements	-10.696
▁vice	-10.6965
▁formulé	-10.6969
▁passage	-10.6984
▁détournement	-10.6986
▁jurisprudence	-10.6986
▁produisait	-10.6986
▁conservation	-10.6986
Côte	-10.6989
▁autorisé	-10.699
▁seront	-10.699
▁attestation	-10.6991
▁1103	-10.6995
▁acquise	-10.6996
duc	-10.6997
▁relations	-10.7027
ubac	-10.7029
emporte	-10.7032
▁renouvellement	-10.7033
▁Ce	-10.7034
▁départemental	-10.7039
▁volontairement	-10.704
▁33	-10.7043
▁étrangère	-10.7052
▁justifiée	-10.7058
▁administratif	-10.7059
achat	-10.7072
▁supérieur	-10.7083
▁3].	-10.7086
▁supplémentaire	-10.7096
▁dé	-10.7096
État	-10.7099
▁annuel	-10.7113
▁présentation	-10.7113
▁ordonnant	-10.7116
▁séjour	-10.7116
▁forcée	-10.7118
▁constatait	-10.7125
éléments	-10.7139
▁car	-10.7144
▁transaction	-10.7151
ré	-10.7155
▁meurtre	-10.716
▁rente	-10.716
▁examiner	-10.716
▁opération	-10.7171
▁Chambéry	-10.7174
▁démontré	-10.7183
▁global	-10.7187
▁primes	-10.7199
▁sérieux	-10.7204
▁mauvaise	-10.7207
▁conduit	-10.7216
▁horaire	-10.7218
▁paiements	-10.7222
appliquer	-10.7229
▁3)	-10.7231
▁apprécier	-10.724
our	-10.7247
CPAM	-10.7252
▁[5]	-10.7263
mment	-10.7267
▁ouvert	-10.7268
1°/	-10.7273
▁personnellement	-10.7277
▁décédée	-10.7277
▁11],	-10.7279
▁économiques	-10.728
▁immeuble	-10.7282
▁élections	-10.7292
▁mineurs	-10.7307
▁recevables	-10.7322
▁soutenu	-10.7326
▁départementale	-10.7333
▁mainlevée	-10.7336
▁ministre	-10.7336
▁examinée	-10.7339
▁prévenus	-10.7339
▁litigieuses	-10.7348
id	-10.736
▁entretien	-10.7361
▁réunion	-10.7364
▁soumises	-10.7372
2°/	-10.7381
▁indiquant	-10.7381
▁convocation	-10.7381
interruption	-10.7381
▁Déclaration	-10.7381
loz	-10.7382
▁Poulet	-10.7383
commissaire	-10.7387
▁fixées	-10.7388
▁quelque	-10.7396
▁syndical	-10.741
▁reconnu	-10.7418
▁bénéficié	-10.7427
épargne	-10.7432
▁confié	-10.7433
▁couvert	-10.7437
ionel	-10.7439
▁techniques	-10.7444
▁assurée	-10.7453
▁communiqués	-10.7461
▁2015.	-10.7466
▁MARTIN	-10.7471
▁Bouches	-10.7471
Terre	-10.7472
▁autorité	-10.7475
▁réaliser	-10.7475
▁invité	-10.7482
▁reproche	-10.7493
▁expert	-10.7512
▁Richard	-10.7516
▁Tinchon	-10.7516
▁double	-10.7516
▁confiance	-10.7516
▁validité	-10.7516
▁Brun	-10.7518
▁508	-10.7519
▁mentionné	-10.7525
▁agissements	-10.7529
▁38	-10.7532
▁Bell	-10.7542
aisse	-10.7551
▁prononce	-10.7558
Odent	-10.7561
▁David	-10.7561
▁maritime	-10.7561
▁Trichet	-10.7561
▁face	-10.7562
laise	-10.7566
▁Pau	-10.7571
▁facture	-10.7574
ia	-10.7586
▁retour	-10.76
6°/	-10.7602
▁probatoire	-10.7607
▁effectuée	-10.762
ch	-10.7632
▁interne	-10.7633
▁particulière	-10.7639
▁effectués	-10.7639
▁opposition	-10.7642
▁besoins	-10.7646
abstenant	-10.7653
▁Delvolvé	-10.7653
▁personnalité	-10.7653
▁76	-10.7653
envoi	-10.7661
▁titres	-10.7666
▁contravention	-10.7681
▁constatation	-10.7684
▁Group	-10.7688
▁411-3,	-10.7696
eux	-10.7697
▁Yves	-10.7699
▁60	-10.77
▁naissance	-10.7703
astreinte	-10.7708
▁conformité	-10.7717
▁sanctions	-10.7717
▁puisque	-10.7722
agrément	-10.7754
▁considérée	-10.7757
▁réunis	-10.7759
▁payé	-10.7761
▁établis	-10.7772
▁langue	-10.7774
ière	-10.7796
▁34	-10.7797
▁aggravé	-10.7803
▁déboutée	-10.7816
▁2003	-10.7818
▁limité	-10.782
▁inscription	-10.783
▁confirmant	-10.7839
▁606	-10.784
▁poursuivie	-10.7845
agir	-10.7849
▁65	-10.7855
▁Trésor	-10.7874
▁Invest	-10.7879
▁entraîné	-10.7886
▁restituer	-10.7886
▁compensation	-10.7886
▁Laba	-10.7891
ale	-10.7899
▁pure	-10.7925
▁Lepri	-10.7933
incompétence	-10.7933
▁autonome	-10.7936
XE	-10.794
expression	-10.7949
TS	-10.7964
▁bancaire	-10.7964
▁rendus	-10.7978
▁Polynésie	-10.7981
▁construire	-10.7983
opposition	-10.7992
▁différentes	-10.8
▁505	-10.8013
▁inopérants	-10.8016
▁mineur	-10.8021
▁divorce	-10.8028
'«	-10.8029
▁300	-10.8033
▁Metz	-10.8042
▁cotisant	-10.806
di	-10.8062
lange	-10.8069
tre	-10.8071
▁cela	-10.8074
able	-10.8077
▁mensuelle	-10.8078
▁lots	-10.8084
▁placée	-10.8086
▁6]	-10.8102
▁exclusive	-10.8114
▁culpabilité	-10.8124
▁seize	-10.8124
▁architectes	-10.8124
-17	-10.8132
▁supérieure	-10.8137
▁Reims	-10.8137
Crim	-10.8137
▁saisies	-10.8143
▁Seine	-10.8145
ibi	-10.8148
▁506	-10.8149
▁FI	-10.8156
▁3171-	-10.8165
▁démontre	-10.8166
▁coefficient	-10.8172
▁régularisation	-10.8172
▁seraient	-10.8175
▁2°	-10.8189
faisaient	-10.8197
▁désistée	-10.8203
▁conventions	-10.8205
ma	-10.8219
▁prévoyait	-10.8221
▁Croc	-10.8221
▁autorisée	-10.8222
ay	-10.8228
▁début	-10.8235
▁Nicola	-10.8239
▁CIC	-10.8239
▁fautes	-10.8241
▁507	-10.8247
▁spécial	-10.825
▁maire	-10.8258
authe	-10.8267
▁Chevallier	-10.8269
▁Maître	-10.8269
▁dehors	-10.8269
▁manqué	-10.8269
▁1991	-10.8276
▁premières	-10.8277
che	-10.8283
▁analyse	-10.8292
1-1	-10.8305
▁r	-10.8308
▁prouver	-10.8321
▁individuelle	-10.8331
▁dossiers	-10.8337
▁citoyen	-10.8367
Christophe	-10.8368
▁Claire	-10.8368
▁Haas	-10.8368
▁Salomon	-10.8368
▁113-1	-10.8372
actes	-10.838
▁37	-10.8389
▁volontaire	-10.839
mettant	-10.8392
▁zone	-10.8417
▁vise	-10.8418
▁électroniques	-10.8443
am	-10.8447
▁précédemment	-10.8467
▁Capron	-10.8467
▁mentionnant	-10.8468
▁valablement	-10.8476
▁permanent	-10.8481
▁entendu	-10.8486
ort	-10.8488
▁Guerr	-10.8491
▁offre	-10.8504
uvre	-10.8509
▁Sevaux	-10.8517
▁destinataire	-10.8517
▁suppose	-10.8528
annexe	-10.8534
▁908	-10.8535
ance	-10.8544
▁connu	-10.855
ncou	-10.8551
▁variable	-10.8553
▁initial	-10.8556
▁2001	-10.8566
▁commerciaux	-10.8567
▁infirmatif	-10.8567
▁comparution	-10.8567
▁rien	-10.8568
2.1	-10.8571
▁respecté	-10.8572
▁locale	-10.8578
▁détail	-10.8585
▁h	-10.8598
▁égale	-10.8602
▁financières	-10.8602
▁politique	-10.8604
▁financiers	-10.8604
▁dirigeants	-10.8604
▁2020)	-10.8613
▁ampliatif	-10.8618
▁combinaison	-10.8618
▁destination	-10.8618
▁indispensable	-10.8618
▁loyauté	-10.8618
▁recel	-10.8618
▁21-15.	-10.8618
▁décider	-10.8625
étranger	-10.8636
▁intention	-10.864
▁excéd	-10.8644
▁simplement	-10.8645
▁Etat	-10.8657
▁39	-10.8665
▁Se	-10.8667
▁auteur	-10.8668
▁chômage	-10.8668
▁fixant	-10.8668
▁gérer	-10.8668
▁modifier	-10.867
▁AF	-10.8682
indu	-10.8691
▁née	-10.87
ex	-10.8705
▁pourrait	-10.8717
▁suppression	-10.8719
Autorité	-10.8719
▁appréciation	-10.8721
▁autant	-10.8724
▁publicité	-10.8724
disproportionnée	-10.873
3°/	-10.874
▁délits	-10.8743
▁omission	-10.8748
▁intérieur	-10.8752
▁repris	-10.8752
▁réclamation	-10.8757
▁Haute	-10.8761
▁interprétation	-10.877
▁Finance	-10.8771
▁création	-10.8771
▁Mathonnet	-10.8773
étend	-10.8779
▁Hôtel	-10.8786
▁contrôler	-10.8796
▁définitivement	-10.8799
▁rémunérations	-10.8807
assurances	-10.8808
3.4	-10.8808
dire	-10.8812
▁faveur	-10.8822
▁notion	-10.8822
▁Rouch	-10.8822
▁propriétaires	-10.8824
li	-10.8824
aval	-10.8835
▁504	-10.8839
▁gains	-10.8839
attestation	-10.8843
avenant	-10.8844
▁domaine	-10.8861
▁imputable	-10.8862
▁ZB	-10.8871
urbanisme	-10.8874
▁2016-1088	-10.8874
▁Lanouvelle	-10.8874
▁personnelles	-10.8879
▁insuffisance	-10.8882
▁Mazi	-10.8886
▁42	-10.8891
ons	-10.8891
▁matériels	-10.8893
▁prêts	-10.8894
conclusions	-10.8895
ainsi	-10.8895
▁200	-10.891
▁Gr	-10.8911
▁pénalités	-10.8913
▁filiale	-10.8914
▁initiale	-10.8924
▁Vigand	-10.8926
▁consolidation	-10.8926
▁constituant	-10.8926
▁promotion	-10.8926
▁Papeete	-10.8936
asch	-10.8944
quelles	-10.895
▁utile	-10.8954
▁postérieure	-10.8959
▁vendu	-10.8978
Homme	-10.8978
ayro	-10.8979
▁MF	-10.8988
▁visées	-10.899
ig	-10.9003
▁réalisées	-10.9009
▁relevait	-10.9032
▁Bou	-10.9036
2-12	-10.9045
imposition	-10.9053
llard	-10.9062
▁2002	-10.9066
▁consommateur	-10.9073
▁organismes	-10.9077
▁Vend	-10.9083
▁Ortscheidt	-10.9084
▁coopérative	-10.9084
▁poursuivre	-10.9084
▁prétendument	-10.9093
▁partant	-10.9096
▁AGS	-10.91
▁ca	-10.9104
5°/	-10.9111
▁rédigée	-10.9122
▁Ces	-10.9126
▁revenu	-10.9127
▁personnels	-10.9131
▁Turb	-10.9137
▁authentique	-10.9137
▁malgr	-10.9137
▁reprendre	-10.9138
importance	-10.9138
st	-10.9145
▁affecté	-10.9147
▁frappé	-10.915
▁Bari	-10.9156
▁déposée	-10.9158
▁réglementaires	-10.9179
▁précisé	-10.9187
▁mode	-10.9188
▁commises	-10.919
Angers	-10.9191
▁soumettre	-10.9191
▁Altran	-10.9191
▁fondées	-10.9193
▁Brou	-10.9194
3.3	-10.9204
▁21.	-10.9208
▁demandait	-10.9244
▁peser	-10.9244
▁Marlange	-10.9245
one	-10.9247
▁réserves	-10.9249
▁intervention	-10.9252
▁réquisitions	-10.9266
▁opposable	-10.9288
▁Prad	-10.9298
verbaux	-10.9298
▁Burgade	-10.9298
▁conduire	-10.9298
▁nouveaux	-10.9301
udit	-10.9313
▁amende	-10.9316
assurée	-10.9319
▁Sot	-10.9321
rez	-10.9327
▁conservatoire	-10.9343
▁annulée	-10.9346
▁admis	-10.9346
▁interdit	-10.935
▁Hedios	-10.9353
▁traduction	-10.9353
▁donation	-10.9353
analyse	-10.9354
▁3°)	-10.9368
▁né	-10.9368
▁recevoir	-10.9369
iste	-10.9372
▁report	-10.9373
▁visé	-10.9383
▁509	-10.9386
▁chantier	-10.9398
▁courriel	-10.9398
▁barreau	-10.9407
argent	-10.9407
▁causalité	-10.9408
▁commencé	-10.9408
iv	-10.9409
▁visée	-10.9415
▁initialement	-10.9421
▁503	-10.944
▁industriel	-10.9446
EU	-10.945
3-60	-10.945
▁reste	-10.9452
▁liés	-10.9453
▁International	-10.9462
▁consistant	-10.9462
▁Ott	-10.9463
▁Fédération	-10.9465
zes	-10.9474
▁incidence	-10.9475
▁48	-10.948
▁Tra	-10.9485
▁conseils	-10.9488
▁afférentes	-10.95
▁Ca	-10.9507
▁auxquel	-10.9511
▁motiver	-10.9518
▁reconventionnel	-10.9518
▁terrorisme	-10.9518
▁désormais	-10.9523
▁appels	-10.9523
▁Gout	-10.9523
▁changement	-10.9524
▁1315	-10.9533
▁1999	-10.9534
isation	-10.9535
▁subis	-10.9546
▁donnée	-10.955
ili	-10.9553
▁justifiés	-10.9559
▁tierce	-10.9573
entrepreneur	-10.9573
obsta	-10.9575
▁demandée	-10.958
▁opposé	-10.9594
▁exécuté	-10.9602
▁allégué	-10.9602
▁inopérante	-10.9603
▁exclure	-10.9604
▁constructeur	-10.9621
▁disproportionné	-10.9622
associé	-10.9628
▁débitrice	-10.9629
▁monétaire	-10.9629
▁définition	-10.963
▁al	-10.963
▁relaxé	-10.9631
▁Enfin	-10.9635
▁Bastia	-10.9642
▁viol	-10.9652
hypothèse	-10.9658
▁annuler	-10.966
hl	-10.9674
▁famille	-10.9677
▁diligence	-10.9678
▁conformes	-10.9679
▁57	-10.9684
▁Chauvin	-10.9685
▁censure	-10.9685
▁servitude	-10.9685
▁fourniture	-10.9687
▁Gan	-10.9687
▁écartant	-10.9687
ron	-10.9689
▁référés	-10.9693
▁constant	-10.9693
▁hoc	-10.9696
oiseau	-10.9705
se	-10.9712
▁512	-10.9712
agit	-10.9714
▁requis	-10.9736
▁12],	-10.9741
imputabilité	-10.9742
éviction	-10.9742
▁proximité	-10.9742
▁forclusion	-10.9742
▁capitalisation	-10.9742
traitant	-10.9753
▁Basse	-10.9757
▁type	-10.976
▁détenu	-10.9773
ag	-10.9777
▁contributions	-10.9779
▁dettes	-10.9784
▁vérification	-10.9791
▁déduction	-10.9799
▁revanche	-10.9799
amarre	-10.9799
gy	-10.98
▁SNCF	-10.9806
▁Normandie	-10.981
▁contractuel	-10.9811
▁SE	-10.9815
annuler	-10.9829
▁fiscal	-10.9837
▁2005,	-10.9841
▁irrévocable	-10.9843
▁raisons	-10.9848
▁2004,	-10.9848
▁passé	-10.9852
▁réglementation	-10.9856
▁décennale	-10.9859
▁va	-10.986
▁Al	-10.986
▁fournir	-10.9861
▁1221-1	-10.9865
▁1789	-10.9865
▁immédiatement	-10.9866
▁70	-10.9869
▁7]	-10.9871
▁immédiat	-10.9876
▁pôle	-10.9884
▁AO	-10.9894
▁150	-10.9896
▁Philipp	-10.9899
allocation	-10.9908
infractions	-10.991
▁conclus	-10.9914
UE	-10.9915
▁inaptitude	-10.9917
▁effectuer	-10.9922
dé	-10.9922
▁2224	-10.9927
▁liée	-10.9933
▁réel	-10.9948
▁présentait	-10.9952
▁Massignon	-10.9971
▁légaux	-10.9971
▁démontrait	-10.9971
apport	-10.9976
▁Groupama	-10.9982
▁recherché	-10.9992
intention	-11.0004
ési	-11.0005
▁versés	-11.0016
▁mandataires	-11.0016
animation	-11.0029
▁hospitalier	-11.0029
▁lumière	-11.0029
Apaire	-11.0029
▁Munier	-11.003
▁Anne	-11.003
▁fiche	-11.0031
▁107	-11.0034
▁carte	-11.004
▁liées	-11.004
ichon	-11.0044
▁[13]	-11.0047
▁HA	-11.0048
agence	-11.0063
▁(5	-11.0075
▁favorable	-11.0082
▁inopposable	-11.0082
▁mentionnées	-11.0083
tial	-11.0083
▁rompu	-11.0088
▁poursuivis	-11.0091
▁IV	-11.0097
ca	-11.0099
vie	-11.0099
▁bailleurs	-11.0109
▁Pro	-11.0117
▁énoncer	-11.0119
▁Etablissement	-11.0129
investissement	-11.0133
▁indemnitaire	-11.0141
ire	-11.0144
exigibilité	-11.0146
▁suffit	-11.0146
▁maîtrise	-11.0146
jean	-11.0147
▁investigations	-11.0147
▁anticipée	-11.015
▁démission	-11.0156
▁majeure	-11.0158
▁missions	-11.0166
▁Or	-11.0171
▁disant	-11.0184
▁pro	-11.0187
2-2	-11.0189
▁exploitation	-11.0201
ve	-11.0202
▁compagnie	-11.0206
▁percevoir	-11.0206
▁pêche	-11.0206
▁rapporter	-11.0206
▁finalité	-11.0206
▁position	-11.0214
▁exerce	-11.0235
▁constitutifs	-11.0249
ol	-11.0255
utilité	-11.0265
▁Financière	-11.0265
▁comparu	-11.0265
▁Bien	-11.027
▁éventuellement	-11.0273
né	-11.0284
électricité	-11.0301
▁apparaît	-11.0304
▁indépendants	-11.0304
▁Ile	-11.0306
▁accusation	-11.0319
▁registre	-11.0321
▁pratiques	-11.0321
▁mur	-11.0322
▁comportant	-11.0325
▁géolocalisation	-11.0325
▁inexcusable	-11.0325
▁Verni	-11.0325
▁gestionnaire	-11.0325
▁Bret	-11.0334
nant	-11.0336
▁souveraine	-11.0336
▁indu	-11.0337
com	-11.0344
▁CE	-11.0362
vis	-11.0363
▁lettres	-11.0363
▁taxe	-11.0382
▁prétention	-11.0382
▁ordre	-11.0383
▁précitées	-11.0385
▁mentionnait	-11.0385
▁ressortir	-11.0388
▁1971	-11.0394
▁délivrée	-11.0408
▁exécutées	-11.0419
éviter	-11.0421
▁immobiliers	-11.0423
informer	-11.0427
▁pré	-11.0445
obtention	-11.0446
▁Darbois	-11.0446
▁minimum	-11.0446
ONCTION	-11.0446
▁degré	-11.0446
▁additionnel	-11.0446
▁procédant	-11.0447
▁sol	-11.0452
▁conciliation	-11.0457
▁DB	-11.0458
▁existe	-11.046
▁administratives	-11.0462
▁doute	-11.0462
▁Go	-11.0462
▁Laul	-11.0466
▁investissement	-11.0468
▁conclut	-11.0468
enseigne	-11.0472
▁compétences	-11.0478
▁majorations	-11.0495
▁danger	-11.0505
économie	-11.0507
indemnités	-11.0514
▁utiles	-11.052
▁accès	-11.0524
▁nulle	-11.0532
▁Bourges	-11.0541
▁syndicats	-11.0543
▁brut	-11.0543
▁physiques	-11.0553
▁particuliers	-11.0556
▁3°	-11.0564
▁fournisseur	-11.0567
Davost	-11.0568
▁club	-11.0568
▁fût	-11.0568
proportionnalité	-11.0572
▁1970	-11.0579
▁pénales	-11.058
▁Besançon	-11.0581
▁cédé	-11.0583
impose	-11.059
apprécie	-11.0592
▁vices	-11.0598
▁requérant	-11.0611
tet	-11.0614
mmen	-11.0614
SA	-11.0623
▁inférieure	-11.063
▁compensatoire	-11.063
▁Generali	-11.063
▁proportionnée	-11.0632
▁soulevée	-11.0641
▁Riom	-11.0645
▁exceptionnelle	-11.0647
▁36	-11.0649
▁13],	-11.0658
▁mensuel	-11.0665
ver	-11.0681
▁survenu	-11.0689
▁IRRECEVABLE	-11.0692
▁détermination	-11.0695
▁Méditerranée	-11.0695
▁1998	-11.0702
▁expresse	-11.0708
iff	-11.0712
▁formulée	-11.0713
▁954	-11.0716
▁mentionnés	-11.0718
clusion	-11.0726
▁central	-11.0736
▁distincte	-11.0739
▁assurance	-11.0754
▁BTSG	-11.0755
▁trésorerie	-11.0755
▁Cass	-11.0755
▁crimes	-11.0756
illon	-11.0758
▁note	-11.0761
▁indique	-11.0772
▁Ch	-11.0773
ey	-11.0775
▁laissant	-11.0778
▁[5],	-11.0797
▁reproché	-11.08
▁accordé	-11.0809
éri	-11.0812
▁redevable	-11.0816
▁communauté	-11.0817
▁constituaient	-11.0817
▁contestait	-11.0817
▁Petit	-11.0817
▁perçu	-11.0821
▁crime	-11.0822
▁appelé	-11.0826
▁75	-11.083
▁précisant	-11.0837
▁décharge	-11.0868
évolution	-11.0869
▁Flore	-11.0878
octroi	-11.0881
▁nuit	-11.0881
▁restant	-11.0882
ert	-11.089
▁vers	-11.0895
▁dénonciation	-11.09
harmo	-11.0912
▁pourvoir	-11.0932
▁avenant	-11.0936
▁réputée	-11.0941
▁2014.	-11.0944
▁Finaréa	-11.0944
▁utilisatrice	-11.0944
▁Jehannin	-11.0944
▁1996	-11.0956
▁appréciations	-11.0962
oirre	-11.0972
▁atteint	-11.0976
▁renseignements	-11.0978
inspecteur	-11.0988
▁identiques	-11.0993
▁main	-11.0996
▁con	-11.1007
Desaché	-11.1009
▁manifestation	-11.1009
▁parole	-11.101
▁indépenda	-11.1013
▁indemnitaires	-11.1014
▁posée	-11.1014
▁Entreprise	-11.102
▁suffisante	-11.1021
▁rapportant	-11.1027
soudaine	-11.1028
études	-11.1029
▁cumul	-11.1051
▁soulevé	-11.1061
▁assignée	-11.1066
enne	-11.1066
▁RENVOI	-11.1068
bert	-11.1071
▁MJ	-11.1072
▁sûreté	-11.1073
▁Lorraine	-11.1073
▁conviction	-11.1073
▁trouvait	-11.1073
Lemoine	-11.1073
▁abusif	-11.1073
▁Ne	-11.1073
▁origine	-11.1079
▁rapportée	-11.1091
▁80	-11.11
▁constituée	-11.1117
ième	-11.112
tu	-11.1134
▁priver	-11.1135
▁déficit	-11.1137
▁Vexliard	-11.1138
▁brevet	-11.1138
▁comptabilité	-11.1138
▁produisant	-11.1138
▁révocation	-11.1138
riot	-11.1139
▁1231-1	-11.1141
▁QPC	-11.1141
▁relevée	-11.1143
▁comptables	-11.1145
▁surendettement	-11.1146
▁Transports	-11.1148
▁contrefaçon	-11.1156
▁Sey	-11.1159
intéressée	-11.119
▁accords	-11.1192
▁demandent	-11.1193
CS	-11.1193
▁torts	-11.1194
▁divorcé	-11.1203
▁subordination	-11.1203
▁Hair	-11.1204
▁formalité	-11.1205
▁occupé	-11.1205
2.3	-11.1215
▁journalières	-11.1216
▁Pons	-11.1218
▁43	-11.1218
▁cadastrée	-11.122
▁Leca	-11.1225
▁attestations	-11.1236
tra	-11.1244
▁invoquer	-11.1246
Est	-11.1267
▁Briard	-11.1269
▁clientèle	-11.127
▁rattache	-11.1272
▁CFDT	-11.1276
▁Bois	-11.1278
▁créanciers	-11.1281
lo	-11.1289
▁rubriques	-11.13
▁figure	-11.1303
▁exacte	-11.131
officier	-11.1318
▁solidaire	-11.1325
ONNE	-11.1335
▁Bouzidi	-11.1335
▁périmètre	-11.1335
▁dissimulation	-11.1335
ques	-11.1336
▁septième	-11.1336
▁réunies	-11.1336
▁arme	-11.1338
▁nullement	-11.135
▁SMABTP	-11.136
▁conclue	-11.1367
▁400	-11.1373
urs	-11.1374
▁607	-11.1382
▁reconnue	-11.1384
achèvement	-11.1385
▁précédent	-11.1386
▁caractérisée	-11.1388
▁Bouhanna	-11.1402
▁Fontaine	-11.1402
▁contexte	-11.1402
▁privant	-11.1403
edd	-11.1405
▁solution	-11.1405
▁4),	-11.1411
▁proposés	-11.1415
▁Etats	-11.1422
▁dite	-11.1425
▁bancaires	-11.1425
▁antérieures	-11.1427
▁EDF	-11.1428
▁Bo	-11.1445
esist	-11.1461
▁Côte	-11.1467
▁Segu	-11.1468
▁Farrenq	-11.1469
▁Rouvière	-11.1469
ème	-11.147
▁ligne	-11.1472
▁sanitaire	-11.1474
ans	-11.148
▁alléguée	-11.1491
▁mal	-11.1501
▁modifiée	-11.1503
▁v	-11.1504
▁21-20.0	-11.1505
▁page	-11.1507
▁fournis	-11.1513
extension	-11.152
▁déclarées	-11.1523
io	-11.1523
▁Wy	-11.1524
▁5),	-11.1533
▁Nouvelle	-11.1537
▁mixte	-11.1537
▁titrisation	-11.1537
uffre	-11.1537
▁révision	-11.1537
hébergement	-11.1537
▁mort	-11.1537
▁impropre	-11.1541
▁Com	-11.1541
▁manifesté	-11.1548
▁réduit	-11.1563
▁distincts	-11.158
▁investi	-11.1583
▁608	-11.1586
ino	-11.1588
incidence	-11.1589
▁devis	-11.159
▁valable	-11.1592
▁pratique	-11.1594
▁prend	-11.1603
▁GmbH	-11.1605
▁contagieuse	-11.1605
▁tarification	-11.1605
▁Joly	-11.1605
▁Itta	-11.1605
▁mariage	-11.1605
▁242-1	-11.1607
Verg	-11.1608
▁sexuelle	-11.161
▁1985	-11.1619
▁agent	-11.1625
▁52	-11.1625
▁2021)	-11.1629
2.4	-11.163
▁habituelle	-11.1633
▁signée	-11.1637
▁imposé	-11.1655
▁semaines	-11.1659
▁prive	-11.1668
▁Delt	-11.1669
▁législateur	-11.1673
▁mutation	-11.1673
▁déplacement	-11.1678
▁2020.	-11.168
honoraires	-11.1696
▁essentielles	-11.1696
▁and	-11.1697
▁infirmé	-11.1699
▁relevés	-11.1704
▁inscrite	-11.1706
▁41	-11.171
▁rectifié	-11.1711
ég	-11.1715
▁annexe	-11.1726
em	-11.1733
▁44	-11.1734
▁Midi	-11.1742
▁intellectuelle	-11.1742
po	-11.1745
▁mentionner	-11.1749
▁juridiques	-11.175
Agen	-11.1752
▁françaises	-11.1761
▁cautions	-11.177
▁indirects	-11.1783
▁22.	-11.1784
▁définies	-11.179
▁recherches	-11.1804
aire	-11.1807
▁existant	-11.1809
▁conjoint	-11.1811
▁CHAUVIN	-11.1812
▁Distribution	-11.1812
▁composition	-11.1812
▁foncière	-11.1812
▁inférieur	-11.1812
▁capacité	-11.1817
▁parents	-11.1818
▁indemnisé	-11.1832
ches	-11.1836
▁formule	-11.1842
▁escroquerie	-11.1846
cf	-11.1861
ancien	-11.1866
comptable	-11.1868
▁Po	-11.1868
▁établit	-11.1879
▁CSE	-11.188
▁dépourvue	-11.1881
▁PARTIELLE	-11.1882
▁Burg	-11.1882
▁démolition	-11.1882
▁prévoient	-11.1882
▁indiquait	-11.1882
accomplissement	-11.1885
▁sollicitée	-11.1886
▁vous	-11.1887
héritière	-11.1887
▁frauduleuse	-11.1888
▁exigible	-11.1888
22-20	-11.1894
▁travailleur	-11.1895
▁Gall	-11.1901
▁Dar	-11.1903
▁prévenue	-11.1911
lé	-11.1913
▁510	-11.1913
▁créé	-11.1914
▁63	-11.1914
▁former	-11.1916
▁immédiate	-11.1917
▁normale	-11.192
▁612	-11.1923
▁estime	-11.1926
▁anciens	-11.1929
▁Euro	-11.193
▁destinés	-11.1937
▁avantages	-11.1941
▁assure	-11.1941
avance	-11.1952
▁posées	-11.1953
▁délictuelle	-11.1956
▁bornée	-11.1956
▁couverture	-11.1958
▁AG	-11.1961
avantage	-11.1964
anac	-11.1965
fr	-11.1967
▁fille	-11.1967
▁55	-11.1972
▁graves	-11.1976
▁retenus	-11.1979
▁1355	-11.198
▁présentant	-11.1989
▁HP	-11.1991
▁objets	-11.2011
▁antérieur	-11.2011
▁concerné	-11.2013
▁21-13	-11.2015
▁assortie	-11.2018
▁franchise	-11.2022
▁photo	-11.2023
▁Adida	-11.2023
▁Jonction	-11.2023
▁stade	-11.2023
▁pose	-11.2024
▁permettaient	-11.2026
▁commande	-11.2028
▁exclusif	-11.203
▁eaux	-11.2036
▁prétendue	-11.2042
▁choisi	-11.2045
▁irrégularité	-11.2046
▁aggravés	-11.2049
▁exploitant	-11.205
rie	-11.2072
-[	-11.2074
arabe	-11.2082
▁morales	-11.2086
▁découlant	-11.2094
▁moindre	-11.2094
▁conscience	-11.2094
▁bénéficiaires	-11.2095
▁prêteur	-11.2102
▁suivantes	-11.211
▁communications	-11.2114
▁surabondants	-11.2119
▁désisté	-11.2121
▁desquelles	-11.2131
▁commissions	-11.2138
▁égal	-11.2146
▁évalué	-11.2151
▁ville	-11.2152
▁fonctionnel	-11.2157
ph	-11.2159
▁preuves	-11.216
▁49	-11.2165
PI	-11.2165
▁Boullez	-11.2166
▁moitié	-11.2166
▁donne	-11.217
▁Ni	-11.2173
dis	-11.2178
▁In	-11.2185
▁clairs	-11.219
▁port	-11.2198
▁exception	-11.2205
▁perçues	-11.2209
pa	-11.2223
▁précitée	-11.2224
▁utilisé	-11.2229
▁utilisés	-11.223
▁proportion	-11.2234
▁finance	-11.2234
Barri	-11.2239
▁Baraké	-11.2239
▁Ricard	-11.2239
▁trafic	-11.2239
▁Aldi	-11.2241
▁Sa	-11.2242
▁marchés	-11.2253
▁continue	-11.2262
▁ferme	-11.2275
▁conventionnel	-11.2285
▁HT	-11.2291
▁audition	-11.2308
UNEDIC	-11.2312
arbitrage	-11.2312
▁fabricant	-11.2312
▁carrière	-11.2312
▁emprunteurs	-11.2313
chiro	-11.2313
▁catégories	-11.2317
▁violant	-11.2318
▁clairement	-11.2321
▁Lamy	-11.2326
▁filiales	-11.2328
1-3	-11.2335
▁centrale	-11.2339
▁Alt	-11.2346
▁considérés	-11.2356
▁aménagement	-11.2361
objectif	-11.2385
▁Dji	-11.2385
▁Hannotin	-11.2385
▁connexion	-11.2385
▁notice	-11.2385
▁presse	-11.2385
anxiété	-11.2385
▁délivrer	-11.2388
▁inversé	-11.2388
▁oralement	-11.2388
▁vacances	-11.2389
▁technologies	-11.239
▁visa	-11.2397
▁condamnés	-11.2406
▁habitat	-11.2412
▁56	-11.2418
▁mentionnée	-11.2422
▁Bouti	-11.2439
▁agricoles	-11.2445
▁juste	-11.2447
accusé	-11.245
▁entraînera	-11.2455
extinction	-11.2459
▁SECOND	-11.2459
▁confirmation	-11.246
▁tient	-11.246
▁liant	-11.246
▁répondu	-11.2461
▁régler	-11.2461
▁rattachent	-11.2462
▁taxes	-11.2464
Uni	-11.2466
▁2)	-11.2467
infirmation	-11.2467
▁région	-11.2468
▁chauffeur	-11.2469
▁chèque	-11.247
dits	-11.247
▁CC	-11.2487
▁détenue	-11.249
▁éman	-11.2491
j	-11.2491
▁BV	-11.2519
hygiène	-11.2534
identification	-11.2534
▁Latreille	-11.2534
▁estimant	-11.2534
▁tort	-11.254
▁Sommé	-11.2541
▁discussion	-11.2544
▁témoin	-11.2545
op	-11.2546
▁entaché	-11.2552
▁910	-11.2552
ebert	-11.2554
▁609	-11.256
oda	-11.2561
▁Fort	-11.2587
▁69	-11.2589
▁signifié	-11.2592
effectuer	-11.2606
▁provoqué	-11.2608
▁Ascen	-11.2609
▁blessures	-11.2609
▁comportait	-11.2609
▁destruction	-11.2609
▁perquisition	-11.2609
▁pénitentiaire	-11.2609
Guillou	-11.2613
▁adressés	-11.2614
▁établissant	-11.2616
▁2017-138	-11.2617
▁exerçait	-11.2622
▁organisme	-11.2637
▁2019.	-11.2644
▁faites	-11.2661
▁automobiles	-11.267
lis	-11.2672
▁invit	-11.2674
initiative	-11.2677
▁héritiers	-11.2679
▁Ald	-11.2684
▁Quint	-11.2685
▁Poupet	-11.2685
▁comprenant	-11.2685
▁sollicitait	-11.2685
éducation	-11.2685
▁Croiz	-11.2685
▁Laboratoire	-11.2685
▁Immo	-11.2685
▁prétendu	-11.2685
▁GFA	-11.2685
▁apparaître	-11.2688
▁investissements	-11.2689
▁repose	-11.2692
▁ultérieurement	-11.2695
▁spécialisé	-11.2698
▁pur	-11.2706
kp	-11.271
ive	-11.2711
▁Ful	-11.272
▁renouvelé	-11.2724
ayants	-11.2729
ins	-11.2732
▁affectée	-11.2732
▁organisation	-11.2732
▁réclamées	-11.2738
▁13°/	-11.2738
▁constante	-11.2753
alerte	-11.2754
▁Brenntag	-11.2761
▁Occhipinti	-11.2761
▁notarié	-11.2761
▁rétractation	-11.2761
▁transmettre	-11.2761
▁diffusion	-11.2761
▁cessionnaire	-11.2762
▁associations	-11.2763
▁levée	-11.2767
▁représenter	-11.2768
▁1995	-11.2772
▁travailler	-11.2773
▁lutte	-11.2778
▁Monte	-11.2783
▁employés	-11.2793
▁constructions	-11.2799
▁800	-11.2799
▁consécutives	-11.2801
vi	-11.2807
con	-11.2819
▁14],	-11.2833
Vasseur	-11.2838
▁Bendel	-11.2838
▁Ghnassia	-11.2838
▁retiennent	-11.2839
▁rémunérées	-11.2841
▁invoquant	-11.2846
▁minimale	-11.2856
▁travaillé	-11.2863
▁illégale	-11.2864
ecours	-11.2878
oc	-11.2893
ue	-11.2907
vous	-11.291
▁Air	-11.2912
▁prolonge	-11.2913
éférer	-11.2915
▁irrégulier	-11.2916
▁majorité	-11.2916
nvic	-11.2916
plume	-11.2916
▁mains	-11.2916
▁Valér	-11.2917
▁SMA	-11.2917
▁contraintes	-11.292
▁formuler	-11.2923
▁1881	-11.2924
▁Kl	-11.2925
▁aura	-11.2929
▁allouée	-11.2942
▁garantis	-11.2966
▁impose	-11.2968
▁opéré	-11.2975
▁511	-11.2976
up	-11.2979
▁2003,	-11.2984
indication	-11.2988
▁contraires	-11.2989
▁tarif	-11.299
▁armes	-11.2991
▁sollicite	-11.2991
▁Jollec	-11.2994
▁Mornet	-11.2994
▁vieillesse	-11.2994
▁mieux	-11.2994
▁1009-2	-11.2994
▁désigner	-11.3
2-3	-11.3003
4.1	-11.3007
▁renoncé	-11.3014
▁cachés	-11.3019
▁supporter	-11.3026
ateur	-11.3029
installation	-11.3068
inaptitude	-11.3069
▁loué	-11.3069
▁ordonne	-11.307
▁Bonnet	-11.3073
▁chemin	-11.3073
▁exempt	-11.3073
▁dépi	-11.3073
▁représentante	-11.3074
image	-11.3077
▁État	-11.308
▁sentence	-11.3087
héritier	-11.3088
▁informée	-11.3092
▁concours	-11.3092
bat	-11.3101
▁automobile	-11.3111
mo	-11.3113
▁étendue	-11.314
llivier	-11.3152
adaptation	-11.3152
▁Carrefour	-11.3152
▁comparaison	-11.3152
▁incompatible	-11.3152
▁méthode	-11.3152
▁pays	-11.3152
▁plaignant	-11.3152
iquot	-11.3152
▁totalement	-11.3154
LIE	-11.3155
bilité	-11.3157
▁Habitat	-11.316
▁francs	-11.3164
▁majoration	-11.3168
▁ajouté	-11.3171
▁introduite	-11.3174
▁reprises	-11.318
▁Ala	-11.3197
▁avantage	-11.3213
▁convoqué	-11.3215
▁solutions	-11.3228
▁relaxe	-11.3231
▁CONSTATE	-11.3232
▁Kacenelenbogen	-11.3232
▁Rapide	-11.3232
▁prévaut	-11.3232
▁réfère	-11.3232
▁soutenir	-11.3232
▁logistique	-11.3232
▁Schmi	-11.3232
▁contribué	-11.3232
▁prescriptions	-11.3235
▁méconnaîtr	-11.3237
▁GIE	-11.3244
▁met	-11.3247
AMF	-11.3249
▁entrée	-11.3257
▁concernée	-11.3267
intermédiaire	-11.3309
urgence	-11.331
institution	-11.331
▁joint	-11.3311
ienne	-11.3312
exclusivité	-11.3313
▁Bank	-11.3313
▁contact	-11.3313
▁hiérarchique	-11.3313
nsan	-11.3319
▁Limoges	-11.3322
▁manuscrite	-11.3323
▁fourni	-11.3325
▁rémunéré	-11.3325
▁909	-11.333
▁inclus	-11.3331
▁62	-11.3336
▁625	-11.3337
▁voies	-11.334
▁entendue	-11.3341
gi	-11.3356
▁vote	-11.3359
▁Lion	-11.3361
lant	-11.3361
▁23.	-11.3362
actions	-11.3367
ni	-11.3379
▁commerciales	-11.3385
bo	-11.3389
entente	-11.3391
indivision	-11.3391
concurrence	-11.3392
alinéa	-11.3392
▁convenu	-11.3393
▁destiné	-11.3393
▁Casino	-11.3394
▁détachement	-11.3394
▁inapte	-11.3394
▁sujet	-11.3394
▁Robin	-11.3394
▁trop	-11.3394
▁suffisant	-11.3394
▁AIG	-11.3395
▁résultats	-11.3399
appliquent	-11.3399
ISF	-11.34
▁Valla	-11.3401
▁prenant	-11.3402
▁affectés	-11.341
to	-11.3413
▁expiré	-11.3414
▁arbitrale	-11.3424
IS	-11.3428
▁communiquées	-11.3432
ran	-11.3443
▁AVOIR	-11.3443
▁échéances	-11.3445
▁906	-11.3459
▁spécifiques	-11.3459
▁1792	-11.346
▁fixés	-11.3472
volta	-11.3475
▁Management	-11.3476
▁Maunand	-11.3476
▁TVA	-11.3476
▁dépassement	-11.3478
▁PIP	-11.3484
CP	-11.3494
▁réglementaire	-11.3494
▁précisait	-11.3495
son	-11.3502
▁entité	-11.3508
21-10	-11.3513
▁corps	-11.3515
▁versements	-11.3518
ner	-11.3524
▁omis	-11.3527
▁2312-	-11.3529
▁Mar	-11.3548
▁bénéficie	-11.3552
abstraction	-11.3558
▁Abgrall	-11.3558
▁Syndicat	-11.3558
Rhin	-11.3559
▁gel	-11.3559
▁substantielle	-11.3565
▁Var	-11.3567
▁portent	-11.3569
▁Mathieu	-11.3573
▁plafond	-11.3577
▁élevé	-11.3583
VB	-11.3588
▁[6],	-11.3588
▁destinée	-11.3594
▁145-	-11.3601
if	-11.3605
▁équivalent	-11.3606
▁Aquitaine	-11.3606
▁dispositifs	-11.3611
▁dés	-11.3613
▁fine	-11.3615
▁disposer	-11.3618
▁emporte	-11.3621
▁loués	-11.3626
▁assemblée	-11.363
ba	-11.3631
interpréter	-11.3642
▁discipline	-11.3642
▁préfet	-11.3642
▁suicide	-11.3642
▁sécuris	-11.3642
▁WBG	-11.3642
▁prévoir	-11.3642
▁participer	-11.3643
▁122	-11.365
▁611	-11.365
▁605	-11.3653
▁structure	-11.3661
▁difficulté	-11.3662
▁Services	-11.3679
▁exercées	-11.3689
avocats	-11.3695
▁assureurs	-11.3696
▁prescrites	-11.3701
▁continu	-11.3703
▁involontaires	-11.3704
▁concernées	-11.3712
▁Versantis	-11.3726
▁Ancel	-11.3726
▁lecture	-11.3726
▁tourisme	-11.3726
▁EXP	-11.3727
▁intéressés	-11.3729
▁incombait	-11.373
▁excluant	-11.3736
▁53	-11.3736
▁concluent	-11.3743
▁fichier	-11.3746
▁cotisation	-11.3747
▁excéder	-11.3748
▁600	-11.3761
▁immeubles	-11.3767
▁notaires	-11.3774
▁implique	-11.3779
▁61	-11.3795
man	-11.3809
architecte	-11.381
homicide	-11.3811
▁Bacache	-11.3811
▁demeurant	-11.3811
▁détenir	-11.3811
▁fautive	-11.3811
▁déposer	-11.3811
sse	-11.3811
▁bois	-11.3812
exposition	-11.3812
▁4].	-11.3812
Saint	-11.3812
attente	-11.3813
▁invoquées	-11.3824
▁46	-11.3825
▁intégralement	-11.3841
▁2002,	-11.3863
▁21-12	-11.3863
ix	-11.3865
▁intitulé	-11.3872
▁justifiées	-11.3882
▁traité	-11.389
▁procède	-11.3894
▁Bruyère	-11.3896
▁TRLP	-11.3896
▁Diop	-11.3896
▁fédération	-11.3896
▁précédant	-11.3897
CEE	-11.3905
è	-11.3905
▁scellés	-11.3906
CI	-11.3919
ène	-11.392
▁libérale	-11.3921
▁pénalité	-11.3921
▁indiquer	-11.3925
xposé	-11.3927
▁objectif	-11.3929
▁territoriale	-11.393
analyser	-11.3937
▁long	-11.3956
oul	-11.3957
▁CPAM	-11.3973
ob	-11.3979
orientation	-11.3982
▁Languedoc	-11.3982
▁Technip	-11.3982
▁prétexte	-11.3982
▁survenance	-11.3982
▁ignorer	-11.3982
▁nombreuse	-11.3983
▁cessé	-11.3983
agissait	-11.3984
▁consignation	-11.3985
▁consulter	-11.3985
▁1965	-11.3992
▁délégués	-11.3995
▁daté	-11.4002
▁involontaire	-11.4005
▁critère	-11.4005
▁conserver	-11.4014
▁interprété	-11.4024
▁907	-11.4028
▁accordée	-11.403
tiennent	-11.4038
▁garantiss	-11.4039
▁Galle	-11.404
mêmes	-11.4051
are	-11.4053
5.1	-11.4061
adresse	-11.4066
▁7),	-11.4067
▁défaillance	-11.4069
▁surface	-11.4069
▁carence	-11.4069
▁620,	-11.4071
▁classification	-11.4073
invalidité	-11.4073
autrui	-11.4073
▁Pierre	-11.4078
▁valeurs	-11.4083
▁jugements	-11.4085
RL	-11.4089
▁constitutif	-11.4093
▁déclarés	-11.4099
▁téléphoniques	-11.4105
▁caractéristique	-11.4114
▁attachée	-11.4117
érard	-11.4118
▁calculée	-11.4126
▁candidats	-11.4126
▁Dou	-11.4128
▁produite	-11.4139
▁aucunement	-11.4139
▁dépend	-11.4144
▁Samuel	-11.4157
▁constitutive	-11.4157
▁soutenant	-11.4157
indivisibilité	-11.4157
▁Sylva	-11.4158
▁strictement	-11.4161
CJUE	-11.4161
af	-11.4168
▁905	-11.4171
/20	-11.4178
▁excessive	-11.4181
▁fournies	-11.4182
▁Ville	-11.4186
▁114	-11.4196
▁8)	-11.4196
▁signifiée	-11.4199
▁opposée	-11.4212
schel	-11.4223
130	-11.4224
▁nouvel	-11.4235
th	-11.4241
ynard	-11.4245
▁CONSEQUENCE	-11.4245
▁craindre	-11.4245
▁prévenir	-11.4246
▁Poste	-11.4246
▁Wurt	-11.4246
valant	-11.4255
▁145	-11.426
tique	-11.4263
▁probante	-11.4266
▁2018.	-11.427
▁81	-11.4271
ouet	-11.4271
ed	-11.4272
▁Auvergne	-11.4277
▁moyenne	-11.4283
▁exposants	-11.429
▁inviter	-11.429
OS	-11.43
oi	-11.4304
▁salariales	-11.4304
▁entend	-11.4307
TI	-11.4313
▁indemniser	-11.4317
lle	-11.4324
ACTE	-11.4328
▁caractérise	-11.4328
▁je	-11.433
▁vendre	-11.4334
▁Cardini	-11.4335
▁détriment	-11.4335
EARL	-11.4336
▁144	-11.4339
environnement	-11.4341
▁brute	-11.4346
▁cesser	-11.435
plain	-11.435
▁internet	-11.4354
▁subordonnée	-11.4359
▁marchandise	-11.4361
▁futurs	-11.4372
▁courriers	-11.4372
▁payées	-11.4374
sol	-11.4382
cc	-11.4386
▁études	-11.4387
ui	-11.4389
▁heure	-11.4396
ai	-11.4399
implique	-11.44
▁engagées	-11.4418
plaçant	-11.4422
▁générateur	-11.4425
rivin	-11.4427
Simon	-11.4431
acceptation	-11.4432
:	-11.4432
énergie	-11.4432
sdites	-11.4434
▁64	-11.4439
▁gr	-11.4441
▁ventes	-11.4441
Agent	-11.4444
▁ancienneté	-11.4448
iss	-11.445
▁accessoires	-11.4475
▁Art	-11.449
▁610	-11.45
▁concrète	-11.4503
héritiers	-11.4506
ras	-11.4508
▁gouvernement	-11.4516
inspection	-11.4516
▁automatique	-11.4516
▁magasin	-11.4516
▁incluant	-11.4516
▁Enedis	-11.4516
▁Logistics	-11.4516
▁directrice	-11.4516
SE	-11.4516
Gibe	-11.4516
▁venue	-11.4516
▁reconnaître	-11.4517
▁Cora	-11.4517
RIN	-11.4519
▁licenciements	-11.4527
▁pathologie	-11.4543
▁dégradation	-11.4543
▁stipulation	-11.4543
Ra	-11.4552
▁grand	-11.4562
▁agi	-11.4564
▁93	-11.4574
▁davantage	-11.4576
▁opposer	-11.4577
pi	-11.4583
▁RM	-11.4583
▁témoins	-11.4594
▁Pyrénées	-11.4596
▁précises	-11.46
▁office	-11.4603
ist	-11.4604
▁Trans	-11.4607
▁volume	-11.4607
▁confirmatif	-11.4607
▁régissant	-11.461
accusation	-11.4616
autoriser	-11.4616
▁toiture	-11.4617
▁industriels	-11.4623
▁reproch	-11.4627
▁59	-11.4631
ana	-11.4632
ab	-11.4633
▁bilan	-11.4635
▁2013.	-11.4636
▁injustifiée	-11.4643
▁supérieurs	-11.4651
▁existait	-11.4666
▁rappeler	-11.4673
▁84	-11.4674
▁immatriculé	-11.4676
▁datée	-11.468
oir	-11.4682
émission	-11.4683
▁Wa	-11.4683
da	-11.4688
▁formalités	-11.4698
▁23-82.	-11.47
▁Pireyre	-11.47
▁Toutefois	-11.47
▁résolutoire	-11.47
▁Poinseau	-11.47
▁Viaud	-11.4701
▁apporté	-11.4701
▁donneur	-11.4702
identifier	-11.4702
▁longue	-11.4703
▁renoncer	-11.4704
▁rempliss	-11.4707
▁formes	-11.4708
▁Partners	-11.4709
nien	-11.4712
euse	-11.4712
▁Bouv	-11.4714
▁rendait	-11.4716
▁Bed	-11.4719
▁instances	-11.4726
▁légalité	-11.474
par	-11.4748
hier	-11.4759
▁502	-11.4761
▁dispense	-11.4761
▁903	-11.4763
▁68	-11.4773
sur	-11.4774
▁contribuables	-11.4779
accueil	-11.4793
SENT	-11.4793
▁Cabarrus	-11.4794
▁Grandemange	-11.4794
▁Soutenant	-11.4794
▁déduisent	-11.4794
▁maximum	-11.4794
▁suivent	-11.4794
▁1152-1	-11.4794
▁vidéo	-11.4794
▁TTC	-11.4794
▁bénéficiait	-11.4796
▁consulté	-11.48
incident	-11.4804
▁8]	-11.4805
▁délibérations	-11.4813
▁transféré	-11.4817
▁787	-11.4821
▁99	-11.4823
▁apport	-11.4834
▁réclamée	-11.4835
▁tour	-11.4849
ho	-11.4853
▁904	-11.4855
▁Duc	-11.4858
▁protégé	-11.4871
▁sexuelles	-11.4882
xami	-11.4883
▁déterminées	-11.4884
ontestant	-11.4887
▁participé	-11.4888
▁approuvé	-11.4888
▁Hill	-11.4892
Pyrénées	-11.4899
▁exposé	-11.4901
▁critiqué	-11.4901
▁interprétariat	-11.4901
rdé	-11.4908
▁pacte	-11.491
▁énergie	-11.4911
▁évaluation	-11.4911
▁Pays	-11.4923
▁impliqué	-11.4926
▁impliqu	-11.4929
▁accusé	-11.4929
▁limitation	-11.4931
▁requalifié	-11.4938
▁précédente	-11.4941
▁veille	-11.4963
▁industrie	-11.4964
▁conven	-11.4971
▁officiel	-11.4979
▁bordereau	-11.4983
▁Eiffage	-11.4983
▁diffamation	-11.4983
▁mélangé	-11.4983
▁dévolutif	-11.4983
▁rachat	-11.4984
▁fonde	-11.4986
▁propag	-11.4988
mp	-11.499
exerce	-11.4991
▁Avocats	-11.4993
ailleurs	-11.4995
ib	-11.4996
▁alloué	-11.4996
ables	-11.5002
▁Hauts	-11.5006
▁explications	-11.5006
▁66	-11.5007
▁emplois	-11.5008
▁terres	-11.5008
devenu	-11.501
▁009	-11.5021
▁15],	-11.5036
▁82	-11.5048
▁audit	-11.5051
▁interrompu	-11.506
mat	-11.5064
échéance	-11.5064
▁organisations	-11.507
▁souscrite	-11.5073
▁SNC	-11.5074
▁dol	-11.5077
▁engagés	-11.5079
▁Lefeuvre	-11.5079
▁contestable	-11.5079
▁suivre	-11.5079
▁1235-3	-11.5079
CRCAM	-11.5079
▁Grive	-11.508
▁Ltd	-11.508
▁005	-11.5081
▁sauraient	-11.5087
KAR	-11.5088
▁photographies	-11.509
▁appartement	-11.5097
▁représentatives	-11.5099
ub	-11.5105
▁claire	-11.5107
▁trimestre	-11.5112
▁menace	-11.5112
▁afférente	-11.512
▁souscrits	-11.5123
▁77	-11.5126
▁définie	-11.5127
▁386	-11.5133
ond	-11.5142
▁67	-11.5143
▁Alsace	-11.5143
▁Maison	-11.5146
▁appelée	-11.5148
RG	-11.515
▁établies	-11.5167
▁04	-11.5175
▁22-12.2	-11.5176
▁Piazza	-11.5176
▁revendication	-11.5176
▁teneur	-11.5176
▁satisfaire	-11.5176
▁conception	-11.5177
▁opérateurs	-11.5177
▁Inter	-11.5177
▁Bureau	-11.5177
▁Gilli	-11.5177
▁71	-11.5177
appartement	-11.519
▁contestées	-11.5194
▁Marc	-11.5207
▁litiges	-11.5216
▁subséquentes	-11.5219
ez	-11.5221
▁annuels	-11.5222
▁calculé	-11.5227
▁incompétent	-11.5229
▁indépendant	-11.5231
▁assignation	-11.5231
▁90	-11.5238
▁rapports	-11.5241
▁éventuelle	-11.5242
▁aggravée	-11.5244
▁54	-11.525
▁réparations	-11.5255
▁validé	-11.526
▁unilatérale	-11.5269
▁Agostini	-11.5274
▁répétition	-11.5274
▁défendre	-11.5275
▁Chir	-11.5275
▁008	-11.5275
▁007	-11.5276
▁candidat	-11.5276
▁prescrits	-11.5279
▁intoxication	-11.5283
▁valider	-11.5284
▁détenus	-11.5287
Marie	-11.5289
▁réglé	-11.529
▁Auto	-11.5292
▁puni	-11.53
▁ultérieure	-11.5302
▁Du	-11.5303
▁salariale	-11.5314
eurs	-11.5315
▁liquidateurs	-11.5319
▁comprend	-11.5328
▁retenues	-11.5332
▁enfant	-11.5337
▁604	-11.5338
▁menaces	-11.534
▁appréciée	-11.5342
▁commence	-11.5343
▁révélé	-11.5346
donnant	-11.5348
▁située	-11.5352
oy	-11.5352
▁composé	-11.5358
▁désignés	-11.5359
▁coupables	-11.5362
▁4°	-11.5367
▁précaire	-11.5373
Dora	-11.5374
▁recourir	-11.5374
▁exigée	-11.5377
▁intervenus	-11.5378
impartialité	-11.5379
isse	-11.5379
▁Vala	-11.5381
iers	-11.5381
Morel	-11.5389
▁4°)	-11.5389
exigence	-11.5389
évaluer	-11.5394
▁10)	-11.5394
▁AFD	-11.5396
min	-11.5409
▁agence	-11.5416
▁suspendu	-11.5418
1-6	-11.5425
▁obtenus	-11.5431
AM	-11.5437
venu	-11.5445
ages	-11.5453
▁montants	-11.5459
▁chèques	-11.5459
▁disproportion	-11.5465
▁reconnaiss	-11.5473
▁Lagauche	-11.5473
▁défectueux	-11.5473
▁hypothécaire	-11.5473
▁secret	-11.5473
▁pesant	-11.5473
▁Congo	-11.5473
▁comparaître	-11.5474
▁fournit	-11.5476
▁cité	-11.5477
▁courriels	-11.5491
immatriculation	-11.5491
audition	-11.5491
▁dis	-11.5496
▁laisser	-11.5502
tirer	-11.5522
▁sérieusement	-11.5528
ju	-11.5535
▁010	-11.5542
▁883	-11.5546
▁organisé	-11.5546
▁situés	-11.5549
▁incapacité	-11.5551
▁subordonné	-11.5554
ois	-11.5562
▁AJ	-11.5562
▁conventionnels	-11.5562
▁g	-11.5563
▁tardive	-11.5565
▁soi	-11.5565
▁averti	-11.5568
▁250	-11.5573
▁Corlay	-11.5574
▁indûment	-11.5574
▁réduire	-11.5574
Brico	-11.5574
▁MAAF	-11.5574
▁citation	-11.5575
go	-11.559
▁imposant	-11.559
▁1997	-11.5591
embauche	-11.5592
encourt	-11.5592
▁comprise	-11.5603
▁responsables	-11.5616
▁participations	-11.562
▁législatives	-11.5625
▁stipulée	-11.5626
▁dressé	-11.5639
uy	-11.564
Soc	-11.5646
▁accomplis	-11.565
▁assemblées	-11.5657
▁maintenu	-11.5658
▁antérieurs	-11.5666
particulièrement	-11.5668
▁confusion	-11.5676
▁maintenir	-11.5676
▁protecteur	-11.5676
▁Mallet	-11.5676
▁seuil	-11.5677
Oise	-11.5678
▁411-3	-11.568
▁rapporte	-11.5689
autonomie	-11.5695
▁706-	-11.5701
▁conflit	-11.5715
▁venir	-11.572
▁informatique	-11.5729
▁01	-11.5729
lin	-11.5738
avocate	-11.5738
▁Re	-11.5743
▁confiée	-11.5752
asne	-11.5774
▁Davoi	-11.5779
asile	-11.578
▁006	-11.5783
▁facturation	-11.5785
otre	-11.5786
ck	-11.5795
éloignement	-11.5799
adoption	-11.58
professionnelle	-11.5802
▁imputables	-11.5804
▁échéance	-11.5805
AMR	-11.581
▁régie	-11.582
ga	-11.5825
▁fondait	-11.5839
étude	-11.584
▁Atlantique	-11.5848
▁revêt	-11.5853
▁LI	-11.5865
▁Bél	-11.5867
▁gratuit	-11.5867
▁observation	-11.5875
▁marques	-11.5879
▁troubles	-11.5882
occurrence	-11.5884
▁Nanterre	-11.5884
▁Assurances	-11.5884
▁démontrant	-11.5884
▁004	-11.5885
▁figurait	-11.5885
▁occupait	-11.5888
accessoire	-11.5905
▁El	-11.5908
▁appelants	-11.5927
▁Ap	-11.593
▁Cherm	-11.5933
gu	-11.5934
▁réputé	-11.594
▁contracté	-11.5944
▁post	-11.5954
▁locataires	-11.596
CH	-11.5962
mément	-11.5968
net	-11.5975
▁consentie	-11.5976
▁rapide	-11.5976
PS	-11.5979
▁05	-11.5983
valorisation	-11.5989
▁Prieur	-11.5989
▁monsieur	-11.5989
▁mécanisme	-11.5989
▁restauration	-11.5989
▁évoqué	-11.5989
▁vérité	-11.5989
▁Viole	-11.5989
▁prévalait	-11.599
▁distinctes	-11.5999
▁quitter	-11.6
▁480	-11.6001
2-7	-11.6006
▁attest	-11.6008
▁79	-11.6008
▁ingénierie	-11.6009
horaire	-11.6012
Ouest	-11.6012
Bordeaux	-11.6012
indemniser	-11.6015
▁Chaf	-11.6015
▁liquide	-11.6018
entend	-11.602
▁ancienne	-11.6026
▁négociation	-11.6031
▁accomplir	-11.6036
non	-11.6037
▁vocation	-11.604
7-1	-11.6043
▁cessions	-11.6044
▁Rat	-11.6046
▁462	-11.605
▁équivalente	-11.6055
9),	-11.6057
▁assorti	-11.6063
▁exceptionnel	-11.6067
▁ayants	-11.6069
▁défini	-11.6075
▁allouées	-11.6079
▁actifs	-11.608
uat	-11.6087
▁avisé	-11.609
▁74	-11.6094
ostain	-11.6095
▁derechef	-11.6095
▁Sarl	-11.6095
▁4121-1	-11.6096
▁distinction	-11.6097
▁trancher	-11.6098
ures	-11.61
ouv	-11.6102
ure	-11.6107
▁libéré	-11.6108
mont	-11.6108
Douai	-11.6119
▁inscrit	-11.6127
▁expliquer	-11.6133
▁informer	-11.6153
▁expérience	-11.6155
▁perdu	-11.6162
▁présumé	-11.6174
▁alinéas	-11.6177
▁(6	-11.6183
▁indépendante	-11.6184
élection	-11.619
engage	-11.6191
voix	-11.6194
hner	-11.6194
▁72	-11.6198
mer	-11.6198
▁Beauvois	-11.6203
▁desquels	-11.6203
▁excessif	-11.6203
▁million	-11.6203
▁stipulait	-11.6203
▁Goldman	-11.6203
▁clos	-11.6203
▁Lévis	-11.6203
▁Turc	-11.6203
▁imminent	-11.6203
▁docteur	-11.6203
▁formalisme	-11.6203
▁lourde	-11.6203
guette	-11.6204
▁51	-11.6205
▁formulées	-11.6212
▁effectifs	-11.6216
Comté	-11.6219
option	-11.6227
UES	-11.6227
▁intentionnelle	-11.6228
section	-11.6228
▁indirect	-11.6229
▁Moselle	-11.6231
▁accorder	-11.6237
0.000	-11.6244
IT	-11.6246
▁découvert	-11.6247
▁argumentation	-11.6255
▁normes	-11.626
RP	-11.6265
▁16],	-11.6265
▁vot	-11.6265
▁change	-11.6266
▁affirmation	-11.6276
▁85	-11.6277
ret	-11.6278
▁ma	-11.629
▁mineure	-11.629
ef	-11.6295
▁appliqué	-11.6298
▁1021	-11.6306
▁résultent	-11.6309
▁faible	-11.6311
▁Foncière	-11.6312
▁succursale	-11.6312
▁TRF	-11.6312
amant	-11.6325
trat	-11.6328
oppose	-11.6333
▁amendes	-11.6334
Royaume	-11.6337
▁officier	-11.634
▁115	-11.6348
▁postérieurs	-11.6352
▁interrogatoire	-11.6356
▁douanière	-11.6357
▁technicien	-11.6361
▁maximale	-11.6363
▁ouvre	-11.6367
▁901	-11.637
unique	-11.6374
▁créée	-11.6377
ide	-11.6381
▁restaurant	-11.6382
val	-11.64
▁décide	-11.6405
▁méconnaît	-11.6414
acquitter	-11.6421
▁Risks	-11.6421
▁caractérisai	-11.6421
▁fabrication	-11.6421
▁interruptif	-11.6421
▁stationnement	-11.6421
▁Kass	-11.6427
▁réclamer	-11.6431
▁parfaitement	-11.6432
▁syndicales	-11.6437
▁1977	-11.6439
Philipp	-11.6449
pièce	-11.6449
affectation	-11.6449
▁maîtres	-11.645
ais	-11.646
▁sus	-11.6461
Maritimes	-11.6468
▁excès	-11.6471
▁augmentation	-11.6479
▁concern	-11.6491
ach	-11.6492
▁familial	-11.6514
▁déc	-11.6519
▁24.	-11.653
Ménard	-11.6533
▁défiscalisation	-11.6533
▁instructeur	-11.6533
▁navire	-11.6533
▁réquisitoire	-11.6533
▁résilié	-11.6533
▁souscripteur	-11.6533
Seiller	-11.6533
▁métallurgie	-11.6533
▁Covid	-11.6533
▁huitième	-11.6533
▁21-21.1	-11.6535
▁Confor	-11.6537
six	-11.6538
ubert	-11.6538
▁Bretagne	-11.6539
timents	-11.654
.000	-11.6544
anno	-11.6551
▁créer	-11.6556
▁interrompue	-11.6556
inventaire	-11.656
MJ	-11.6572
pl	-11.6576
▁considérations	-11.6584
RH	-11.6585
▁statutaires	-11.6589
▁actionnaires	-11.6592
▁subies	-11.6602
▁entier	-11.6608
▁rédigé	-11.6612
▁mé	-11.6613
▁132-1	-11.6615
▁02	-11.6624
▁011	-11.6635
▁mandats	-11.6635
▁78	-11.6636
▁notifiées	-11.6638
TW	-11.6641
▁contient	-11.6645
▁lyonnais	-11.6645
▁stipule	-11.6645
▁vitesse	-11.6645
▁réforme	-11.6645
▁fiable	-11.6646
▁Marseille	-11.6649
▁réorganisation	-11.6652
▁Kerne	-11.6653
▁Cove	-11.6653
▁soulign	-11.6654
▁substituer	-11.6657
▁ajoutant	-11.667
▁salle	-11.6671
▁inopérantes	-11.6674
Rennes	-11.6675
▁exigence	-11.6676
▁librement	-11.6687
▁463	-11.6689
▁513	-11.669
▁décrit	-11.6699
41-2	-11.6699
▁Agence	-11.6717
nora	-11.6721
▁attaqués	-11.6722
▁attribué	-11.673
▁One	-11.6746
▁9)	-11.6753
▁Blanc	-11.6758
Allemagne	-11.6759
▁Invoquant	-11.6759
▁Pierson	-11.6759
▁consiste	-11.6759
▁22-10.1	-11.6759
Menay	-11.6759
▁Chaumont	-11.6759
aillard	-11.6759
▁131-21	-11.676
▁Match	-11.676
▁Tel	-11.6762
▁Nouméa	-11.6766
▁transporteur	-11.6776
▁1992	-11.6777
▁07	-11.6778
▁garant	-11.6779
▁reçue	-11.6794
ative	-11.6794
▁564	-11.6794
▁562	-11.68
apporter	-11.6817
▁confirme	-11.6817
IRE	-11.6818
Com	-11.6819
▁eau	-11.6821
▁remplie	-11.6824
CC	-11.6833
land	-11.6834
nd	-11.6836
▁dégradations	-11.6839
▁réparée	-11.6853
vente	-11.6854
▁exceptions	-11.6863
▁Bas	-11.6869
▁Ghestin	-11.6873
▁maintenance	-11.6873
▁licence	-11.6874
▁prévalant	-11.6874
▁collaboration	-11.6874
▁déduisai	-11.6875
MEN	-11.6875
▁moteur	-11.6877
▁notifier	-11.6879
no	-11.6881
▁1009	-11.6885
▁salariées	-11.6889
▁rappelés	-11.689
▁94	-11.6892
▁1987	-11.6893
▁nécessite	-11.6896
▁Mont	-11.69
▁accessoire	-11.6901
ambigu	-11.6906
▁attributions	-11.6907
▁différent	-11.6907
MC	-11.6908
▁06	-11.6912
▁manoeuvres	-11.6922
abat	-11.6936
▁cassée	-11.6942
euros	-11.6945
DF	-11.6953
▁perçue	-11.6955
▁compétentes	-11.6958
honoraire	-11.6959
PL	-11.6968
ence	-11.6977
▁découle	-11.6988
adjudication	-11.699
▁défavorable	-11.699
▁dérogation	-11.699
▁suspicion	-11.699
▁Corre	-11.699
▁Doumic	-11.699
▁souffrances	-11.7001
▁BTP	-11.7002
▁titulaires	-11.7002
▁employeurs	-11.7003
▁parentale	-11.7003
▁adhérents	-11.7017
Grenoble	-11.7024
▁indivis	-11.7024
▁cotisante	-11.7029
IP	-11.7031
▁spécifiquement	-11.7032
▁St	-11.7038
▁58	-11.7072
▁fondés	-11.7085
▁Di	-11.7088
▁contredite	-11.7089
RIE	-11.709
▁fer	-11.7092
▁Mo	-11.7094
▁tacite	-11.7095
▁confirmée	-11.71
▁Person	-11.7107
▁budget	-11.7107
▁côté	-11.7107
▁géographique	-11.7107
▁irrépétibles	-11.7107
▁Jardin	-11.7107
▁Commission	-11.7107
Calais	-11.7108
▁sortie	-11.7109
▁21-25.6	-11.711
▁baisse	-11.7111
▁oblige	-11.7111
DE	-11.7113
▁1993	-11.7124
▁justifient	-11.7125
▁échus	-11.7125
▁1975	-11.7127
▁convoquée	-11.7139
Etablissement	-11.7143
tribunal	-11.7144
▁qualifié	-11.7145
autant	-11.7145
▁susvisée	-11.7162
▁électrique	-11.7162
▁violence	-11.7163
isé	-11.7163
éc	-11.7176
▁insuffisante	-11.718
▁exercices	-11.7182
▁alimentaire	-11.7183
▁plateau	-11.7185
IC	-11.7194
▁déplacements	-11.7218
▁contestations	-11.7219
ON	-11.7219
▁exposition	-11.7224
▁gros	-11.7226
humanité	-11.7226
▁Picardie	-11.7226
▁Securitas	-11.7226
▁déduisant	-11.7226
▁Fabric	-11.7227
▁vaut	-11.7227
▁Guil	-11.7228
▁siége	-11.7229
▁Cayenne	-11.7233
▁classement	-11.7234
▁Solutions	-11.7235
od	-11.7236
▁CHSCT	-11.7242
▁1984	-11.7244
▁secondaire	-11.7244
▁Savi	-11.7246
▁auteurs	-11.7259
▁individuelles	-11.7264
▁installations	-11.727
do	-11.7271
▁assistance	-11.7272
alis	-11.7272
leur	-11.7274
▁prévisible	-11.7282
▁renseignement	-11.7283
▁pratiquée	-11.7294
▁rendues	-11.7299
na	-11.7309
BC	-11.731
▁requise	-11.7316
forme	-11.732
PF	-11.7324
ations	-11.7328
▁exigibles	-11.7336
▁autrui	-11.7342
▁parce	-11.7345
▁Frères	-11.7347
▁dénaturation	-11.7347
▁Design	-11.7347
▁disposant	-11.7347
▁allégations	-11.7347
▁sanctionner	-11.7348
▁figurent	-11.7351
▁nous	-11.7351
▁active	-11.7352
▁animatrice	-11.7353
▁[6]	-11.736
▁écartée	-11.7364
▁collectifs	-11.7366
▁associée	-11.7375
▁durées	-11.7384
▁apprécié	-11.7385
▁substitué	-11.7388
apparaît	-11.7389
▁Pec	-11.7392
▁03	-11.7394
▁démarches	-11.7395
▁norme	-11.7405
▁exécuter	-11.7409
DS	-11.7412
▁journée	-11.7424
▁causés	-11.7426
▁MJA	-11.7426
▁Cap	-11.7427
▁liquid	-11.7429
Or	-11.7432
▁17],	-11.7437
▁tenues	-11.7445
1.1	-11.7453
▁transmises	-11.7461
▁terrasse	-11.7468
Belgique	-11.7469
▁Irrecevabilité	-11.7469
▁bornage	-11.7469
▁indivisible	-11.7469
▁rénovation	-11.7469
▁éligible	-11.7469
▁substitution	-11.7469
▁prudence	-11.7471
▁Régi	-11.7476
▁sommairement	-11.7477
▁conservé	-11.748
▁Duma	-11.7482
inopposabilité	-11.7485
▁1988	-11.7489
Unis	-11.749
▁certificats	-11.7498
▁An	-11.7504
▁réparé	-11.7505
▁projets	-11.7507
importation	-11.7508
▁occupant	-11.751
DP	-11.7512
▁attribuée	-11.7516
▁rempli	-11.7521
▁parvenir	-11.7521
▁Sci	-11.7525
engager	-11.7533
▁résidences	-11.754
▁présentent	-11.7542
pp	-11.7544
▁handicap	-11.755
▁613	-11.7562
▁exécutée	-11.7563
▁indemnisée	-11.7565
21-1	-11.7571
▁collectives	-11.7575
and	-11.7583
▁individuel	-11.7585
amy	-11.7587
▁DEUXIEME	-11.7592
▁Helvetia	-11.7592
▁Natyce	-11.7592
▁filiation	-11.7592
▁quarante	-11.7592
▁significatif	-11.7592
▁surcoût	-11.7592
▁Caston	-11.7592
▁devront	-11.7592
▁Résidence	-11.7592
▁fraction	-11.7592
▁feuille	-11.7593
▁Guin	-11.7593
▁privation	-11.7593
▁perçus	-11.7595
▁suffisantes	-11.7596
▁Sous	-11.7596
lloch	-11.7599
▁inhérent	-11.76
▁essentiellement	-11.7601
queur	-11.7601
▁aide	-11.7606
▁Con	-11.7607
▁Atelier	-11.7612
▁tr	-11.7624
▁correctionnels	-11.7631
Marne	-11.7633
▁adopté	-11.7635
CLA	-11.7637
▁insuffisants	-11.7637
▁restrictions	-11.764
▁sis	-11.7642
▁consécutive	-11.7653
▁1351	-11.7653
▁hebdomadaires	-11.7656
▁pourvue	-11.7659
▁proposer	-11.7662
▁auto	-11.7662
▁réclame	-11.7668
▁21-8	-11.767
▁licenciée	-11.7671
▁étendu	-11.7678
▁événement	-11.7684
▁survenue	-11.7684
omb	-11.7687
▁parti	-11.7689
▁unité	-11.7689
intimé	-11.7694
vent	-11.7704
▁juridictionnel	-11.7706
▁pourvu	-11.7711
▁18],	-11.7711
▁infirm	-11.7712
▁CIPM	-11.7717
▁Journal	-11.7717
▁cinquante	-11.7717
▁population	-11.7717
▁superficie	-11.7717
▁dessaisissement	-11.7717
▁rabat	-11.7717
▁plateforme	-11.7717
▁BPCE	-11.7717
▁JUR	-11.7717
▁suisse	-11.7717
▁diminution	-11.7718
▁circulaire	-11.7718
▁collège	-11.7718
US	-11.7718
teau	-11.772
▁renvoyée	-11.772
▁notes	-11.772
▁su	-11.7721
irport	-11.773
ble	-11.7732
▁1994	-11.7739
▁espèces	-11.7742
▁cent	-11.7744
ém	-11.7752
▁Eco	-11.7759
indépendance	-11.7759
ront	-11.7759
Atlantique	-11.776
Alsace	-11.776
organiser	-11.7761
Lyon	-11.7761
▁omise	-11.7765
SO	-11.7767
▁empêcher	-11.7767
▁Union	-11.7769
▁démontrée	-11.7776
▁requalifi	-11.7777
TP	-11.7778
▁Qu	-11.7778
▁fautif	-11.7779
▁extra	-11.778
selet	-11.778
▁accéder	-11.7783
part	-11.7787
réf	-11.7799
000	-11.7802
▁affirmé	-11.7812
▁forte	-11.7812
▁180	-11.7814
▁bons	-11.7833
▁environnement	-11.7835
unité	-11.7838
Italie	-11.7844
assassinat	-11.7844
▁cocontractant	-11.7844
▁contentieuse	-11.7844
▁couvrant	-11.7844
▁préemption	-11.7844
▁mandant	-11.7844
▁tenté	-11.7844
▁Sovi	-11.7845
▁préparation	-11.7845
▁préserver	-11.7847
▁bénéficient	-11.7849
pro	-11.7849
▁Fondation	-11.785
▁inform	-11.7852
▁savait	-11.7854
▁indirectement	-11.7857
▁contractuels	-11.786
▁vérifications	-11.786
cadre	-11.7862
partage	-11.7881
acheteur	-11.7887
adhésion	-11.7887
opposer	-11.7892
▁Corse	-11.7895
caractéristiques	-11.7907
▁542	-11.7907
▁législative	-11.7908
▁statutaire	-11.7909
▁indirecte	-11.7913
/22	-11.7918
▁équipements	-11.7935
▁imposée	-11.7937
▁reprochée	-11.7941
▁huissier	-11.7944
▁destinées	-11.7947
sible	-11.7951
▁faut	-11.7953
CD	-11.7954
▁agression	-11.7957
▁adressées	-11.7958
▁Paul	-11.7962
▁invalidité	-11.7967
▁exploité	-11.7968
parition	-11.7972
▁prépar	-11.7972
Calédonie	-11.7972
▁Bertrand	-11.7972
▁Bolloré	-11.7972
▁TROISIEME	-11.7972
▁limitant	-11.7972
▁ruraux	-11.7972
▁secrétaire	-11.7972
▁21-23.7	-11.7972
▁discriminatoire	-11.7972
▁commettre	-11.7972
▁libération	-11.7972
▁mutualité	-11.7972
▁HG	-11.7976
▁candidature	-11.7977
Plati	-11.7978
atrice	-11.7983
▁empêch	-11.799
▁viols	-11.7991
▁invoquait	-11.7995
▁71-1	-11.7996
out	-11.7997
air	-11.8
▁placés	-11.8006
▁frères	-11.8008
▁échanges	-11.8008
▁présentés	-11.8015
▁compensateurs	-11.8018
où	-11.8018
▁collectivités	-11.8019
▁réclamé	-11.802
▁ouvrages	-11.8028
indices	-11.803
▁10]	-11.8032
▁légitimement	-11.8033
des	-11.8035
▁modèle	-11.8037
▁découverte	-11.8049
cal	-11.8056
ture	-11.8056
▁on	-11.8061
▁affaire	-11.8078
▁Sas	-11.8081
▁18°/	-11.8086
▁RENVO	-11.8092
ip	-11.8097
▁proportionné	-11.8098
▁parfaite	-11.8099
▁Lease	-11.8102
▁compréhension	-11.8102
▁matériaux	-11.8102
▁problème	-11.8102
▁successifs	-11.8102
▁séparation	-11.8102
▁tuteur	-11.8102
▁téléphone	-11.8102
▁véritable	-11.8102
▁Maigr	-11.8102
▁barème	-11.8102
▁postale	-11.8102
▁généraux	-11.8103
▁localisation	-11.8103
▁1234-1	-11.8104
▁341-4	-11.8108
entier	-11.811
▁3171-2	-11.8114
▁travaille	-11.8119
▁dénoncé	-11.8119
▁collègues	-11.8123
▁Tout	-11.8133
▁instructions	-11.8134
▁man	-11.8147
inscrire	-11.8149
hôtel	-11.8149
exonération	-11.8149
Gilbert	-11.815
Agence	-11.815
existait	-11.8151
▁Chal	-11.8166
▁journalier	-11.8169
▁disponible	-11.8169
▁routier	-11.8169
▁sanctionné	-11.8171
▁rédigés	-11.8177
▁provenan	-11.8186
enquêtes	-11.8189
▁trouvé	-11.8194
ZU	-11.8199
▁124	-11.8208
▁19],	-11.8209
use	-11.8211
▁indices	-11.8218
▁exposant	-11.8224
▁attaché	-11.8229
▁occupés	-11.823
assainissement	-11.8234
▁2003/88	-11.8234
▁22-15.5	-11.8234
▁Alpha	-11.8234
▁Construction	-11.8234
▁Daubigney	-11.8234
▁OReins	-11.8234
▁Wallis	-11.8234
▁attributive	-11.8234
▁frauduleux	-11.8234
▁lendemain	-11.8234
▁publicitaire	-11.8234
▁soixante	-11.8234
▁dénomination	-11.8234
▁entrant	-11.8234
accompagnement	-11.8234
▁11)	-11.8235
▁actuelle	-11.8238
▁jeu	-11.8239
▁finalement	-11.824
▁PV	-11.824
▁Auchan	-11.824
▁préfectoral	-11.8241
▁Franche	-11.8242
▁461-1	-11.8255
line	-11.8263
▁volontaires	-11.8273
Office	-11.8282
injonction	-11.8283
be	-11.8295
▁étrangères	-11.8298
▁message	-11.8302
▁inexécution	-11.8305
▁maximales	-11.8312
▁Bar	-11.8315
cité	-11.8319
▁confiées	-11.8324
▁Cha	-11.8328
▁affectation	-11.8334
imp	-11.8336
▁élu	-11.834
▁poursuit	-11.8349
▁commandes	-11.8355
▁frauduleuses	-11.8355
▁limitées	-11.8357
▁formés	-11.8359
llant	-11.8359
▁Pharma	-11.8363
Bell	-11.8366
étanchéité	-11.8367
▁Lanoue	-11.8367
▁Regis	-11.8367
▁Tahiti	-11.8367
▁compromis	-11.8367
▁compétitivité	-11.8367
▁considère	-11.8367
▁céder	-11.8367
▁distance	-11.8367
▁perception	-11.8367
▁régulariser	-11.8367
▁stipulant	-11.8367
▁trouvant	-11.8367
▁recrutement	-11.8367
▁2013-50	-11.8367
▁déroulement	-11.8367
▁110-4	-11.8367
allocataire	-11.8368
▁réseaux	-11.8369
INPI	-11.837
▁réouverture	-11.8371
atoire	-11.8371
▁197	-11.8371
▁remplit	-11.8371
appliquait	-11.8373
▁Lorsque	-11.8374
▁3171-3	-11.8375
▁portées	-11.8384
▁accessibles	-11.8391
▁Fabi	-11.8392
▁obligatoires	-11.8396
ium	-11.84
port	-11.8401
▁mètres	-11.8402
infirm	-11.8417
UP	-11.8418
▁[7]	-11.8419
▁120	-11.842
▁Sainte	-11.8428
▁MAF	-11.843
▁justificatifs	-11.8431
▁routiers	-11.8433
▁tranche	-11.8434
▁incompétente	-11.8437
▁mouvement	-11.8437
▁justificatif	-11.8438
▁rubrique	-11.8438
▁133	-11.8444
▁prolongé	-11.8444
ES	-11.8448
▁Parc	-11.8452
▁tranché	-11.8455
▁qualifiée	-11.8456
▁Inc	-11.8459
▁bénéfici	-11.8463
▁louée	-11.8464
▁opérée	-11.8464
▁territoriales	-11.8468
▁admise	-11.8477
▁administrateur	-11.8479
▁dénommé	-11.8483
mmatriculation	-11.8501
affection	-11.8502
attention	-11.8502
honneur	-11.8502
intégrité	-11.8502
▁1233-3	-11.8502
▁Soltner	-11.8502
▁chapitre	-11.8502
▁sollicitant	-11.8502
▁opérant	-11.8502
▁coordination	-11.8502
▁subordonn	-11.8503
imputer	-11.8505
▁analyser	-11.8506
ki	-11.8508
tant	-11.8515
▁Ped	-11.8519
abelle	-11.852
▁États	-11.8537
value	-11.8538
▁impayés	-11.854
▁ordonnances	-11.8542
▁dispensé	-11.8551
▁écrits	-11.8558
▁contrôleur	-11.8563
▁considérées	-11.8569
▁envoyé	-11.8573
▁combinée	-11.8574
▁insurmontable	-11.8574
eu	-11.8579
▁douanières	-11.8582
▁régimes	-11.8591
▁déclar	-11.8597
▁121-1	-11.861
▁décidée	-11.8611
▁envoi	-11.8615
oise	-11.8615
▁86	-11.8618
▁détenues	-11.8626
▁solidaires	-11.8636
autorisant	-11.8639
▁Gaudinelles	-11.8639
▁Halem	-11.8639
▁bref	-11.8639
▁séquestration	-11.8639
▁analysé	-11.8639
▁postule	-11.8639
▁1235-1	-11.8639
EY	-11.8639
▁panneaux	-11.8639
▁déterminés	-11.8639
▁23-15.	-11.864
étendre	-11.8647
▁Etude	-11.8648
▁fenêtres	-11.8649
▁sport	-11.8651
▁voire	-11.8656
▁SRL	-11.8657
▁rappelées	-11.8658
▁allégués	-11.866
▁1790	-11.866
▁consommateurs	-11.8668
▁835	-11.8674
immunité	-11.8693
Suisse	-11.8694
▁existence	-11.8695
▁anti	-11.8695
▁autorisés	-11.8707
cha	-11.8714
▁copropriétaire	-11.8714
▁Marne	-11.8736
▁laisse	-11.8739
▁directives	-11.8754
245-1	-11.8767
▁NV	-11.8769
conformité	-11.8771
▁italien	-11.8775
▁favoris	-11.8778
▁rompre	-11.8778
▁impérative	-11.8778
▁médico	-11.8778
▁Antilles	-11.8778
▁investisseurs	-11.8778
▁triennale	-11.878
▁SPA	-11.8781
ues	-11.8793
▁acquisition	-11.8793
▁Maroc	-11.8796
ologie	-11.8797
▁concrètement	-11.8797
née	-11.8799
▁prorogée	-11.88
ax	-11.8811
▁5°	-11.8814
▁199	-11.8816
▁variables	-11.8817
▁contenue	-11.8823
établissait	-11.8834
▁885	-11.8834
▁4)	-11.8835
▁erroné	-11.8836
mar	-11.8849
CT	-11.885
▁FAI	-11.885
▁fermage	-11.8854
Loire	-11.8858
▁Life	-11.8872
▁couverte	-11.888
▁ap	-11.889
Eure	-11.8891
▁trouver	-11.8895
▁Ver	-11.8896
▁[7],	-11.8907
▁prescriv	-11.891
▁appliquer	-11.8911
▁définis	-11.8913
▁750	-11.8917
rocureur	-11.8917
Drusch	-11.8919
effectivité	-11.8919
exequatur	-11.8919
traitance	-11.8919
▁Concept	-11.8919
▁gardiennage	-11.8919
▁guerre	-11.8919
▁management	-11.8919
▁répression	-11.8919
Prigent	-11.8919
▁Melka	-11.8919
▁voisinage	-11.8919
guet	-11.8919
▁repas	-11.892
interroger	-11.8921
▁propreté	-11.8921
▁Champagne	-11.8926
ores	-11.8927
▁plannings	-11.8936
▁revendiqué	-11.8938
▁médecins	-11.894
▁abouti	-11.8953
▁appelante	-11.8953
▁parking	-11.8961
▁108	-11.8965
▁CFP	-11.8966
▁imputé	-11.8979
▁taire	-11.8983
▁souhait	-11.8986
fin	-11.8993
▁meublé	-11.8997
OM	-11.9016
▁fichiers	-11.9027
▁appelées	-11.903
▁gérants	-11.9034
▁spécialisée	-11.9037
▁envisagé	-11.9043
▁apporter	-11.9043
PE	-11.9049
▁capacités	-11.905
ç	-11.9051
▁actif	-11.9053
▁CJUE	-11.9055
élément	-11.9059
ite	-11.906
Ehpad	-11.9062
Essonne	-11.9062
amplitude	-11.9062
▁1234-9	-11.9062
▁Nederland	-11.9062
▁People	-11.9062
▁bornait	-11.9062
▁confidentialité	-11.9062
▁démonstration	-11.9062
▁rectificatif	-11.9062
▁vigilance	-11.9062
▁matin	-11.9062
▁connaissait	-11.9063
▁détenait	-11.9064
▁travaillées	-11.9067
SP	-11.9067
▁provisions	-11.9069
▁formel	-11.9071
▁trouvent	-11.9072
-01	-11.9073
car	-11.9074
▁186	-11.9082
▁Savoie	-11.9084
▁équipement	-11.9087
▁conservatoires	-11.9087
▁placer	-11.9088
4),	-11.9097
▁possibilités	-11.9097
ka	-11.9101
▁performance	-11.9109
inscriv	-11.9113
▁Cet	-11.9116
hospitalisation	-11.9122
allouer	-11.9122
Aquitaine	-11.9123
intérieur	-11.9123
temps	-11.9123
Montpellier	-11.9123
»	-11.9123
▁énoncés	-11.913
▁préjudicielle	-11.9142
▁pécuniaire	-11.9142
▁redevance	-11.9142
▁vaine	-11.9145
▁allouer	-11.9146
nelle	-11.9156
▁viser	-11.9157
▁envisagée	-11.916
▁généré	-11.9164
▁écart	-11.9171
▁source	-11.9173
ator	-11.9194
▁terrains	-11.9194
▁dates	-11.9196
▁émise	-11.9198
▁requêtes	-11.9202
conseil	-11.9205
▁Guadeloupe	-11.9207
▁dérogatoire	-11.9207
▁venderesse	-11.9207
▁pause	-11.9207
▁résidents	-11.9207
▁haine	-11.9207
▁QBE	-11.9207
▁003	-11.921
▁mensuels	-11.9211
▁Pacifica	-11.9212
▁reprochait	-11.9212
▁financer	-11.9212
▁mentionnent	-11.9215
▁largement	-11.9216
équipement	-11.9216
▁petit	-11.9217
▁actuellement	-11.9221
▁connexes	-11.9226
tendre	-11.9226
▁Immobilière	-11.9227
so	-11.9242
▁accompagné	-11.925
▁identifiés	-11.9255
auraient	-11.9257
act	-11.9259
▁cliente	-11.9259
tour	-11.9269
omission	-11.927
octobre	-11.927
accueilli	-11.9271
3)	-11.9283
▁causer	-11.9289
▁trajet	-11.9289
▁Act	-11.9289
▁spécialité	-11.929
▁passée	-11.9291
▁dommageable	-11.9292
▁remplies	-11.9292
▁09	-11.9292
▁Sol	-11.9292
▁souverain	-11.9293
▁extérieure	-11.9304
▁municipal	-11.9307
▁interromp	-11.9312
▁apparente	-11.9315
▁réalis	-11.9325
MP	-11.934
▁anormal	-11.9342
▁([	-11.9342
▁prévisionnel	-11.9345
rotocole	-11.9352
linique	-11.9353
efficacité	-11.9354
▁Lloyd	-11.9354
▁caractérisant	-11.9354
▁dolosive	-11.9354
▁hypothétique	-11.9354
▁introductif	-11.9354
▁organique	-11.9354
▁syndrome	-11.9354
▁km	-11.9354
▁silence	-11.9354
arbot	-11.9354
▁généralisée	-11.9354
▁récapitulatif	-11.9354
▁Colas	-11.9354
▁revenant	-11.9354
inéligibilité	-11.9354
▁Martinique	-11.9355
▁bonus	-11.9356
▁objective	-11.9362
ssement	-11.9362
▁mobilières	-11.9363
▁disposent	-11.9367
FF	-11.9368
HPM	-11.9372
▁1990	-11.9376
▁responsabilités	-11.9377
▁déterminante	-11.9379
▁Ag	-11.938
ient	-11.9381
▁concurrente	-11.9392
▁similaires	-11.9396
▁194	-11.9398
▁signe	-11.9404
▁importante	-11.9413
Toulouse	-11.9419
▁dénoncés	-11.9427
▁Pas	-11.9429
▁CS	-11.9434
▁joueur	-11.9438
onne	-11.9441
▁subséquente	-11.9443
▁inscrits	-11.9443
3-7	-11.9447
▁Tr	-11.9451
▁87	-11.9454
▁acceptée	-11.9457
établit	-11.9467
▁pénalement	-11.9473
▁compar	-11.9475
expliqu	-11.9476
▁Son	-11.9477
▁habilité	-11.948
▁irrégularités	-11.949
0]),	-11.9498
▁détermine	-11.9498
▁97	-11.95
instrument	-11.9502
probation	-11.9503
▁Larzul	-11.9503
▁Métropole	-11.9503
▁significative	-11.9503
▁socio	-11.9503
▁montage	-11.9503
▁programme	-11.9503
▁faiblesse	-11.9503
inclu	-11.9506
▁serment	-11.9507
1-8	-11.951
Unedic	-11.9512
▁signer	-11.9513
▁concernent	-11.952
ram	-11.9521
mptoir	-11.9521
appelante	-11.9522
▁nécessités	-11.9523
▁88	-11.9524
ani	-11.9525
▁atelier	-11.9525
▁SELA	-11.9527
▁extérieur	-11.9527
incit	-11.953
▁femmes	-11.9531
▁GMF	-11.9537
▁impositions	-11.9543
▁affecte	-11.9546
▁issu	-11.9547
▁honoraire	-11.9547
▁apportées	-11.9558
▁médicaments	-11.9558
expérience	-11.957
tenu	-11.9574
▁98	-11.9588
▁producteur	-11.959
▁virement	-11.959
▁offres	-11.959
▁manoeuvre	-11.959
▁Lyonnais	-11.9594
▁73	-11.9604
▁alloués	-11.9604
▁énergies	-11.9606
▁ambigu	-11.9612
▁134	-11.9613
▁convenue	-11.962
▁communique	-11.9623
▁po	-11.9623
oire	-11.9627
▁requérante	-11.9628
FO	-11.9633
▁intérieure	-11.9645
▁relevai	-11.9651
▁témoign	-11.9651
exonérer	-11.9654
▁curateur	-11.9654
▁délégataire	-11.9654
▁ouvrant	-11.9654
▁portefeuille	-11.9654
▁terroriste	-11.9654
▁1132-1	-11.9654
▁22-15.4	-11.9654
▁paritaire	-11.9654
▁4121-2	-11.9654
▁confort	-11.9655
▁disparition	-11.9655
▁amené	-11.9655
▁intervient	-11.9656
▁93/42	-11.9657
ouz	-11.9663
▁provisionnelle	-11.9667
Isère	-11.9668
▁procédurale	-11.9668
▁servant	-11.9668
▁garantit	-11.967
▁familles	-11.9676
▁étay	-11.9685
▁génér	-11.9695
▁majeur	-11.9713
▁[12]	-11.9717
exclu	-11.9722
▁stipulé	-11.973
▁1131	-11.9739
Maritime	-11.9744
▁Service	-11.9744
▁ouverture	-11.9744
▁224	-11.9745
▁scolaire	-11.9751
▁2012.	-11.9751
▁FR	-11.9758
▁industries	-11.9758
▁constatés	-11.9758
▁566	-11.9775
entraîne	-11.9779
▁disciplinaires	-11.9781
▁résolutions	-11.9784
▁1989	-11.9785
▁suspend	-11.9798
▁extrait	-11.9798
▁évalue	-11.9806
exactitude	-11.9808
▁Global	-11.9808
▁STATUER	-11.9808
▁Selarl	-11.9808
▁demandant	-11.9808
▁détient	-11.9808
▁pertinence	-11.9808
▁taxation	-11.9808
▁3123-14	-11.9808
▁Saulnier	-11.9808
▁séance	-11.9808
▁gendarmerie	-11.9808
▁énumérées	-11.9808
▁tardif	-11.9809
▁Didier	-11.9809
▁révélation	-11.9809
▁intervenues	-11.9812
▁définir	-11.9812
▁affirme	-11.9813
▁Réseau	-11.9814
▁compléter	-11.9815
fars	-11.9818
▁Ord	-11.9818
▁SCCV	-11.9819
erie	-11.9826
▁unilatéralement	-11.9828
▁voyageurs	-11.9832
▁rappelle	-11.9837
▁commerçants	-11.9849
▁recueillir	-11.9853
▁excède	-11.9854
immo	-11.9855
▁Man	-11.9872
gée	-11.9873
ELEC	-11.9874
ies	-11.9876
▁dommageables	-11.9877
▁composant	-11.988
époque	-11.988
appartenance	-11.988
▁futur	-11.9881
▁attachés	-11.9884
▁j	-11.9889
▁subrogé	-11.9892
▁identifiée	-11.9893
▁130	-11.9895
▁exige	-11.99
▁téléphonique	-11.99
▁réquisition	-11.99
▁18/0	-11.9909
5-3	-11.9913
Institut	-11.9913
▁transmise	-11.9928
▁encourt	-11.9937
11-2	-11.9937
▁bas	-11.9944
▁subie	-11.9947
MS	-11.9949
ST	-11.9951
▁organis	-11.9951
▁acceptation	-11.9953
▁PART	-11.9957
observation	-11.9957
illes	-11.9958
▁Char	-11.9961
éserve	-11.9964
▁Issas	-11.9964
▁biais	-11.9964
▁certitude	-11.9964
▁dénigrement	-11.9964
▁extraordinaire	-11.9964
▁matérialité	-11.9964
▁métropole	-11.9964
▁prescrire	-11.9964
▁remédier	-11.9964
▁résistance	-11.9964
▁soustraire	-11.9964
▁accéléré	-11.9965
▁promettant	-11.9965
▁quasi	-11.9965
▁quinquennale	-11.9966
instaur	-11.9966
▁Bel	-11.9969
TF	-11.9973
▁monnaie	-11.9973
▁Déchéance	-11.9976
▁inopposables	-11.998
▁tendait	-11.998
▁cré	-11.9992
▁porterait	-11.9994
PB	-11.9999
▁occuper	-12.0001
auto	-12.0004
appliqu	-12.0004
▁contrôlée	-12.0009
▁employé	-12.0012
▁indications	-12.0013
▁informés	-12.0014
▁entraînerait	-12.0022
▁08	-12.0024
▁express	-12.0027
▁inc	-12.0028
▁issus	-12.0032
éli	-12.0036
▁erronés	-12.0037
▁consacré	-12.0038
▁comptabilis	-12.0039
incendie	-12.0039
▁disponibles	-12.0042
emp	-12.0043
▁émises	-12.0044
▁qualifiés	-12.005
▁requises	-12.0056
▁5)	-12.0057
▁différend	-12.0058
WK	-12.006
▁négociations	-12.006
▁bus	-12.0061
▁diligentée	-12.0064
▁immobilières	-12.0076
jo	-12.0079
▁via	-12.0085
▁livres	-12.0087
▁vendue	-12.009
informations	-12.0102
courir	-12.0107
▁biennal	-12.0107
éna	-12.0107
▁importe	-12.0111
app	-12.0117
▁95	-12.0118
investigation	-12.0123
glise	-12.0123
▁Carbonnier	-12.0123
▁Lesourd	-12.0123
▁mentionnaient	-12.0123
▁partenariat	-12.0123
▁phase	-12.0123
Roussillon	-12.0123
▁22-20.2	-12.0123
▁Henry	-12.0123
▁Blue	-12.0123
enfance	-12.0123
▁réformation	-12.0123
▁subrogation	-12.0123
▁organes	-12.0124
▁deniers	-12.0124
▁mobile	-12.0124
▁correspondance	-12.0124
▁modifiant	-12.0124
▁suffisait	-12.0126
▁Michel	-12.0126
▁chasse	-12.0128
▁infirmant	-12.0129
-557	-12.013
▁artisanale	-12.013
▁nommé	-12.0131
ler	-12.0133
▁lundi	-12.0134
▁SMS	-12.0135
▁entièrement	-12.0135
▁fortune	-12.0136
▁rattaché	-12.0139
adopter	-12.0142
▁Guyane	-12.0143
▁identité	-12.0144
▁exprimé	-12.0146
tech	-12.0149
▁ouvrables	-12.0153
▁expose	-12.0164
▁offerte	-12.0164
▁enregistrements	-12.0168
▁142	-12.0172
▁espace	-12.0173
▁influence	-12.0173
PG	-12.0173
▁remplir	-12.0175
▁livrer	-12.0176
▁servir	-12.0178
entrer	-12.0182
emprunt	-12.02
avertissement	-12.02
augmentation	-12.02
industrie	-12.0201
Nîmes	-12.0201
août	-12.0201
FB	-12.0212
2-8	-12.0214
▁supprimé	-12.022
▁suspensive	-12.022
▁démarche	-12.022
▁143	-12.0229
▁occasion	-12.0232
▁CG	-12.0233
▁recherch	-12.0235
▁entachée	-12.0246
▁option	-12.0248
▁comprises	-12.0249
▁mot	-12.0251
▁SB	-12.0253
ions	-12.0254
/01	-12.0256
▁1/	-12.026
▁acquittée	-12.0261
▁Marie	-12.0262
▁évaluer	-12.0262
▁professions	-12.0266
▁pratiqué	-12.0266
▁représente	-12.0267
EM	-12.0268
▁confi	-12.0273
▁ouvrage	-12.0276
CF	-12.0278
▁350	-12.028
▁22-19.2	-12.028
▁nationales	-12.028
▁contractant	-12.0282
▁occupation	-12.0283
▁minima	-12.0284
opérateur	-12.0284
Thieffry	-12.0285
▁Gironde	-12.0285
▁Mayotte	-12.0285
▁Vignoble	-12.0285
▁automatisé	-12.0285
▁conversion	-12.0285
▁dépréciation	-12.0285
▁soustraction	-12.0285
▁1234-5	-12.0285
▁dénué	-12.0285
▁SANS	-12.0285
▁quotidienne	-12.0286
▁clinique	-12.0286
▁poursuivant	-12.0286
▁désignant	-12.0286
▁[...]	-12.0289
qui	-12.0289
▁coopération	-12.029
ano	-12.0294
6-24	-12.0295
▁favorables	-12.03
▁embauche	-12.0306
▁mentale	-12.0315
▁collecte	-12.0316
ari	-12.0317
▁postérieures	-12.0324
▁rester	-12.0324
▁fonctionnaires	-12.0326
▁présumée	-12.0328
admettre	-12.0333
▁valid	-12.0338
▁remboursé	-12.0343
équipe	-12.0351
enlèvement	-12.0364
Europe	-12.0365
PC	-12.0367
jugement	-12.037
▁imposées	-12.0372
▁injonction	-12.0388
▁menée	-12.0388
ouvre	-12.039
▁ultérieures	-12.0393
▁Français	-12.0394
GT	-12.0395
ain	-12.04
▁On	-12.0403
▁laissé	-12.0403
▁recherchée	-12.0406
▁différente	-12.0407
ien	-12.0411
11-4	-12.0412
▁Licencié	-12.0418
▁Bess	-12.0437
▁franchisé	-12.0446
Fitoussi	-12.0448
▁Lactalis	-12.0448
▁complexe	-12.0448
▁succès	-12.0448
▁surcroît	-12.0448
▁négligence	-12.0448
▁division	-12.0448
▁défunt	-12.0448
▁locatif	-12.0449
▁travers	-12.0449
▁voiture	-12.0449
▁Molin	-12.0449
abri	-12.045
▁bureaux	-12.0453
▁bruts	-12.0456
▁signataire	-12.0459
▁absolue	-12.0463
Charles	-12.0474
▁23],	-12.0476
▁arabe	-12.0477
roz	-12.0484
▁SH	-12.0486
▁men	-12.0486
riche	-12.0489
▁appelant	-12.0499
RS	-12.0499
▁2241	-12.0503
▁privatives	-12.0507
▁oppose	-12.0512
▁déférée	-12.0522
▁Li	-12.0527
▁élus	-12.0528
utiliser	-12.0531
accéder	-12.0531
exclure	-12.0534
▁privés	-12.0546
▁Suisse	-12.0549
▁restriction	-12.0551
▁exonération	-12.0555
formant	-12.0574
9/	-12.0576
▁exclue	-12.0577
▁engager	-12.0577
bail	-12.0581
▁emprunt	-12.0583
▁317	-12.0584
off	-12.0589
▁payée	-12.0608
▁Domaine	-12.0615
▁INCIDENT	-12.0615
▁Korian	-12.0615
▁Natixis	-12.0615
▁auparavant	-12.0615
▁confond	-12.0615
▁covid	-12.0615
▁libellé	-12.0615
▁préférence	-12.0615
▁rogatoire	-12.0615
▁livré	-12.0615
▁Thales	-12.0615
▁caduc	-12.0615
▁travaillait	-12.0615
▁Cave	-12.0616
opère	-12.0616
▁sportive	-12.0616
▁intervenant	-12.0617
▁contestant	-12.0617
▁grille	-12.0619
▁couple	-12.0619
▁successivement	-12.062
▁opérationnelle	-12.062
attache	-12.062
▁fournisseurs	-12.0623
▁télé	-12.0624
quitté	-12.0627
tif	-12.063
▁prérogatives	-12.0632
▁patrimoniale	-12.0634
▁impayées	-12.0635
▁tardivement	-12.0636
▁acquitté	-12.0639
▁vols	-12.0643
▁x	-12.0654
▁reporter	-12.0657
▁seing	-12.0668
abandon	-12.0671
▁corporel	-12.0674
▁plate	-12.0675
▁lésions	-12.0678
▁habilités	-12.0687
▁principalement	-12.0688
▁réunions	-12.0689
▁convenues	-12.0692
▁marine	-12.0692
éra	-12.0692
▁5].	-12.0694
▁actuel	-12.0698
assister	-12.07
avril	-12.0701
▁vendeurs	-12.0702
bes	-12.0702
exploiter	-12.0706
avenir	-12.071
▁consécutif	-12.072
▁citée	-12.0726
▁précédentes	-12.0736
▁interprétée	-12.0761
▁revendiquée	-12.0764
▁réput	-12.0768
▁constatées	-12.077
▁exproprié	-12.0772
interdisant	-12.0773
▁représentées	-12.0773
▁tra	-12.0779
▁participe	-12.0782
eprise	-12.0784
affirmative	-12.0785
élève	-12.0785
▁Cofidis	-12.0785
▁Sanofi	-12.0785
▁caduque	-12.0785
▁charpente	-12.0785
▁démocratique	-12.0785
▁nettoyage	-12.0785
▁rythme	-12.0785
▁Public	-12.0785
▁SAJU	-12.0785
▁licite	-12.0785
▁1-5)	-12.0785
▁Annulation	-12.0785
▁patrimoniaux	-12.0785
▁énumérés	-12.0785
▁stockage	-12.0785
▁SCEA	-12.0785
▁Lille	-12.0786
▁restait	-12.0787
▁kilomètres	-12.0788
bourg	-12.0789
▁couvre	-12.0789
▁urgence	-12.0791
▁susvisées	-12.0791
▁EXA	-12.0792
▁servie	-12.0796
oog	-12.0802
été	-12.0802
▁prévisions	-12.0803
▁donnés	-12.0803
▁rectifications	-12.0811
▁151	-12.0813
▁1184	-12.0813
▁partenaires	-12.0815
guen	-12.0818
▁ingérence	-12.0822
▁pratiquer	-12.0822
▁ex	-12.083
▁communs	-12.0837
ity	-12.0837
▁patient	-12.0841
aires	-12.0848
▁constatent	-12.0852
▁observé	-12.0859
▁spécialités	-12.086
▁figurer	-12.0863
▁expulsion	-12.0867
▁apposé	-12.0871
▁postérieur	-12.0874
habitat	-12.0875
▁incendie	-12.0875
.[	-12.0882
▁20],	-12.0885
▁servi	-12.0886
GS	-12.0887
▁lésion	-12.0893
▁2011.	-12.0893
▁avéré	-12.0895
▁signés	-12.0909
▁expir	-12.0913
tait	-12.0917
▁entière	-12.0934
MM	-12.0943
▁sanitaires	-12.0949
▁exigé	-12.0951
je	-12.0953
chaussée	-12.0957
▁Bulletin	-12.0957
▁Mandataires	-12.0957
▁confère	-12.0957
▁criminalité	-12.0957
▁diagnostic	-12.0957
▁dépositaire	-12.0957
▁froid	-12.0957
▁lotissement	-12.0957
▁mensualités	-12.0957
▁résulté	-12.0957
▁22-15.3	-12.0957
▁Press	-12.0957
▁référer	-12.0958
▁91-11	-12.0958
▁orientations	-12.0958
▁Comte	-12.0958
▁security	-12.0959
▁quantum	-12.0959
joindre	-12.0961
▁Catha	-12.0961
▁syndicaux	-12.0962
▁exposantes	-12.0963
▁développer	-12.0964
▁intentée	-12.0964
authenti	-12.0965
élevait	-12.0969
▁1386-	-12.0975
▁411-1	-12.0975
▁pourraient	-12.0978
vocation	-12.0978
▁machines	-12.0982
▁apparue	-12.0983
gées	-12.0987
▁coffre	-12.0995
▁brutale	-12.0996
irection	-12.0999
IR	-12.1008
▁énoncées	-12.1008
▁XL	-12.101
▁111	-12.101
547	-12.1015
▁jointes	-12.1022
▁gérante	-12.1029
avant	-12.1043
▁126	-12.1045
expulsion	-12.1048
corps	-12.1049
location	-12.1049
suffisamment	-12.1049
argumentation	-12.1049
onn	-12.1056
ifi	-12.1065
év	-12.1067
▁médicament	-12.1068
▁collectivité	-12.1068
▁...	-12.1071
illot	-12.1075
▁valide	-12.1077
31-7	-12.1083
▁vide	-12.1087
affect	-12.1087
▁[16]	-12.1089
▁constitués	-12.1091
viennent	-12.1093
▁règlements	-12.1105
tro	-12.1111
EQU	-12.1126
inobservation	-12.1127
244	-12.1131
▁réside	-12.1132
introduction	-12.1132
▁Debacq	-12.1132
▁Dolol	-12.1132
▁Présidence	-12.1132
▁Ridoux	-12.1132
▁Technologies	-12.1132
▁esthétique	-12.1132
▁interrogé	-12.1132
▁métropolitain	-12.1132
▁perspective	-12.1132
▁récépissé	-12.1132
▁651-2	-12.1132
▁camion	-12.1132
▁pilot	-12.1132
▁Haye	-12.1133
▁protéger	-12.1133
▁couvrir	-12.1133
▁prorogation	-12.1133
▁mon	-12.1133
▁devrait	-12.1135
Garonne	-12.1135
4-8)	-12.1136
▁1154-1	-12.1137
ord	-12.1137
▁(...)	-12.1139
▁modifications	-12.114
▁autorise	-12.1143
▁aspect	-12.1147
▁bénéfices	-12.1151
▁370	-12.1155
▁artiste	-12.1156
▁constructeurs	-12.1159
▁Keo	-12.1159
RC	-12.1163
ppe	-12.1173
▁fabriqué	-12.1174
▁soutenue	-12.1175
exige	-12.1186
vision	-12.1201
▁Roche	-12.1208
▁imputés	-12.1213
▁fermages	-12.1214
▁91	-12.1217
▁900	-12.1218
BS	-12.1224
▁380-1	-12.1225
Espagne	-12.1226
propriété	-12.1226
▁insuffisant	-12.1228
▁ch	-12.1228
▁électriques	-12.1229
▁137	-12.123
▁Dem	-12.1232
adresser	-12.1234
éta	-12.124
▁injustifié	-12.1242
CN	-12.1245
▁importation	-12.1255
▁installation	-12.1257
▁accompagnée	-12.1257
ama	-12.126
▁2009.	-12.126
▁qualifi	-12.126
▁imputée	-12.1266
ley	-12.1273
▁376	-12.1278
énoncé	-12.1283
PD	-12.1283
▁subir	-12.1287
▁majoré	-12.1293
venus	-12.13
▁supporté	-12.1304
escalier	-12.131
allégation	-12.131
▁Réside	-12.1311
ructidor	-12.1311
°2008-4	-12.1311
▁Feydeau	-12.1311
▁Règlement	-12.1311
▁adhéré	-12.1311
▁construit	-12.1311
▁imprévisible	-12.1311
▁reliquat	-12.1311
▁rétroactif	-12.1311
▁thèse	-12.1311
▁étage	-12.1311
▁musicien	-12.1311
▁Galy	-12.1311
errier	-12.1311
▁revente	-12.1312
▁provoquer	-12.1316
▁versait	-12.1322
▁Bruxelles	-12.1326
▁1958	-12.1331
▁consultations	-12.1331
▁articulation	-12.1332
▁accomplie	-12.1332
▁communautaire	-12.1336
▁livrée	-12.1341
CX	-12.1341
4/	-12.1349
▁devise	-12.1349
▁FCP	-12.1358
ôt	-12.1361
▁21],	-12.1372
▁demandées	-12.1377
▁mari	-12.1382
▁Groupement	-12.1389
▁Arc	-12.1397
▁sanctionnée	-12.1398
▁systématique	-12.14
▁désigne	-12.1402
▁admises	-12.1406
log	-12.1413
▁privative	-12.1428
▁compensateur	-12.1429
▁transférés	-12.1435
▁prêté	-12.1438
▁Ex	-12.144
▁réuni	-12.1445
20-1	-12.1457
▁suffisants	-12.1461
▁481	-12.1461
▁épargne	-12.147
▁posé	-12.1475
▁crim	-12.1475
▁filles	-12.1477
▁introduit	-12.148
▁agréé	-12.1486
implantation	-12.1493
▁85-677	-12.1493
▁Klesia	-12.1493
▁absent	-12.1493
▁complice	-12.1493
▁détenteur	-12.1493
▁loisirs	-12.1493
▁nantissement	-12.1493
▁neuvième	-12.1493
▁notoriété	-12.1493
▁ouvrière	-12.1493
▁positif	-12.1493
▁trompeuse	-12.1493
▁suspect	-12.1493
▁Baby	-12.1493
▁Plus	-12.1493
soust	-12.1493
▁Areas	-12.1493
▁1233-6	-12.1493
▁proportionnelle	-12.1493
▁chimie	-12.1493
mmes	-12.1495
▁connaissement	-12.1498
▁compenser	-12.15
▁subséquents	-12.1513
▁173	-12.1513
▁1979	-12.1523
▁1946	-12.1525
ingénieurs	-12.1534
▁233-1	-12.1542
▁prouve	-12.155
▁Sophi	-12.1559
▁vérifié	-12.1566
▁chargés	-12.1578
▁138	-12.1585
▁financé	-12.1586
▁cautionnements	-12.1586
▁normal	-12.1588
thé	-12.1591
Luxembourg	-12.1593
▁afférent	-12.1596
▁précédé	-12.1598
▁traite	-12.16
▁plans	-12.16
éa	-12.1603
▁facilit	-12.1604
▁arbitral	-12.1608
don	-12.1609
eo	-12.1612
▁prestataire	-12.1613
▁adverse	-12.1613
▁cédant	-12.1613
▁surabondant	-12.1614
▁VI	-12.1614
▁rapportent	-12.1616
GO	-12.1625
précontractuelle	-12.1626
/12	-12.1629
▁142-1	-12.163
▁agressions	-12.1638
▁agrément	-12.1642
▁ajoutée	-12.1643
venait	-12.1647
▁refusée	-12.1658
▁oral	-12.1659
▁sommaire	-12.1665
▁exécutoires	-12.1665
ose	-12.1668
▁sexuel	-12.1676
▁minor	-12.1678
affiliation	-12.1678
agglomération	-12.1678
ctivity	-12.1678
extorsion	-12.1678
implication	-12.1678
insolvabilité	-12.1678
▁Agrovin	-12.1678
▁LABROUSSE	-12.1678
▁acquisitive	-12.1678
▁concordants	-12.1678
▁justifiaient	-12.1678
▁nuisances	-12.1678
▁obligé	-12.1678
▁rédacteur	-12.1678
▁répressive	-12.1678
egt	-12.1678
▁2015-99	-12.1678
▁retirer	-12.1679
▁garage	-12.1679
▁DTD	-12.168
▁consentir	-12.168
▁vendredi	-12.1681
▁Gue	-12.1681
▁supplément	-12.1682
▁auditions	-12.1683
▁FIVA	-12.1683
▁payeur	-12.1684
▁Hôpita	-12.1685
▁Générale	-12.1685
▁suggéré	-12.1686
De	-12.1686
▁image	-12.169
▁sud	-12.1691
▁mail	-12.1695
▁continuer	-12.1697
▁vit	-12.1702
▁embauché	-12.1703
▁inexacte	-12.1717
▁clés	-12.1717
▁violer	-12.1723
▁humaines	-12.1728
▁incidents	-12.1728
▁hôtel	-12.173
lia	-12.1742
▁apparaiss	-12.1749
▁instituée	-12.1753
ZM	-12.1757
▁prolongée	-12.1758
▁imposent	-12.1762
▁2/	-12.1768
▁concert	-12.1775
environ	-12.1782
excès	-12.1783
Seine	-12.1783
▁matières	-12.1783
judiciaire	-12.1783
▁péremptoire	-12.1789
▁181	-12.1796
▁habituel	-12.1798
ssant	-12.1798
▁Que	-12.1799
▁prélèvement	-12.1802
▁incriminé	-12.1802
▁plu	-12.1803
▁désordre	-12.1805
associés	-12.181
▁Cara	-12.182
▁frappée	-12.1827
ban	-12.1833
▁rejetées	-12.1838
▁jointe	-12.184
Loir	-12.1851
▁89	-12.1854
▁implicite	-12.1854
▁publiée	-12.1855
DY	-12.1855
taire	-12.1864
ives	-12.1864
onc	-12.1865
habilitation	-12.1866
▁mécanique	-12.1867
esprit	-12.1867
▁Bouthors	-12.1867
▁Cegid	-12.1867
▁Daniel	-12.1867
▁conféré	-12.1867
▁demeurait	-12.1867
▁dissolution	-12.1867
▁souscrire	-12.1867
▁tribunaux	-12.1867
▁Gestion	-12.1867
▁1232-1	-12.1867
▁Equit	-12.1867
▁foyer	-12.1867
▁cuisine	-12.1867
▁TNT	-12.1867
▁dangereux	-12.1867
▁avances	-12.1868
▁quote	-12.1869
▁signifier	-12.1872
358	-12.1876
▁AXA	-12.1877
▁débiteurs	-12.1881
▁rendent	-12.1883
▁demeuré	-12.1886
▁LAPI	-12.1887
▁individu	-12.189
▁sort	-12.1892
▁SAFER	-12.1893
▁mes	-12.1902
▁privilégié	-12.1905
▁exiger	-12.1918
▁interdis	-12.1922
▁Dom	-12.1922
▁fi	-12.1923
▁déséquilibr	-12.1926
▁24],	-12.1938
ud	-12.1941
▁179	-12.1942
▁contraventions	-12.1942
▁911	-12.1947
▁recueillis	-12.1948
▁diminu	-12.195
▁exprimée	-12.1954
contractuelle	-12.1957
ICE	-12.1961
▁reprochées	-12.1971
interprété	-12.1973
▁hospitalisation	-12.1978
▁Mas	-12.1979
▁établissait	-12.1981
faire	-12.1981
▁essentielle	-12.1983
6/22	-12.1988
▁verbale	-12.1988
▁indemnisable	-12.1994
▁entré	-12.1995
▁gain	-12.1996
▁arrivé	-12.1997
▁amont	-12.1998
PM	-12.2002
▁92	-12.2008
▁concurrent	-12.2009
enseignement	-12.201
intimée	-12.2012
▁erronée	-12.2016
▁appliquée	-12.2023
arrière	-12.2028
▁apportée	-12.2029
EV	-12.2034
▁avenir	-12.2034
▁potentiel	-12.2037
▁arrêtée	-12.2037
exécut	-12.2047
anal	-12.2052
ysfonctionnement	-12.2059
▁CARPA	-12.2059
▁Relevé	-12.2059
▁hiérarchie	-12.2059
▁luxembourgeois	-12.2059
▁représentatif	-12.2059
▁réfection	-12.2059
▁Bourgogne	-12.2059
▁difficile	-12.2059
anéantissement	-12.2059
▁Parquet	-12.2059
▁Engie	-12.2059
▁plénière	-12.2059
▁stage	-12.2059
▁intimés	-12.206
▁rendez	-12.206
▁avenants	-12.2063
▁caractérisation	-12.2063
▁conservées	-12.2063
États	-12.2066
igne	-12.2067
▁démontrent	-12.2068
oli	-12.2072
▁subsister	-12.2076
▁conserve	-12.2081
▁identifié	-12.2084
▁Tele	-12.2086
UG	-12.2088
▁sienne	-12.2103
ISS	-12.2111
▁175	-12.2112
▁déboutés	-12.2116
▁informe	-12.2122
▁cantonn	-12.2123
▁annexées	-12.2124
▁2019)	-12.2133
▁exclues	-12.2146
venir	-12.2147
là	-12.2162
surveillance	-12.2164
insertion	-12.217
hypothèque	-12.217
acquérir	-12.2171
subsidiaire	-12.2171
contentieux	-12.2171
▁clair	-12.2172
ZT	-12.2174
▁régi	-12.2177
▁26],	-12.2181
interjet	-12.2185
▁déco	-12.2185
▁exact	-12.2185
portaient	-12.2186
▁caché	-12.2191
▁éventuelles	-12.2191
▁Gard	-12.2203
▁spéciales	-12.2213
1/22	-12.2217
uté	-12.2225
▁chauffeurs	-12.2228
lectricité	-12.2253
▁HSBC	-12.2255
▁Peugeot	-12.2255
▁Président	-12.2255
▁alternative	-12.2255
▁entraînant	-12.2255
▁incomplète	-12.2255
▁infalsifiable	-12.2255
▁principaux	-12.2255
▁scission	-12.2255
▁succéder	-12.2255
▁tutrice	-12.2255
▁variation	-12.2255
▁virus	-12.2255
▁américain	-12.2255
▁transitoire	-12.2255
▁Total	-12.2255
▁chauffage	-12.2255
▁Montana	-12.2255
▁directoire	-12.2255
▁Production	-12.2256
▁Roque	-12.2256
▁Continental	-12.2256
▁formulaire	-12.2257
▁logements	-12.2257
▁intéressées	-12.2257
▁contenait	-12.2258
▁dixième	-12.2259
omettant	-12.2261
▁factuelle	-12.2261
▁respectée	-12.2262
▁83	-12.2263
▁commandé	-12.2268
▁implicitement	-12.2268
▁143-1	-12.2275
▁réservé	-12.2275
concl	-12.2279
▁transférée	-12.2282
▁1978	-12.2289
▁[8],	-12.2297
▁544	-12.2306
▁pertinents	-12.2306
éré	-12.2306
▁mobilités	-12.2319
▁évolution	-12.232
▁MJS	-12.2322
éventuel	-12.2327
▁verbal	-12.2329
▁édictée	-12.2336
▁régularisée	-12.2338
MB	-12.2342
4/22	-12.2342
▁redevances	-12.2343
▁Ho	-12.2353
mettent	-12.2361
▁utiliser	-12.2362
▁appartenance	-12.2362
trice	-12.2364
isant	-12.2367
▁622-2	-12.2368
professionnel	-12.2368
▁situations	-12.237
architecture	-12.237
▁régularisé	-12.2371
exacte	-12.2375
▁institué	-12.2375
imposent	-12.2378
▁informatiques	-12.238
▁inscrire	-12.2383
▁bases	-12.2383
▁211	-12.2389
▁claires	-12.239
▁diplôme	-12.239
▁mobilité	-12.239
▁remorque	-12.2393
▁pathologies	-12.2395
lou	-12.2396
▁388	-12.2397
BI	-12.2416
▁introduites	-12.2419
625	-12.2421
▁immatriculation	-12.2422
éité	-12.2422
hui	-12.2426
assistant	-12.2431
▁reporté	-12.2434
▁exclusifs	-12.2436
héritières	-12.2438
▁rattach	-12.244
▁déten	-12.2445
▁198	-12.2445
▁manutention	-12.245
éclair	-12.2453
▁aérien	-12.2453
évinçai	-12.2453
ATION	-12.2454
anomalie	-12.2455
habillage	-12.2455
Urssaf	-12.2455
ingenierie	-12.2455
interception	-12.2455
épreuve	-12.2455
▁2004-146	-12.2455
▁Aviva	-12.2455
▁Bouygues	-12.2455
▁Zurich	-12.2455
▁délibérative	-12.2455
▁légataire	-12.2455
▁matrimonial	-12.2455
▁pression	-12.2455
▁Alliance	-12.2455
▁affilié	-12.2455
▁instrumentaire	-12.2455
▁paisible	-12.2455
▁télécopie	-12.2455
▁Print	-12.2455
ouquet	-12.2455
▁Claud	-12.2455
▁référant	-12.2455
▁431-3	-12.2456
▁terrestre	-12.2456
▁Camp	-12.2456
▁enjoint	-12.2456
▁atteints	-12.2456
9/23	-12.2456
alter	-12.2457
▁transformation	-12.2458
▁JSA	-12.2461
▁111-3	-12.2466
▁métiers	-12.2475
▁culturelles	-12.2481
inform	-12.2481
illage	-12.2483
affecte	-12.2484
nce	-12.2485
pé	-12.2493
▁sonores	-12.2494
▁interventions	-12.2497
▁évaluée	-12.2498
usine	-12.25
▁estimer	-12.2503
▁psychiatriques	-12.2504
▁Nex	-12.2506
▁Fillon	-12.2508
CGC	-12.2509
▁(12	-12.2511
▁passer	-12.2513
▁Louis	-12.2513
▁121	-12.2515
▁nue	-12.2517
▁témoignages	-12.2518
▁1989,	-12.2518
▁contradictoires	-12.2519
page	-12.2522
ché	-12.2526
euro	-12.2528
▁actuels	-12.2532
▁662	-12.2536
ij	-12.2538
▁systèmes	-12.2539
▁approprié	-12.2541
▁intimée	-12.2546
▁fort	-12.2548
ici	-12.2548
▁802	-12.2548
▁119	-12.255
▁insurmontables	-12.255
▁Sodi	-12.2551
▁complété	-12.2554
▁intitulée	-12.2562
inter	-12.2571
oblige	-12.2572
interrogatoire	-12.2575
CGEA	-12.2575
effectif	-12.2575
époux	-12.2576
▁TP	-12.2576
empir	-12.258
▁employée	-12.2581
41-4	-12.2587
▁trimestres	-12.259
issait	-12.2591
▁restitué	-12.2594
▁adoptée	-12.262
éventuelle	-12.262
naise	-12.2622
▁706-1	-12.2625
▁fusion	-12.2627
▁recommandé	-12.2643
▁parfait	-12.2643
▁large	-12.2647
▁habituelles	-12.2648
▁précédents	-12.2652
DV	-12.2656
▁313-1	-12.2656
▁Mutuel	-12.2657
investisseur	-12.2659
organe	-12.2659
▁jeunes	-12.2659
Peruzzetto	-12.2659
homologation	-12.2659
opposait	-12.2659
▁1226-14	-12.2659
▁21-18.5	-12.2659
▁Deutsch	-12.2659
▁Ekip	-12.2659
▁boissons	-12.2659
▁conférer	-12.2659
▁expédié	-12.2659
▁ferroviaire	-12.2659
▁justiciable	-12.2659
▁licencier	-12.2659
▁préposé	-12.2659
▁ravalement	-12.2659
▁supprimer	-12.2659
▁transpos	-12.2659
perche	-12.2659
▁22-20.0	-12.2659
▁aviation	-12.2659
▁jardin	-12.2659
▁Clos	-12.2659
▁Fides	-12.2659
▁20-22.	-12.266
▁actualisé	-12.266
▁muni	-12.266
▁préambule	-12.266
▁acheté	-12.266
▁déroger	-12.2662
▁piscine	-12.2663
alité	-12.2664
▁bière	-12.2665
▁relaxer	-12.2669
▁révéler	-12.2669
▁distinguer	-12.267
▁Col	-12.267
▁Mise	-12.268
▁convertie	-12.2681
▁5°)	-12.2683
▁anglaise	-12.2685
▁apparent	-12.2689
▁exécutés	-12.2691
▁Delta	-12.2692
▁justement	-12.2695
▁auxiliaires	-12.2695
9/22	-12.2695
▁explique	-12.27
▁insérée	-12.27
▁arriéré	-12.2702
▁orales	-12.2703
▁sites	-12.2706
▁entrave	-12.2708
▁537	-12.2711
▁intégralité	-12.2711
compte	-12.2718
067	-12.2721
200	-12.2736
▁intervenants	-12.2739
obligeant	-12.2741
▁verse	-12.2742
TX	-12.2743
prod	-12.2743
▁virements	-12.2747
▁Cham	-12.2752
mé	-12.2753
▁coûts	-12.2754
▁réclamés	-12.2762
▁apposée	-12.2762
▁assurées	-12.2768
▁électorale	-12.2769
▁appropriée	-12.2779
évidence	-12.2783
production	-12.2783
Corse	-12.2783
avec	-12.2784
vingt	-12.2784
▁suspendue	-12.2788
▁139	-12.2791
▁arrière	-12.2794
▁Fils	-12.2796
droit	-12.2797
▁agréée	-12.2801
▁témoignage	-12.2804
▁135	-12.2806
▁arbitraire	-12.2812
▁qualifications	-12.282
▁174	-12.283
▁rapproch	-12.283
▁décerné	-12.2838
WY	-12.284
▁(11	-12.2848
▁contraint	-12.2849
▁rectifi	-12.2849
▁pleine	-12.285
▁virtuel	-12.2851
▁classe	-12.2855
▁nés	-12.2862
▁Ke	-12.2862
▁précède	-12.2865
▁concept	-12.2867
▁Moneta	-12.2868
▁Yvelines	-12.2868
▁apparthôtels	-12.2868
▁compagne	-12.2868
▁gauche	-12.2868
▁indifférent	-12.2868
▁parasitisme	-12.2868
▁résidant	-12.2868
▁résilier	-12.2868
▁détourné	-12.2868
▁sportif	-12.2868
▁homologué	-12.2868
▁Nantes	-12.2868
▁série	-12.2868
6/23	-12.2868
▁perdre	-12.2869
▁diriger	-12.2869
▁franchiseur	-12.2869
évinçaient	-12.2869
▁bord	-12.2869
▁saisissant	-12.287
▁continuation	-12.287
▁revendiquer	-12.287
▁Garage	-12.2871
▁colis	-12.2871
▁redevables	-12.2872
▁remettant	-12.2874
▁correspondaient	-12.2874
▁cite	-12.2874
▁courtier	-12.2876
▁initiative	-12.289
▁réservation	-12.2892
▁adjoint	-12.2893
2/22	-12.2893
pli	-12.2895
▁conformer	-12.2897
19-10	-12.2899
group	-12.2901
▁affecter	-12.2902
gnant	-12.2906
▁gérance	-12.291
amb	-12.291
▁Espace	-12.2911
▁final	-12.2921
▁notariale	-12.2923
DN	-12.2926
▁trouvée	-12.293
heure	-12.2933
▁565	-12.2936
Pau	-12.2936
aff	-12.2938
▁appliquées	-12.2943
▁déf	-12.2946
audit	-12.2953
▁classé	-12.2959
▁pécuniaires	-12.2961
▁ouverts	-12.2964
5/22	-12.2969
009	-12.2971
▁protégée	-12.2971
▁proposée	-12.2975
▁alimentaires	-12.2982
▁reçus	-12.2985
32-4	-12.2987
▁classée	-12.2987
imposait	-12.2996
BAT	-12.2999
▁665,	-12.3003
▁123	-12.3003
quer	-12.3004
CGT	-12.3007
▁113	-12.3011
lire	-12.3022
TAG	-12.3026
▁probant	-12.303
▁indication	-12.303
▁461	-12.3041
BP	-12.3044
▁jou	-12.3046
▁414	-12.3046
▁dévolution	-12.3051
▁OP	-12.3064
▁lignes	-12.3072
▁Arca	-12.3074
▁régiss	-12.3078
▁criminel	-12.3078
onfédération	-12.3079
évasion	-12.308
▁22-23.1	-12.308
▁Airbus	-12.308
▁Chubb	-12.308
▁Sarthe	-12.308
▁capitaux	-12.308
▁certes	-12.308
▁dérisoire	-12.308
▁fuite	-12.308
▁poids	-12.308
▁reconstruction	-12.308
▁rugby	-12.308
▁préconisations	-12.308
▁soumission	-12.308
▁corruption	-12.308
▁messagerie	-12.3081
attitude	-12.3081
▁naître	-12.3081
tôt	-12.3082
▁institutions	-12.3082
▁GRD	-12.3082
▁monde	-12.3082
1/23	-12.3082
▁Bourge	-12.3084
▁117	-12.3084
▁1121-1	-12.3087
▁intermédiaire	-12.3089
▁dépendant	-12.3089
7/22	-12.309
▁ordonnées	-12.3091
HLM	-12.3091
▁situe	-12.3095
▁confier	-12.3098
▁allemand	-12.3099
▁Media	-12.3106
appréci	-12.3106
ibilité	-12.3119
▁1980	-12.3121
▁314-1	-12.3127
▁irrévocablement	-12.3128
▁imprécise	-12.3129
▁indiquée	-12.3131
vait	-12.3132
ood	-12.3147
agression	-12.3149
▁obtenues	-12.315
▁imputation	-12.3153
▁mensuelles	-12.3156
▁décomptes	-12.316
▁consécutifs	-12.3162
oyer	-12.3169
▁préconisé	-12.3174
▁u	-12.3175
atif	-12.3179
▁administratifs	-12.3186
▁assister	-12.3188
naire	-12.3193
échange	-12.3213
▁réputés	-12.3213
Pays	-12.3214
Colmar	-12.3214
appartient	-12.3215
exploitant	-12.3216
▁110	-12.3219
entité	-12.3232
gal	-12.324
tie	-12.3241
▁interprétés	-12.3242
▁ADP	-12.3262
argument	-12.3267
0/22	-12.327
▁calculer	-12.3281
/2023	-12.329
▁reconnaît	-12.3296
▁recueil	-12.3297
▁cap	-12.3298
▁concession	-12.3298
AGRASC	-12.3298
ONIAM	-12.3298
▁Crèche	-12.3298
▁GAEC	-12.3298
▁Sodimas	-12.3298
▁allouant	-12.3298
▁fiscaux	-12.3298
▁incombant	-12.3298
▁intermittent	-12.3298
▁maternité	-12.3298
▁négative	-12.3298
▁onéreux	-12.3298
▁persona	-12.3298
▁religion	-12.3298
▁rétrocession	-12.3298
▁sciemment	-12.3298
▁scientifique	-12.3298
▁survivant	-12.3298
▁éducative	-12.3298
▁Bolt	-12.3298
▁profil	-12.3298
▁1232-6	-12.3298
▁Montfort	-12.3298
▁retiré	-12.3298
▁démontraient	-12.3298
▁préfecture	-12.3298
▁commissionnaire	-12.3298
▁compromettre	-12.3299
▁Melun	-12.3299
▁interim	-12.3299
XM	-12.33
▁Drôme	-12.33
▁validant	-12.3304
▁prolonger	-12.3306
▁434-1	-12.3306
▁choisir	-12.3307
ESF	-12.3309
▁dessaisi	-12.3309
050	-12.3311
▁connue	-12.3311
▁torture	-12.3314
3-6	-12.3315
▁270	-12.3315
▁biennale	-12.332
▁clôturée	-12.3322
▁transactionnel	-12.3326
▁diffamatoires	-12.333
▁CCP	-12.3331
immobilisation	-12.3332
ich	-12.3345
▁1242-1	-12.3346
▁immatriculée	-12.3354
▁contredire	-12.3358
▁échec	-12.3362
vider	-12.3366
▁évidence	-12.3387
▁internes	-12.3387
▁23-17.	-12.3409
▁fautifs	-12.341
activ	-12.3413
▁journées	-12.3415
▁époque	-12.3417
▁fai	-12.3419
RY	-12.343
inscrit	-12.3436
perçu	-12.3436
▁semi	-12.3438
8]),	-12.3442
▁préjudiciable	-12.3455
▁similaire	-12.3455
▁médicales	-12.3457
alys	-12.3457
▁soin	-12.3458
▁désignations	-12.3459
▁intervenante	-12.3461
▁arrêtés	-12.3461
▁inventaire	-12.3464
▁To	-12.3465
Vienne	-12.3465
▁351-1	-12.3476
▁Charente	-12.3482
▁exploite	-12.3492
▁unilatéral	-12.3504
▁édifiée	-12.3504
fo	-12.3504
tel	-12.3506
▁loyale	-12.3507
accompagn	-12.3514
intim	-12.3518
▁Brasserie	-12.352
▁Estimant	-12.352
▁Griel	-12.352
▁Montreuil	-12.352
▁collectées	-12.352
▁multiples	-12.352
▁soutiennent	-12.352
▁Lidl	-12.352
▁Palais	-12.352
▁canalisation	-12.352
▁Axyme	-12.352
▁déshabillage	-12.352
▁1226-2	-12.352
▁Center	-12.352
emplacement	-12.352
▁modulation	-12.352
▁Nice	-12.3522
▁Teva	-12.3522
▁train	-12.3526
▁rétablissement	-12.3527
▁impliquait	-12.3529
▁22-18.6	-12.353
5/23	-12.3537
▁objectivement	-12.3539
dentistes	-12.354
▁fausses	-12.3543
▁abstenue	-12.3544
tero	-12.3544
▁examens	-12.3547
▁CEGC	-12.3548
▁originaires	-12.3548
▁fruits	-12.355
▁1967	-12.3555
▁Am	-12.3576
rice	-12.3577
cte	-12.3583
▁20-15	-12.3589
▁péremptoires	-12.3597
PO	-12.3599
actionnaire	-12.36
▁souhaité	-12.36
▁couru	-12.3604
▁imposait	-12.3609
111	-12.3612
▁commet	-12.3614
▁placées	-12.3618
▁objectives	-12.362
▁comprendr	-12.3624
▁envoyée	-12.3629
▁for	-12.3636
▁étude	-12.3638
cours	-12.3644
▁The	-12.3646
▁acquises	-12.366
SMABTP	-12.3663
▁assimilé	-12.3664
ologique	-12.3665
▁conducteurs	-12.3672
▁limitations	-12.3673
▁réceptionné	-12.3677
eoir	-12.3678
▁situées	-12.3683
▁proche	-12.3684
22-6	-12.3686
▁écoulé	-12.3692
▁485	-12.3695
▁crédits	-12.3704
▁paragraphes	-12.3704
apparaissait	-12.3716
2-6	-12.372
▁critiquée	-12.3721
JF	-12.3721
▁abstenu	-12.3723
▁allemande	-12.3727
▁ministériel	-12.3733
▁Dr	-12.3733
▁380	-12.3737
▁2016-1	-12.3741
▁anormale	-12.3742
initié	-12.3747
Declère	-12.3747
▁Bobigny	-12.3747
▁Gesdom	-12.3747
▁Immobilier	-12.3747
▁Juan	-12.3747
▁crise	-12.3747
▁dignité	-12.3747
▁discuter	-12.3747
▁détaché	-12.3747
▁gagner	-12.3747
▁imposable	-12.3747
▁indifférenciée	-12.3747
▁lucratif	-12.3747
▁marketing	-12.3747
▁opératoire	-12.3747
▁perçoit	-12.3747
▁subrogatoire	-12.3747
▁discrétionnaire	-12.3747
▁spontané	-12.3747
▁chute	-12.3747
▁contentant	-12.3747
▁Energy	-12.3747
▁retranchement	-12.3747
▁fasse	-12.3747
▁313-2	-12.3747
▁taxi	-12.3748
▁Niort	-12.3748
▁suppléant	-12.3749
▁commercialisé	-12.3749
▁expliqué	-12.3749
▁procuration	-12.3749
2/23	-12.375
▁pèse	-12.375
ède	-12.3751
associée	-12.3752
▁facturé	-12.3763
▁contenter	-12.3765
▁échange	-12.3771
▁films	-12.3778
infirmière	-12.3778
imprécision	-12.3792
▁survenus	-12.3792
▁Capital	-12.3799
▁répar	-12.3799
▁584	-12.3803
▁essentiels	-12.3808
▁utilisées	-12.3809
issant	-12.381
▁gré	-12.381
équilibre	-12.3822
tru	-12.3822
▁restée	-12.3824
▁heurt	-12.3824
▁131	-12.3829
engendrer	-12.383
▁annulées	-12.3831
▁extraits	-12.3844
arr	-12.3848
7]),	-12.3858
▁cesse	-12.3858
aissent	-12.386
389	-12.3861
▁modèles	-12.3862
VY	-12.3877
▁220	-12.3881
engageait	-12.3885
▁458	-12.3887
▁475	-12.389
empêchement	-12.3895
excéd	-12.3895
Sophi	-12.3895
accomplir	-12.3896
▁Hug	-12.3896
soit	-12.3897
▁Maisons	-12.3905
▁impôt	-12.3908
▁journaliste	-12.3915
▁frère	-12.3915
bio	-12.3921
ze	-12.3921
▁publiés	-12.3922
▁signifiées	-12.3925
▁plafonds	-12.3927
TGA	-12.3928
▁2261	-12.3932
▁fourniss	-12.3935
▁Port	-12.3937
Bas	-12.3949
▁fondation	-12.3952
▁indemnisés	-12.3962
▁dénonce	-12.3968
aptitude	-12.3978
blocage	-12.398
érogé	-12.398
▁AIFM	-12.398
▁Finamur	-12.398
▁Maitral	-12.398
▁charte	-12.398
▁complexité	-12.398
▁restreint	-12.398
▁retrouvé	-12.398
▁suffire	-12.398
▁débattus	-12.398
▁22-21.5	-12.398
▁Berry	-12.398
▁RATP	-12.398
▁1471-1	-12.398
▁Tours	-12.398
▁infiltrations	-12.398
7/23	-12.398
▁223-2	-12.398
▁démissionné	-12.398
▁initiée	-12.398
aujour	-12.3981
▁affections	-12.3981
▁Desport	-12.3981
▁137-3	-12.3981
encadrement	-12.3983
▁désaccord	-12.3983
▁Guy	-12.3986
▁[10],	-12.3989
▁attendu	-12.3991
▁311-2	-12.3993
évacuation	-12.3995
▁édifié	-12.3997
▁[11],	-12.3998
▁armé	-12.3998
▁traduis	-12.4001
▁CARSAT	-12.4001
▁répondait	-12.4003
▁précarité	-12.4005
▁hommes	-12.4007
▁mairie	-12.4007
▁Rev	-12.4009
▁202	-12.4011
▁LBI	-12.4012
indique	-12.4024
mic	-12.4026
▁chirurgiens	-12.4028
▁passagers	-12.4029
▁incrimination	-12.4031
▁attribution	-12.4036
▁CFE	-12.4037
▁590	-12.4038
▁réitéré	-12.4059
▁respectant	-12.4064
▁formul	-12.4078
▁109	-12.4081
▁électoral	-12.4091
▁Merc	-12.4096
▁Gar	-12.4101
▁emprunté	-12.4102
endettement	-12.4103
▁détaill	-12.4103
envisager	-12.4113
▁dépass	-12.4114
élud	-12.4121
KN	-12.4123
Algérie	-12.4133
essentiel	-12.4133
Auvergne	-12.4134
service	-12.4134
point	-12.4134
Rouen	-12.4134
▁mandaté	-12.415
▁voyage	-12.4152
▁logiciel	-12.4153
▁modalité	-12.4154
experts	-12.4157
▁cédée	-12.4158
lac	-12.416
▁Royaume	-12.4162
▁Med	-12.4165
interrompre	-12.4168
enfin	-12.4168
▁assimilée	-12.4169
▁éloignement	-12.4172
▁imposer	-12.4174
▁recommandées	-12.4192
MF	-12.4197
▁provisionnel	-12.4199
itan	-12.4202
▁rencontrée	-12.4205
▁déroge	-12.4215
usufruit	-12.4215
▁consentis	-12.4216
▁utilisation	-12.4216
amélioration	-12.4217
abstenir	-12.4218
emprise	-12.4218
▁1233-4	-12.4218
▁Altamir	-12.4218
▁Bristol	-12.4218
▁Fiumarella	-12.4218
▁Syntec	-12.4218
▁artistique	-12.4218
▁ascendant	-12.4218
▁dégénér	-12.4218
▁incomplet	-12.4218
▁méconnaissent	-12.4218
▁médiateur	-12.4218
▁prorata	-12.4218
▁reproduit	-12.4218
▁réitération	-12.4218
▁signalétiques	-12.4218
▁thérapeutique	-12.4218
▁vraisemblable	-12.4218
▁vénale	-12.4218
▁épuisé	-12.4218
AARPI	-12.4218
▁probable	-12.4218
▁CFTC	-12.4218
▁processus	-12.4218
▁interviendra	-12.4218
▁442-6	-12.4218
▁Manoir	-12.4218
▁Domino	-12.4218
▁rapprochement	-12.4218
ariel	-12.4219
▁Marine	-12.4219
▁FHB	-12.422
inland	-12.4221
▁2019-22	-12.4221
▁1224-1	-12.4222
▁causal	-12.4222
▁FYBE	-12.4224
▁illicites	-12.4225
▁121-3	-12.4231
▁Vol	-12.4232
ITU	-12.4233
▁Soc	-12.4233
▁sollicitées	-12.4238
343-2	-12.424
▁respectifs	-12.4245
▁engage	-12.4245
▁Cie	-12.4246
abrique	-12.4247
assistante	-12.4248
attendre	-12.4249
▁souhaite	-12.4253
▁signées	-12.4261
23-16	-12.4262
▁réciproques	-12.4262
▁enregistrement	-12.4263
hom	-12.4271
▁Spa	-12.4272
▁formations	-12.4274
▁établisse	-12.4274
▁remett	-12.4279
▁achèvement	-12.4281
▁comités	-12.4281
traité	-12.4285
SK	-12.4286
▁préjudiciables	-12.4288
▁entendus	-12.4289
▁invest	-12.4291
▁interdite	-12.4292
▁873	-12.4295
5/	-12.4296
8/22	-12.4309
▁écartés	-12.432
▁acquérir	-12.4322
▁confiés	-12.4324
▁trajets	-12.4324
▁tranches	-12.4334
▁460	-12.4343
▁matérielles	-12.435
▁différences	-12.4368
▁juridiquement	-12.4369
▁terre	-12.4369
▁CNA	-12.4372
extrait	-12.4378
786	-12.4378
827	-12.4378
Poitiers	-12.4378
▁aboutir	-12.4381
BJ	-12.4383
▁consenties	-12.4386
▁importantes	-12.4391
▁militaire	-12.4397
▁vexatoire	-12.4397
▁ordinaire	-12.4397
▁locative	-12.4397
istant	-12.44
▁humaine	-12.4401
asso	-12.4419
▁visites	-12.4427
▁causée	-12.4429
▁remplacé	-12.4432
▁fondamental	-12.4443
VV	-12.4444
ind	-12.4447
▁153	-12.4448
▁annexes	-12.4448
▁rétroactive	-12.4449
▁investie	-12.4455
▁14-1	-12.4457
▁reprend	-12.446
ê	-12.4461
▁transmet	-12.4462
EHPAD	-12.4462
▁Atalian	-12.4462
▁Ensuite	-12.4462
▁Propreté	-12.4462
▁boîte	-12.4462
▁bruit	-12.4462
▁consistait	-12.4462
▁matérialis	-12.4462
▁productivité	-12.4462
▁renvoyant	-12.4462
▁reçoit	-12.4462
▁récompense	-12.4462
▁résultaient	-12.4462
▁solidité	-12.4462
▁sommation	-12.4462
▁gardien	-12.4462
▁révèle	-12.4462
imprudence	-12.4462
▁puissance	-12.4462
▁244-2	-12.4462
▁spécificité	-12.4462
▁FGTI	-12.4462
▁Mission	-12.4462
▁répétés	-12.4462
▁liquidatrice	-12.4462
▁définissant	-12.4462
▁avenue	-12.4462
▁inapplicable	-12.4462
▁18-24.	-12.4463
▁CDR	-12.4463
0/23	-12.4463
▁continuité	-12.4463
▁remplacer	-12.4463
3/23	-12.4464
▁Caza	-12.4464
▁roulant	-12.4465
▁niveaux	-12.4465
▁réparable	-12.4467
▁suppléer	-12.4467
▁revers	-12.4467
▁limitativement	-12.4468
▁définit	-12.4469
▁prothèses	-12.4469
utualité	-12.447
▁net	-12.4471
▁hormis	-12.4473
231-1	-12.4477
▁OPer	-12.4477
▁Food	-12.448
▁321-1	-12.4481
▁essentiel	-12.4481
▁murs	-12.4482
▁118	-12.4486
▁obtenue	-12.4494
▁quittances	-12.4496
▁1719	-12.45
▁stratégiques	-12.4501
5]),	-12.4503
▁[8]	-12.4503
▁opposables	-12.4509
dine	-12.451
▁140	-12.451
▁secours	-12.4513
▁relaté	-12.4513
▁vendus	-12.4519
rim	-12.4523
allait	-12.4526
lor	-12.4534
▁sub	-12.4537
▁réprime	-12.4539
2]),	-12.4539
BK	-12.454
▁imposition	-12.4542
élécommunication	-12.4544
▁Algérie	-12.4549
12-4	-12.455
▁avérée	-12.4551
▁corporels	-12.4556
rée	-12.4556
▁légitimes	-12.456
ouche	-12.456
▁464	-12.4562
▁cumulé	-12.4563
▁expertises	-12.4564
▁reconnus	-12.457
▁octroyé	-12.4576
▁236	-12.4577
▁641	-12.458
▁mouvements	-12.458
▁notifiés	-12.4581
▁concerté	-12.4583
tation	-12.4589
▁enlèvement	-12.4589
▁form	-12.459
▁administrateurs	-12.459
▁125	-12.4595
▁propose	-12.4597
▁insuffisantes	-12.46
▁230	-12.4608
▁369	-12.4612
▁Audi	-12.4613
▁réduite	-12.4614
▁prouvé	-12.4615
▁réitérée	-12.4627
Hél	-12.4627
imputation	-12.4627
Chambéry	-12.4628
▁pertinent	-12.4628
invoquer	-12.4631
rendu	-12.4633
▁bar	-12.4647
▁ressortissant	-12.4648
▁No	-12.465
▁souligne	-12.4651
▁italienne	-12.4651
▁intentionnel	-12.4654
GF	-12.4654
/19	-12.4656
▁fonctionnaire	-12.4656
▁consultant	-12.4661
▁accordées	-12.4665
▁annul	-12.4675
occupant	-12.4676
MAF	-12.4678
Pas	-12.468
▁anglais	-12.468
fic	-12.4683
▁centrales	-12.4692
▁ultérieur	-12.4693
▁tri	-12.4693
▁petite	-12.4694
▁Non	-12.4695
▁incluse	-12.4697
▁fournie	-12.4697
11-5	-12.4698
ARS	-12.47
▁suffis	-12.4703
endroit	-12.471
▁concubin	-12.4711
CTION	-12.4712
antériorité	-12.4712
embarquement	-12.4712
incertitude	-12.4712
▁Beauty	-12.4712
▁Carglass	-12.4712
▁Corporation	-12.4712
▁Daiichi	-12.4712
▁Exane	-12.4712
▁Films	-12.4712
▁Hydroption	-12.4712
▁Meurthe	-12.4712
▁Polytiane	-12.4712
▁chirographaire	-12.4712
▁déconfiture	-12.4712
▁irrémédiable	-12.4712
▁participant	-12.4712
▁préexistant	-12.4712
▁raccordement	-12.4712
▁secrétariat	-12.4712
▁soulever	-12.4712
▁22-83.9	-12.4712
▁exposait	-12.4712
▁instituteur	-12.4712
▁Asset	-12.4712
▁manager	-12.4712
▁contenir	-12.4712
▁Franc	-12.4712
équité	-12.4712
▁contracter	-12.4712
▁pharmacie	-12.4713
▁percevait	-12.4713
alliance	-12.4713
▁substituant	-12.4713
4/23	-12.4713
▁espagnol	-12.4714
▁2016-3	-12.4714
▁achats	-12.4715
▁Rhe	-12.4715
▁Suez	-12.4716
▁1226-10	-12.4716
▁contredit	-12.4716
▁ajout	-12.472
▁régulières	-12.472
▁exprès	-12.472
▁autoriser	-12.4721
▁contribuer	-12.4721
▁indivision	-12.4723
▁infondé	-12.4727
adéquation	-12.4731
257	-12.4732
▁parental	-12.4734
OPH	-12.4735
▁relat	-12.4737
▁Mone	-12.4742
▁exploitations	-12.4747
Val	-12.4747
pole	-12.4748
▁1741	-12.4754
▁1974	-12.4755
▁entendait	-12.4758
▁adversaire	-12.476
▁441-1	-12.4762
itro	-12.4763
▁veiller	-12.4766
▁avertissement	-12.4779
▁cote	-12.4782
▁opérer	-12.4782
▁145-2	-12.4784
▁136	-12.4787
▁critiquées	-12.4791
raient	-12.4791
ouvrir	-12.4792
▁diplômes	-12.4793
▁cédants	-12.48
32-3	-12.4802
érité	-12.4805
▁patients	-12.4807
▁1034	-12.4814
JJ	-12.4815
▁détaillée	-12.4817
▁poursuivies	-12.4829
▁3.3	-12.483
nova	-12.4831
▁pourvus	-12.4843
▁envisage	-12.4843
▁événements	-12.4843
▁40],	-12.4848
5-5	-12.4858
nalité	-12.4861
258	-12.4867
▁228	-12.4869
inco	-12.487
chet	-12.4873
venant	-12.4875
▁ajouter	-12.4875
▁illégal	-12.4879
arrivée	-12.4883
performance	-12.4884
inviter	-12.4892
711	-12.4893
▁détaillé	-12.4895
olf	-12.4896
▁débuté	-12.4901
▁resté	-12.4902
accepter	-12.4903
▁127	-12.4903
voir	-12.4907
▁contrôlé	-12.491
▁séparé	-12.4919
▁atteste	-12.4921
▁départements	-12.4922
▁euro	-12.4936
▁transfér	-12.4951
▁121-2	-12.4954
▁Mis	-12.4959
▁déduite	-12.4962
▁pages	-12.4962
oris	-12.4963
▁accidentel	-12.4965
▁indemnise	-12.4967
arbitre	-12.4968
▁CONST	-12.4968
▁2002/58	-12.4968
Amsellem	-12.4968
▁World	-12.4968
Gougeon	-12.4968
Hérault	-12.4968
hôpital	-12.4968
innocence	-12.4968
offrant	-12.4968
▁22-22.0	-12.4968
▁Altarea	-12.4968
▁Communication	-12.4968
▁Consulting	-12.4968
▁Credinvest	-12.4968
▁Guérin	-12.4968
▁Mercedes	-12.4968
▁Versicherung	-12.4968
▁censuré	-12.4968
▁contigu	-12.4968
▁convaincre	-12.4968
▁dimanche	-12.4968
▁disposaient	-12.4968
▁inutile	-12.4968
▁majoritaire	-12.4968
▁permanence	-12.4968
▁pourcentage	-12.4968
▁restreindre	-12.4968
▁plancher	-12.4968
EPFR	-12.4968
▁HPVI	-12.4968
▁Carrier	-12.4968
Anneau	-12.4968
▁mines	-12.4968
▁grossesse	-12.4968
▁infirme	-12.4968
▁créatif	-12.4968
▁sortir	-12.4969
apparence	-12.4969
Allier	-12.4969
▁confrontation	-12.4969
▁Solar	-12.4969
▁regroup	-12.4969
▁revenir	-12.4969
aménager	-12.4969
8/23	-12.4969
▁Location	-12.497
▁tableaux	-12.4971
▁répétée	-12.4973
▁caractérisent	-12.4974
harmacie	-12.4977
▁distingue	-12.4979
▁[14],	-12.4981
▁Thé	-12.4981
▁session	-12.4982
▁exemple	-12.4983
▁humains	-12.4983
▁coup	-12.4988
▁échéancier	-12.4994
▁hausse	-12.4998
conseils	-12.4999
▁actionnaire	-12.5001
▁import	-12.5005
opér	-12.5005
▁2017-1	-12.501
▁1973	-12.5014
▁souligné	-12.5017
cent	-12.5025
aters	-12.503
▁écoulée	-12.5031
▁extension	-12.5032
▁engendré	-12.5036
▁Vic	-12.5037
▁(8	-12.5037
orm	-12.5037
▁Investment	-12.5039
▁Rameix	-12.5042
▁(15	-12.5045
ieu	-12.5051
▁Française	-12.5055
▁hôtels	-12.5059
▁Hugo	-12.5063
▁langues	-12.5069
125	-12.507
▁installé	-12.5073
▁271	-12.5075
interdire	-12.5077
▁scolaires	-12.5078
▁haute	-12.508
▁rappelait	-12.509
▁intégrée	-12.5093
▁Sch	-12.5098
▁Mutuelles	-12.5104
▁adapté	-12.5116
▁concour	-12.5121
▁réservée	-12.5121
▁immunité	-12.5127
ification	-12.5131
cas	-12.5133
▁exploiter	-12.5136
▁révélée	-12.514
invoque	-12.5145
▁copies	-12.5146
invest	-12.5147
type	-12.5147
international	-12.5148
restitution	-12.5148
▁bilans	-12.5151
▁simples	-12.5163
dic	-12.5163
1]),	-12.5163
▁155	-12.5166
▁psychiatrique	-12.5167
▁élevée	-12.5171
▁adoption	-12.5182
▁majorée	-12.519
▁116	-12.5192
évoque	-12.5198
▁885-	-12.5199
▁explication	-12.5202
▁intéress	-12.5202
▁désignées	-12.5203
Cons	-12.521
1-3)	-12.5211
▁anticipé	-12.5213
▁chaud	-12.5217
▁échapp	-12.5218
▁renonce	-12.5221
▁Gui	-12.5224
▁délictuel	-12.5228
▁JUST	-12.5231
entretenir	-12.5231
▁22-21.2	-12.5231
▁244-9	-12.5231
▁Gaillardot	-12.5231
▁IRRECEVABILITE	-12.5231
▁PRIORITAIRE	-12.5231
▁QUESTION	-12.5231
▁Sogea	-12.5231
▁calomnieuse	-12.5231
▁comportaient	-12.5231
▁compréhensible	-12.5231
▁marche	-12.5231
▁micro	-12.5231
▁multirisque	-12.5231
▁russe	-12.5231
▁susmentionné	-12.5231
Ardenne	-12.5231
▁OPerOff	-12.5231
▁incontestable	-12.5231
▁praticien	-12.5231
▁réplique	-12.5231
Opale	-12.5231
▁Music	-12.5231
▁3253-	-12.5231
▁abandonné	-12.5231
▁LMNJ	-12.5231
balance	-12.5231
▁football	-12.5231
▁mettait	-12.5231
▁gaz	-12.5232
▁Multi	-12.5232
▁chaîne	-12.5232
allye	-12.5232
▁rue	-12.5232
▁38,5	-12.5232
▁Fiducial	-12.5232
▁apte	-12.5232
CEDH	-12.5233
ITÉ	-12.5233
▁3253-8	-12.5233
▁Indi	-12.5234
▁utilisant	-12.5234
▁concernaient	-12.5235
Ass	-12.5235
▁rang	-12.5235
▁1411-1	-12.5235
alcool	-12.5236
▁emportant	-12.5236
▁récupérer	-12.5238
▁universelle	-12.5245
▁circonstanciés	-12.5248
▁punis	-12.5251
▁répare	-12.5252
▁plaidoiries	-12.5256
▁1245-1	-12.5257
cation	-12.5257
▁induit	-12.5259
▁alerte	-12.5259
édition	-12.5262
▁naturelle	-12.5262
▁plaques	-12.5263
22-21	-12.5264
▁1969	-12.5267
▁atteindre	-12.5271
▁mariés	-12.5272
▁CESEDA	-12.5276
▁chargement	-12.5277
▁emport	-12.5278
▁inégalité	-12.528
▁stocks	-12.5286
▁reprocher	-12.5288
▁conclues	-12.5289
essai	-12.5291
▁431	-12.5294
▁1234	-12.5295
▁Sc	-12.5298
▁réglées	-12.5298
11-1	-12.5299
▁locatives	-12.5302
lais	-12.5302
▁stricte	-12.5304
▁Ax	-12.5305
▁connus	-12.5307
▁fa	-12.5312
▁IDE	-12.532
▁[19]	-12.5322
imo	-12.5324
▁équipe	-12.5324
▁444	-12.5325
▁mails	-12.5334
404	-12.534
▁col	-12.5348
loc	-12.5351
▁représentés	-12.5363
▁contour	-12.5368
▁substitués	-12.5374
apporte	-12.5378
▁admet	-12.5389
14-3	-12.539
▁affirmations	-12.5391
▁propositions	-12.5409
▁Haut	-12.5414
exproprié	-12.5417
espace	-12.5417
influence	-12.5417
première	-12.5418
épouse	-12.5418
qualités	-12.5418
▁128	-12.542
▁3/	-12.5421
acl	-12.5421
▁dispensée	-12.5424
▁concerner	-12.5426
500	-12.5432
▁tutelle	-12.5436
▁collaborateur	-12.5437
ambert	-12.5437
▁intercommunal	-12.5443
rot	-12.5455
▁267	-12.5459
ace	-12.5469
▁indice	-12.5471
▁augmenté	-12.5472
42-1	-12.5472
lev	-12.5476
vant	-12.5477
▁concurrentielle	-12.5479
354	-12.5481
▁exposée	-12.5482
▁DESIGN	-12.5492
▁ADMI	-12.5496
▁inadapté	-12.5499
Assurance	-12.5501
ater	-12.5501
▁dévolu	-12.5501
analysait	-12.5502
aéroport	-12.5502
▁2008-561	-12.5502
▁22-24.5	-12.5502
▁Gefco	-12.5502
▁Guedj	-12.5502
▁Logi	-12.5502
▁Signature	-12.5502
▁Tendances	-12.5502
▁aménagé	-12.5502
▁endurées	-12.5502
▁fortiori	-12.5502
▁president	-12.5502
▁réticence	-12.5502
▁Fidal	-12.5502
▁jury	-12.5502
▁signalé	-12.5502
▁22-21.6	-12.5502
▁disparaître	-12.5502
▁constructible	-12.5502
▁bassin	-12.5502
▁18-25.	-12.5502
▁samedi	-12.5502
▁promu	-12.5502
▁occulte	-12.5502
▁soeur	-12.5502
▁433-4	-12.5502
▁utilisateurs	-12.5502
▁jouir	-12.5502
▁améliorations	-12.5502
▁Eden	-12.5503
▁nécessitant	-12.5503
▁questionnaire	-12.5503
▁fut	-12.5504
▁jeux	-12.5504
▁occasionné	-12.5504
intéressement	-12.5505
▁Dis	-12.5509
▁souhaitait	-12.5509
▁explicitement	-12.551
▁entente	-12.5511
▁recouvrer	-12.5511
▁déni	-12.5512
tenait	-12.5512
690	-12.5516
indivisaire	-12.5516
nom	-12.5516
▁211-1	-12.5522
▁Orange	-12.5524
▁exposer	-12.5524
▁figurai	-12.5526
▁numéroté	-12.5527
sceau	-12.5527
▁Loiret	-12.5532
▁Blan	-12.5534
321	-12.5536
▁134-1	-12.5536
▁FCT	-12.5537
▁assurés	-12.5538
▁bateau	-12.5538
▁globalement	-12.5548
▁1986	-12.5548
▁1972	-12.5551
accorder	-12.5553
expose	-12.5562
▁annoncé	-12.5564
▁échapper	-12.5566
inverse	-12.557
822	-12.5573
▁incluses	-12.5581
▁fondations	-12.5581
pour	-12.5583
▁Tri	-12.5595
▁adverses	-12.5597
opposent	-12.5606
▁mots	-12.5611
▁suspensives	-12.5612
▁différends	-12.5614
▁producteurs	-12.5619
▁command	-12.5621
▁proposées	-12.5626
▁Luxembourg	-12.5627
▁messages	-12.5635
▁réintégré	-12.5636
▁643	-12.564
▁Im	-12.564
king	-12.5641
▁annuelles	-12.5649
actifs	-12.5653
▁tentatives	-12.5659
▁3211-	-12.566
▁techniciens	-12.5664
▁cou	-12.567
venti	-12.5675
▁tire	-12.5677
ampleur	-12.5695
aggravation	-12.5695
ode	-12.5695
Metz	-12.5696
pourvoi	-12.5696
affirmer	-12.5698
▁Loc	-12.5702
▁formalisé	-12.5704
▁détruit	-12.571
▁Cev	-12.5714
▁dépassé	-12.5714
▁Industrie	-12.5714
▁invers	-12.5714
lutter	-12.5719
▁médecine	-12.5719
6]),	-12.5727
▁381	-12.5728
▁autonomie	-12.5729
▁certifi	-12.5731
▁effectu	-12.5735
▁dén	-12.5735
▁apparu	-12.5738
cro	-12.5745
▁5-1	-12.5754
▁1251	-12.576
icité	-12.5773
▁adhérent	-12.5774
▁pén	-12.5775
▁utilisée	-12.5777
▁Déclar	-12.5778
ouvrier	-12.5779
▁132-5-	-12.5779
▁permuta	-12.5779
SUBSIDIAIRE	-12.5779
échelle	-12.5779
▁22-21.8	-12.5779
▁22-22.9	-12.5779
▁Corporate	-12.5779
▁Dépakine	-12.5779
▁Empreinte	-12.5779
▁LVMH	-12.5779
▁MACIF	-12.5779
▁Menuiserie	-12.5779
▁Patrimoine	-12.5779
▁Success	-12.5779
▁billet	-12.5779
▁conjugal	-12.5779
▁consisté	-12.5779
▁disposé	-12.5779
▁insusceptible	-12.5779
▁manipulation	-12.5779
▁menuiserie	-12.5779
▁périodique	-12.5779
▁répressif	-12.5779
▁réversion	-12.5779
▁signalement	-12.5779
▁vétusté	-12.5779
▁19-16.	-12.5779
▁Synergie	-12.5779
évince	-12.5779
▁séquelles	-12.5779
▁Trois	-12.5779
▁Offer	-12.5779
▁3121-3	-12.5779
▁Messer	-12.5779
▁stable	-12.5779
▁reprenant	-12.578
▁TGB	-12.578
▁panne	-12.578
▁geste	-12.578
▁trace	-12.5781
▁remont	-12.5781
▁PME	-12.5781
▁biologique	-12.5783
▁sortant	-12.5787
▁TM	-12.5787
▁comparable	-12.5788
▁revêtu	-12.5791
talis	-12.5794
▁rétroactivement	-12.5794
▁accordés	-12.5797
▁33],	-12.5799
arbre	-12.5802
▁1844	-12.5809
▁adresser	-12.5813
▁1957	-12.5817
▁confisqués	-12.5817
5-2	-12.5819
▁distributeurs	-12.5821
ICA	-12.5821
▁demeurent	-12.5822
▁diffusé	-12.5826
▁Moulins	-12.5826
▁implants	-12.5826
▁Ast	-12.5828
▁[9],	-12.5831
▁Spi	-12.5832
/200	-12.5833
▁const	-12.5835
▁médias	-12.5835
effectue	-12.5835
lage	-12.584
▁398	-12.5843
▁collaborateurs	-12.5846
▁1383	-12.5848
4]),	-12.585
▁32],	-12.5853
▁politiques	-12.5858
▁fixes	-12.5859
▁552	-12.5859
EPA	-12.586
▁permanents	-12.5862
1076	-12.5867
IME	-12.5869
▁temporaires	-12.5876
▁tranchée	-12.5877
▁prestataires	-12.5878
▁Mond	-12.5888
▁autorisées	-12.589
▁exprimés	-12.5894
▁facilité	-12.5894
▁architecture	-12.5899
▁sources	-12.5906
▁meublés	-12.5908
▁temporairement	-12.5911
▁Espagne	-12.5913
élevage	-12.5925
▁remet	-12.5926
▁710	-12.5928
▁2312-8	-12.5931
eco	-12.5941
▁restaurants	-12.5947
▁1165	-12.5949
▁21/0	-12.5949
▁392	-12.5957
▁plaintes	-12.5957
ug	-12.5964
ancienne	-12.5978
échec	-12.5981
excède	-12.5981
▁reçues	-12.5981
automobile	-12.5981
Hôtel	-12.5981
▁642	-12.5989
outre	-12.5992
indiquer	-12.5993
empêcher	-12.5993
bis	-12.5997
adame	-12.5998
32-2	-12.5999
▁compatible	-12.6
▁culture	-12.6
▁prohibée	-12.6
ingénieur	-12.6
▁requi	-12.6002
▁test	-12.6002
8-23	-12.6006
▁190	-12.6007
▁voté	-12.601
▁Scea	-12.6011
▁défaillant	-12.6014
▁Morel	-12.6021
▁prorogé	-12.6024
éca	-12.6026
▁fric	-12.6027
▁réparti	-12.6029
▁567	-12.6035
▁révél	-12.6035
insu	-12.6037
enquêteur	-12.6037
▁procéd	-12.604
▁voul	-12.6046
▁réglée	-12.6047
▁paye	-12.6053
▁Pacific	-12.6054
impôts	-12.6061
nterruption	-12.6064
▁gouvern	-12.6065
Portugal	-12.6065
adoptant	-12.6065
▁Ambulance	-12.6065
▁Commercial	-12.6065
▁Mulhouse	-12.6065
▁Omega	-12.6065
▁Sankyo	-12.6065
▁Strasbourg	-12.6065
▁aggravante	-12.6065
▁brigade	-12.6065
▁calendrier	-12.6065
▁disparu	-12.6065
▁divulgation	-12.6065
▁fouille	-12.6065
▁guide	-12.6065
▁insurance	-12.6065
▁interpellé	-12.6065
▁mutualiste	-12.6065
▁privilège	-12.6065
▁province	-12.6065
▁prévoyaient	-12.6065
▁reconduit	-12.6065
▁renouvelable	-12.6065
▁restructuration	-12.6065
▁répercussion	-12.6065
▁semble	-12.6065
▁soutenaient	-12.6065
▁stratégie	-12.6065
▁transposition	-12.6065
▁Diane	-12.6065
▁Vassal	-12.6065
▁Vinci	-12.6065
▁cedex	-12.6065
▁fédérale	-12.6065
▁susénoncé	-12.6065
▁2017-89	-12.6065
▁efforts	-12.6065
▁priorité	-12.6065
▁ouvriers	-12.6066
allonge	-12.6066
▁retenait	-12.6066
▁CBM	-12.6066
▁Action	-12.6066
altération	-12.6066
▁assujettie	-12.6066
▁alléguées	-12.6067
▁carré	-12.6067
▁réclamait	-12.6068
▁133-4	-12.6068
IDI	-12.6068
▁Seul	-12.6068
▁4-5	-12.6069
▁conteneur	-12.6069
▁remploi	-12.6069
▁annule	-12.6071
▁132-5	-12.6072
▁procèdent	-12.6072
3]),	-12.6072
▁conseillé	-12.6076
entrent	-12.6076
core	-12.6078
▁réguliers	-12.6078
histo	-12.608
▁Rep	-12.6082
▁finale	-12.6083
▁MDD	-12.6087
lak	-12.6093
▁encaissé	-12.6094
▁SPL	-12.6094
▁sélection	-12.6098
▁hypermarchés	-12.6108
▁interpellation	-12.6111
▁gardée	-12.6113
flo	-12.6115
▁psychologiques	-12.6117
▁Cut	-12.6117
▁proposant	-12.6118
▁fonctionnelle	-12.6119
▁confronté	-12.612
▁remboursables	-12.6123
▁description	-12.6127
▁prohibées	-12.6131
▁multi	-12.6132
▁147	-12.6133
▁domaines	-12.6137
▁012	-12.614
▁divise	-12.614
▁ordinaires	-12.6142
▁voyages	-12.6144
tori	-12.6152
▁avancée	-12.6153
énoncer	-12.6155
▁réservés	-12.616
▁nord	-12.616
▁Plan	-12.6162
▁argué	-12.6169
▁empêchement	-12.6171
▁351	-12.6174
entraînement	-12.6176
▁concurrentiel	-12.618
▁tôt	-12.6181
▁électricité	-12.6184
▁adaptée	-12.6192
246	-12.6193
100	-12.6193
oulet	-12.6196
oger	-12.62
11-7	-12.6201
▁entretiens	-12.6201
aille	-12.6218
▁rectifiée	-12.6221
▁agit	-12.6222
▁pratiquées	-12.6227
718	-12.6243
▁Office	-12.6251
▁adhésion	-12.6258
▁Star	-12.6261
▁170	-12.6267
▁déclenche	-12.6269
évalu	-12.6272
Opéra	-12.6274
arrestation	-12.6274
Futuna	-12.6274
Louis	-12.6275
employé	-12.6275
extérieur	-12.6275
Reims	-12.6275
▁arrivée	-12.6276
▁311-1	-12.6279
▁158	-12.6279
dix	-12.6283
▁structures	-12.6291
▁114-1	-12.6292
rand	-12.6294
▁enseigne	-12.6308
▁gardé	-12.631
enseignant	-12.6314
▁fondamentale	-12.6314
accept	-12.6317
opposabilité	-12.6319
▁(17	-12.6322
▁KS	-12.6329
▁330	-12.6335
▁refuse	-12.6336
▁arriv	-12.6338
▁borné	-12.6341
▁maximal	-12.6341
lever	-12.6347
mon	-12.635
▁agissait	-12.6352
assujetti	-12.6358
explicit	-12.6358
issaient	-12.6359
expropriant	-12.6359
èvre	-12.6359
habilleuse	-12.6359
appréhender	-12.6359
▁22-21.3	-12.6359
▁8221-6	-12.6359
▁Amundi	-12.6359
▁Benelux	-12.6359
▁Business	-12.6359
▁Central	-12.6359
▁Créteil	-12.6359
▁Limousin	-12.6359
▁Médicale	-12.6359
▁Prévoyance	-12.6359
▁Socotec	-12.6359
▁conduisant	-12.6359
▁couvrait	-12.6359
▁créancière	-12.6359
▁emphytéotique	-12.6359
▁flagrance	-12.6359
▁laboratoire	-12.6359
▁transparence	-12.6359
▁évident	-12.6359
▁22-21.1	-12.6359
▁23-12.2	-12.6359
▁Aditem	-12.6359
▁FGAO	-12.6359
▁Mayol	-12.6359
▁DESSAIS	-12.6359
▁indéfini	-12.6359
▁négatif	-12.6359
▁Aciers	-12.6359
▁captation	-12.6359
▁numérique	-12.6359
]/[	-12.6359
▁244-1	-12.6359
▁2020-30	-12.6359
▁assermenté	-12.636
▁trentenaire	-12.636
▁taille	-12.636
actionnaires	-12.636
▁Lors	-12.6361
'[1]	-12.6361
▁intérimaire	-12.6362
agressions	-12.6364
amen	-12.6365
▁211-9	-12.6366
hé	-12.6367
▁indiquent	-12.6369
▁exploitée	-12.637
agne	-12.6371
▁2004/	-12.6374
▁Automobiles	-12.6376
▁dispenser	-12.6376
▁surtout	-12.6376
estimation	-12.6376
▁pleinement	-12.6381
▁nomination	-12.6381
▁Net	-12.6386
offres	-12.6387
▁323	-12.6388
▁administrer	-12.639
174	-12.6391
▁appliqu	-12.6391
▁négocié	-12.6393
▁gratuite	-12.6393
▁1215/2012	-12.6394
aute	-12.6396
▁retrouver	-12.6399
▁CSEE	-12.6401
▁délivrées	-12.6402
▁station	-12.6404
▁énoncent	-12.6412
▁chantiers	-12.6414
▁concrets	-12.6417
▁touch	-12.6434
523	-12.6434
▁avertissements	-12.6436
ool	-12.644
▁450	-12.6442
▁journalistes	-12.6442
nam	-12.6444
▁Futuna	-12.6445
isme	-12.6446
▁Europ	-12.6448
▁ampleur	-12.645
▁3141-3	-12.6457
▁accepter	-12.646
exist	-12.6461
9]),	-12.6463
▁durable	-12.647
▁supprimés	-12.6479
227	-12.6481
▁concluant	-12.6496
▁extérieures	-12.6496
▁[21]	-12.65
▁complét	-12.65
erriat	-12.6501
attribue	-12.6507
▁traitant	-12.6511
▁1224	-12.6516
ttes	-12.652
▁abusives	-12.6524
▁631-1	-12.6525
rth	-12.653
▁consta	-12.6542
▁conflits	-12.6549
▁acheteur	-12.6558
▁CHAM	-12.6564
contrefaçon	-12.6578
▁326	-12.6593
opérer	-12.6594
▁pharmaceutique	-12.6597
▁Toute	-12.6598
▁clé	-12.6603
▁isolé	-12.6605
▁strict	-12.661
▁délivrés	-12.6614
dans	-12.6618
▁passager	-12.6618
▁perd	-12.6623
▁conten	-12.6634
▁343	-12.6636
ong	-12.6642
▁assume	-12.6645
écriture	-12.6645
▁universel	-12.6647
▁recev	-12.666
intégration	-12.6662
èvement	-12.6662
▁music	-12.6662
▁Alcatel	-12.6662
applicabilité	-12.6662
dépressif	-12.6662
imposaient	-12.6662
institue	-12.6662
éventualité	-12.6662
▁243-59	-12.6662
▁Aparisi	-12.6662
▁Benoit	-12.6662
▁Justice	-12.6662
▁Londres	-12.6662
▁Lugano	-12.6662
▁Monceau	-12.6662
▁alcoolique	-12.6662
▁appartiennent	-12.6662
▁belge	-12.6662
▁brasserie	-12.6662
▁codébiteur	-12.6662
▁consignes	-12.6662
▁consistance	-12.6662
▁conversation	-12.6662
▁expansion	-12.6662
▁eût	-12.6662
▁faillite	-12.6662
▁fissures	-12.6662
▁guérison	-12.6662
▁inéluctable	-12.6662
▁métallique	-12.6662
▁placier	-12.6662
▁sollicitaient	-12.6662
▁symptômes	-12.6662
▁universitaire	-12.6662
▁Poly	-12.6662
▁audiovisuelle	-12.6662
▁22-20.5	-12.6662
▁Corp	-12.6662
▁Marketing	-12.6662
▁masse	-12.6662
▁race	-12.6663
▁adultes	-12.6663
▁récusation	-12.6663
▁706-141	-12.6663
XXXXXXXXX	-12.6663
▁214-1	-12.6663
NIER	-12.6663
▁loueur	-12.6664
ight	-12.6664
Earl	-12.6664
utilisateur	-12.6664
▁IBM	-12.6665
▁3121-2	-12.6665
▁aérienne	-12.6666
▁permette	-12.6667
▁LTD	-12.6671
▁exigeant	-12.6672
opportunité	-12.6672
star	-12.6672
▁1]),	-12.6675
▁officielle	-12.6675
▁CGG	-12.6675
▁484	-12.6675
▁successorale	-12.6677
▁commercialise	-12.6687
▁sise	-12.6692
485	-12.6694
pprovisionnement	-12.6697
▁parisiens	-12.6703
▁pertinentes	-12.6704
▁créditeur	-12.6705
▁émettre	-12.6706
1-10	-12.6721
▁obstruction	-12.6721
▁mobiliers	-12.6722
▁561	-12.6728
3-9	-12.6736
pposition	-12.6738
▁Hautes	-12.6745
▁déroulé	-12.6757
▁inspecteur	-12.676
▁1452-	-12.6768
▁correcte	-12.6771
▁empêchée	-12.6775
▁accordant	-12.6775
▁dressée	-12.6776
▁regardée	-12.6778
▁imputées	-12.678
▁545	-12.6785
▁Mans	-12.6799
▁dénoncer	-12.6803
dre	-12.6803
brogeant	-12.6809
▁renouvelée	-12.6812
enfants	-12.6814
▁subit	-12.6816
▁relevées	-12.6819
ling	-12.6819
▁individuels	-12.6824
▁375	-12.6861
▁Dev	-12.6862
▁fais	-12.6869
▁356	-12.6871
▁entrer	-12.6873
empêch	-12.6874
posant	-12.6875
▁Vie	-12.688
▁géré	-12.6885
allègue	-12.6889
affirmation	-12.6891
Nancy	-12.6891
président	-12.6891
Basse	-12.6891
alors	-12.6891
aléa	-12.6892
▁665	-12.6894
▁interjet	-12.6898
explique	-12.6901
▁souscrites	-12.6902
eva	-12.6908
▁chirurgien	-12.691
▁stock	-12.6916
▁129	-12.6917
ork	-12.6926
▁arrêtées	-12.6936
▁déloyal	-12.694
407	-12.6946
▁dénoncée	-12.6949
▁décennal	-12.6959
▁Lorsqu	-12.6959
627	-12.6961
▁Côtes	-12.6966
▁520	-12.6968
ribunal	-12.697
▁comparaît	-12.6973
éligibilité	-12.6973
▁transit	-12.6975
iogaz	-12.6975
pharm	-12.6975
éolia	-12.6975
▁22-22.4	-12.6975
▁742-5	-12.6975
▁Champalaune	-12.6975
▁Cimeo	-12.6975
▁Derivatives	-12.6975
▁Forêt	-12.6975
▁Marketset	-12.6975
▁Reinier	-12.6975
▁Taurus	-12.6975
▁Transdev	-12.6975
▁béton	-12.6975
▁clerc	-12.6975
▁coiffure	-12.6975
▁company	-12.6975
▁compromissoire	-12.6975
▁conçu	-12.6975
▁descriptif	-12.6975
▁disponibilité	-12.6975
▁douanier	-12.6975
▁douzième	-12.6975
▁déchargé	-12.6975
▁dépossession	-12.6975
▁détachable	-12.6975
▁fictive	-12.6975
▁infructueuse	-12.6975
▁injurieux	-12.6975
▁inopinée	-12.6975
▁instituant	-12.6975
▁intégrant	-12.6975
▁maçonnerie	-12.6975
▁papier	-12.6975
▁prenait	-12.6975
▁produisaient	-12.6975
▁rectificative	-12.6975
▁réussi	-12.6975
▁succinctement	-12.6975
▁suspensif	-12.6975
▁séquestre	-12.6975
▁téléphonie	-12.6975
▁échangés	-12.6975
▁énonçait	-12.6975
▁23-11.5	-12.6975
▁Tefa	-12.6975
▁efficace	-12.6975
▁payable	-12.6975
▁Nexity	-12.6975
▁TOUT	-12.6975
élaboration	-12.6975
▁Dyna	-12.6975
▁comparative	-12.6975
▁tromperie	-12.6975
▁TFC	-12.6975
▁Ipso	-12.6975
▁concouru	-12.6976
▁reproduction	-12.6976
▁peinture	-12.6976
ske	-12.6976
▁452-3	-12.6976
▁immobilisé	-12.6976
positionnement	-12.6976
▁théorique	-12.6976
▁handicapées	-12.6977
▁Oper	-12.6978
▁avisée	-12.6978
ebon	-12.6978
▁RSI	-12.6979
▁441-14	-12.698
▁péril	-12.6982
CHE	-12.6983
▁640	-12.6986
▁1225-	-12.6988
▁invoquaient	-12.699
▁ininterrompue	-12.6991
▁exclusions	-12.6991
▁déclin	-12.6991
▁recouvré	-12.6995
▁211-2	-12.6998
▁(19	-12.7001
▁chiffrer	-12.7002
▁(21	-12.7003
isserie	-12.7003
user	-12.7007
▁annuités	-12.7015
▁rest	-12.7024
équipements	-12.7031
▁discutée	-12.704
annu	-12.7041
▁Ope	-12.7043
▁nommée	-12.7047
▁consommé	-12.7049
euses	-12.705
▁qualifie	-12.7057
▁Cher	-12.7058
▁réclamations	-12.7058
▁160	-12.7065
▁proches	-12.7066
▁1455-	-12.7069
▁patiente	-12.7069
▁22-20.3	-12.7073
▁Entre	-12.7077
▁respecte	-12.708
▁Hél	-12.7082
▁trait	-12.7083
▁heurté	-12.7087
▁335	-12.7089
▁priv	-12.709
abi	-12.709
zo	-12.709
hon	-12.7103
▁courses	-12.7106
Cou	-12.711
▁contractée	-12.7111
187	-12.7118
▁Unis	-12.7124
525	-12.7129
▁qualifiées	-12.7136
alisation	-12.7139
▁chiffres	-12.7143
▁crée	-12.7146
▁PRO	-12.7158
ordinateur	-12.7164
196	-12.7171
ciel	-12.7172
▁annexée	-12.7172
conformités	-12.7189
fort	-12.7199
▁export	-12.7201
61-2	-12.7204
▁Hér	-12.7207
Moselle	-12.7213
Bourges	-12.7213
société	-12.7214
aussi	-12.7214
▁406	-12.7215
▁développ	-12.7217
anciennement	-12.7228
▁remboursable	-12.7232
▁représentative	-12.7239
▁lésé	-12.7245
▁média	-12.7247
▁orale	-12.7248
▁urbain	-12.7264
▁demeurée	-12.7264
terie	-12.7268
▁absolu	-12.7269
isol	-12.727
▁subsiste	-12.7275
▁salarial	-12.7279
▁marqu	-12.7279
▁successoral	-12.7281
tatuant	-12.7285
tenter	-12.7291
▁satisf	-12.7293
bit	-12.7295
habita	-12.7296
nçant	-12.7296
iance	-12.7296
▁plén	-12.7297
absorption	-12.7297
alimentation	-12.7297
humidité	-12.7297
ignorance	-12.7297
isslife	-12.7297
écoute	-12.7297
▁22-21.0	-12.7297
▁22-21.4	-12.7297
▁22-83.7	-12.7297
▁Akka	-12.7297
▁Corsica	-12.7297
▁Cpam	-12.7297
▁Cytoo	-12.7297
▁Foncia	-12.7297
▁IRRECEVABILITÉ	-12.7297
▁Senior	-12.7297
▁Ship	-12.7297
▁Veritas	-12.7297
▁Winkhaus	-12.7297
▁contamination	-12.7297
▁extinctive	-12.7297
▁meubles	-12.7297
▁préélectoral	-12.7297
▁statuait	-12.7297
▁stratagème	-12.7297
▁ternoise	-12.7297
▁valpro	-12.7297
▁RPVA	-12.7297
▁synergie	-12.7297
▁Gaec	-12.7297
▁Mondial	-12.7297
▁mépris	-12.7297
▁Medical	-12.7297
▁dotation	-12.7298
▁Innovation	-12.7298
▁Intel	-12.7298
▁professionnalis	-12.7298
▁Saisi	-12.7298
▁contenté	-12.7298
▁TGI	-12.7298
▁triparti	-12.7298
▁revenait	-12.7298
▁parisienne	-12.7299
▁696-1	-12.73
▁Traité	-12.73
▁IRM	-12.73
▁précèdent	-12.7301
▁Sales	-12.7301
mobil	-12.7303
ituait	-12.7303
▁dissimuler	-12.7304
▁libérer	-12.7304
▁Thai	-12.7305
▁louer	-12.7306
▁progressive	-12.7306
Indre	-12.7307
▁comparant	-12.7308
▁Herm	-12.7311
▁correspondent	-12.7312
▁policiers	-12.7313
▁documentation	-12.7315
IPP	-12.7317
▁Lux	-12.7318
▁examin	-12.7323
▁Occitanie	-12.7324
▁Direc	-12.7326
impliqu	-12.7329
13-3	-12.7332
▁tacitement	-12.7333
▁constituées	-12.7333
▁circonstanciée	-12.7335
▁vend	-12.7336
▁substituée	-12.7341
butoir	-12.7343
▁équipé	-12.7344
▁1981	-12.7345
▁163	-12.7352
▁interprète	-12.7355
700	-12.7355
▁accroissement	-12.7358
▁433	-12.737
élevant	-12.737
▁dénoncées	-12.7371
138	-12.7375
23-5	-12.7377
▁188	-12.7377
54-1	-12.7377
▁Arm	-12.738
▁bl	-12.7391
▁assimilés	-12.7391
▁Opéra	-12.7391
▁189	-12.74
▁restitués	-12.7401
▁égales	-12.7402
ota	-12.7403
▁459	-12.7415
▁592	-12.7428
▁148	-12.7436
▁énoncée	-12.7436
eign	-12.745
▁493	-12.7453
▁louées	-12.7467
▁prévisibles	-12.7475
▁haut	-12.7485
▁assortis	-12.7494
ker	-12.7504
▁employ	-12.7506
▁indivise	-12.7508
rablement	-12.7509
3-84	-12.7512
▁réglés	-12.7515
▁impliqués	-12.7525
▁différé	-12.7534
▁Od	-12.754
▁412	-12.7546
événement	-12.7547
intitulé	-12.7547
Riom	-12.7547
énonçant	-12.7547
651	-12.7549
▁36],	-12.7551
▁meilleur	-12.7554
priseur	-12.7555
019	-12.7555
▁Acte	-12.7562
▁posté	-12.7563
▁concret	-12.7565
▁mobilier	-12.7566
▁journalière	-12.7567
ige	-12.7578
▁formalis	-12.7582
▁discussions	-12.7585
▁lieudit	-12.7589
▁distingu	-12.76
▁Sea	-12.7607
▁normales	-12.7608
▁jus	-12.7621
▁soupçonn	-12.7624
▁déport	-12.7626
▁transform	-12.7626
▁liquidé	-12.7627
▁quotidien	-12.7628
onsidérant	-12.7629
▁prépondéran	-12.763
Irlande	-12.7631
acheminement	-12.7631
arrérage	-12.7631
installer	-12.7631
introduire	-12.7631
▁21-24.95	-12.7631
▁22-22.7	-12.7631
▁22-85.7	-12.7631
▁Arcelormittal	-12.7631
▁Bouzonville	-12.7631
▁CEPAC	-12.7631
▁Extenso	-12.7631
▁Ferracin	-12.7631
▁Garantie	-12.7631
▁Heineken	-12.7631
▁Kartesis	-12.7631
▁THQ	-12.7631
▁adjudicateur	-12.7631
▁banquier	-12.7631
▁carrelage	-12.7631
▁comprenait	-12.7631
▁confrère	-12.7631
▁externe	-12.7631
▁falsifié	-12.7631
▁génériques	-12.7631
▁mammaires	-12.7631
▁paulienne	-12.7631
▁portugais	-12.7631
▁possède	-12.7631
▁posteriori	-12.7631
▁protectrice	-12.7631
▁proxénétisme	-12.7631
▁prévenance	-12.7631
▁périmée	-12.7631
▁renouveler	-12.7631
▁repreneur	-12.7631
▁scrutin	-12.7631
▁sodium	-12.7631
▁suffrages	-12.7631
▁traduit	-12.7631
Vilaine	-12.7631
opathie	-12.7631
▁22-22.5	-12.7631
▁22-84.3	-12.7631
▁22-86.1	-12.7631
▁Demanderesse	-12.7631
▁Dream	-12.7631
▁Flandre	-12.7631
▁Grasse	-12.7631
▁TFUE	-12.7631
▁Vega	-12.7631
▁supplétive	-12.7631
▁testament	-12.7631
▁avez	-12.7631
▁box	-12.7631
▁férié	-12.7631
éducatif	-12.7631
▁consigné	-12.7631
UDAF	-12.7631
▁parallèle	-12.7631
▁photographique	-12.7631
▁détect	-12.7631
▁récapitulative	-12.7631
herbe	-12.7631
▁consulaire	-12.7631
▁éteinte	-12.7631
▁Edec	-12.7631
▁SHEM	-12.7631
injure	-12.7631
▁avantageuse	-12.7631
▁sexe	-12.7631
▁censé	-12.7631
▁tabac	-12.7631
▁commissariat	-12.7631
▁Africa	-12.7631
▁Home	-12.7631
▁Mark	-12.7631
▁nosocomiales	-12.7631
▁minorité	-12.7631
▁réhabilitation	-12.7632
accession	-12.7632
▁464-2	-12.7633
▁SPT	-12.7633
usufruitier	-12.7635
illic	-12.7635
▁34],	-12.7635
▁434-2	-12.7636
▁revêtent	-12.7637
▁linge	-12.7638
▁38],	-12.764
▁706-3	-12.764
▁6°)	-12.764
▁affirmait	-12.7641
▁consacrer	-12.7643
▁121-6	-12.7644
▁attribuer	-12.7645
▁pneu	-12.7645
▁défendu	-12.7646
▁CIPAV	-12.7647
▁Express	-12.7647
▁427	-12.7652
▁pulmonaire	-12.7655
▁fixent	-12.7656
▁240	-12.7658
▁visent	-12.766
▁renseign	-12.7661
lectro	-12.7663
bioma	-12.7665
acqu	-12.7668
▁332-1	-12.7669
▁gar	-12.767
acide	-12.7675
▁coté	-12.7679
▁opinion	-12.7687
▁Etienne	-12.769
▁quantités	-12.7692
lation	-12.7698
ulle	-12.77
▁pharmaceutiques	-12.7703
▁3141-2	-12.7706
/5	-12.7708
▁hypothèque	-12.7712
5.000	-12.7714
▁montre	-12.7716
▁exposées	-12.7721
▁logiciels	-12.7723
691	-12.7731
ncé	-12.7732
eve	-12.7737
▁137-1	-12.7739
▁217	-12.7742
En	-12.7746
▁incriminés	-12.7747
attacher	-12.775
▁3141-	-12.7751
interprétées	-12.7753
▁équilibre	-12.7755
▁Beau	-12.7761
▁respectées	-12.7771
EPIC	-12.7774
▁majeurs	-12.7775
▁attribu	-12.778
▁of	-12.7782
▁envisagés	-12.7785
▁cie	-12.7788
▁attache	-12.7791
▁financée	-12.7799
▁2315-8	-12.7803
CAP	-12.7805
▁opérées	-12.7806
rrière	-12.7808
▁indirectes	-12.7812
▁623	-12.7823
loo	-12.7836
▁indépendance	-12.7861
▁protégés	-12.7866
46-1	-12.7868
çon	-12.7869
cord	-12.7869
624-2	-12.7879
ndre	-12.7887
paiement	-12.7892
▁Chai	-12.7897
▁314-16	-12.7901
▁vin	-12.7909
▁débit	-12.791
▁mensongère	-12.791
▁ouvrable	-12.7911
▁femme	-12.7911
▁corrobor	-12.7911
▁sentences	-12.7912
ager	-12.7914
▁dégr	-12.7918
▁travaillés	-12.7919
partit	-12.7924
▁Arte	-12.7927
traient	-12.7927
▁espagnole	-12.7932
▁aménagements	-12.7939
▁cotée	-12.794
293	-12.7955
43-5	-12.7956
▁compens	-12.7961
▁supposé	-12.7961
▁réciproque	-12.7964
▁dirige	-12.7968
▁persist	-12.797
▁consent	-12.7973
▁compromett	-12.7973
altér	-12.7974
▁régul	-12.7974
ollège	-12.7974
▁marchand	-12.7975
▁retranch	-12.7975
quérir	-12.7975
Saône	-12.7975
Guyonnet	-12.7975
ackaging	-12.7975
aliénation	-12.7975
anticipation	-12.7975
ivresse	-12.7975
▁1235-4	-12.7975
▁22-11.26	-12.7975
▁22-13.26	-12.7975
▁22-23.5	-12.7975
▁3323-14	-12.7975
▁Bochaton	-12.7975
▁CoRDiS	-12.7975
▁FFEC	-12.7975
▁Solvadis	-12.7975
▁Toulon	-12.7975
▁banqueroute	-12.7975
▁diplômé	-12.7975
▁dividendes	-12.7975
▁démarchage	-12.7975
▁frontière	-12.7975
▁grève	-12.7975
▁juifs	-12.7975
▁psychique	-12.7975
▁rentabilité	-12.7975
▁reproduire	-12.7975
▁représentait	-12.7975
▁routière	-12.7975
▁souffert	-12.7975
▁spectacle	-12.7975
▁sujétion	-12.7975
▁éolien	-12.7975
▁Logo	-12.7975
▁ultra	-12.7975
▁idem	-12.7975
▁river	-12.7975
▁style	-12.7975
▁Plast	-12.7975
▁existé	-12.7975
▁22-21.7	-12.7975
▁soustrait	-12.7975
▁appris	-12.7975
▁approuvant	-12.7975
▁22-20.1	-12.7976
▁portail	-12.7976
UBAF	-12.7976
▁élaboré	-12.7976
▁sûretés	-12.7976
▁arbitres	-12.7976
▁Cavi	-12.7976
▁CNP	-12.7976
▁concreto	-12.7976
▁Pack	-12.7976
▁tardiveté	-12.7977
▁TTT	-12.7977
jard	-12.7977
▁gage	-12.7977
11-00	-12.7978
▁Chaud	-12.7978
▁certification	-12.7979
▁SUR	-12.7979
▁ESR	-12.798
▁déficitaire	-12.798
▁Vendée	-12.798
▁ethni	-12.7981
▁132-19	-12.7983
▁simultanément	-12.7984
▁Finistère	-12.7984
acheter	-12.7984
▁potentiellement	-12.7984
▁habitude	-12.7986
▁452-2	-12.7987
▁Ham	-12.7987
▁MPH	-12.7988
▁Textiles	-12.7988
Accord	-12.799
▁correspondre	-12.7993
▁LGA	-12.7994
▁néerlandaise	-12.8
OUR	-12.8
▁outrage	-12.8007
▁confidentielle	-12.8007
▁forclose	-12.8008
▁écriture	-12.8009
▁augmentée	-12.8013
▁auditeur	-12.8015
▁original	-12.8016
▁Dub	-12.8016
▁handicapés	-12.8016
▁1142-1	-12.8019
666	-12.8026
▁UJA	-12.8031
otel	-12.8031
GSE	-12.8035
▁lésée	-12.8038
exprim	-12.8041
▁rattachement	-12.8044
509	-12.8052
▁compatibles	-12.8055
▁tutelles	-12.8059
▁installés	-12.8063
▁dotée	-12.8065
▁cotes	-12.8065
PIC	-12.8073
▁courante	-12.8073
rava	-12.8075
21-2	-12.8075
▁différée	-12.8076
stes	-12.8076
▁CCI	-12.8082
▁aggravation	-12.8082
▁heurte	-12.8086
▁apparents	-12.8087
▁réintégr	-12.8089
▁aff	-12.8089
▁73],	-12.8091
▁280	-12.8092
▁médicalement	-12.8093
▁prélèvements	-12.8096
▁livr	-12.8098
▁ski	-12.8103
ditions	-12.8107
▁usine	-12.812
143	-12.8121
▁Institut	-12.8132
▁préjudicielles	-12.8134
▁requérantes	-12.8141
▁corroboré	-12.8144
▁145-1	-12.8145
▁journaliers	-12.815
nnes	-12.815
▁646	-12.8154
systématiquement	-12.8155
43-4	-12.8164
▁596	-12.8169
▁coemployeur	-12.817
▁survenues	-12.8174
/08	-12.8186
▁associées	-12.819
objectifs	-12.8202
▁compt	-12.8205
û	-12.8215
▁communal	-12.8223
▁corroborée	-12.8227
▁133-1	-12.8233
▁624-1	-12.8234
8-3	-12.8237
▁FIA	-12.8242
ènes	-12.8243
▁organiser	-12.8245
apparaiss	-12.8246
occuper	-12.8248
restaurant	-12.8249
Bastia	-12.8249
clients	-12.8249
Pôle	-12.8249
entrave	-12.8249
▁345	-12.8252
▁convenus	-12.826
▁rémunér	-12.8262
ande	-12.8263
▁partenaire	-12.8268
▁accessible	-12.8268
▁psychologique	-12.8268
▁ressource	-12.8269
▁1154	-12.8275
▁quantité	-12.8276
48/	-12.8277
▁régions	-12.8286
CIC	-12.8291
nimaux	-12.8294
▁consacr	-12.8295
▁206	-12.8311
prime	-12.8311
▁recouvre	-12.8311
estime	-12.8315
sorts	-12.8317
▁toit	-12.8332
▁invalid	-12.8332
graphe	-12.8333
Ajaccio	-12.8333
Leclerc	-12.8333
artisan	-12.8333
indexation	-12.8333
▁21-22.90	-12.8333
▁Akiva	-12.8333
▁Apatae	-12.8333
▁Brouchot	-12.8333
▁Cedrus	-12.8333
▁Hobbes	-12.8333
▁Jules	-12.8333
▁Olivier	-12.8333
▁Pavanello	-12.8333
▁Poitou	-12.8333
▁Pontoise	-12.8333
▁Promotion	-12.8333
▁RECTIFI	-12.8333
▁Safran	-12.8333
▁Shellac	-12.8333
▁Teezily	-12.8333
▁Velcorex	-12.8333
▁cancer	-12.8333
▁circons	-12.8333
▁conférant	-12.8333
▁coobligé	-12.8333
▁dissociée	-12.8333
▁déménagement	-12.8333
▁dépériss	-12.8333
▁escompté	-12.8333
▁exemplaire	-12.8333
▁extrinsèque	-12.8333
▁malfaçons	-12.8333
▁ouvrés	-12.8333
▁réservataire	-12.8333
▁échoir	-12.8333
▁689-11	-12.8333
▁attrait	-12.8333
▁Joiner	-12.8333
▁satisfaisant	-12.8333
▁ménage	-12.8333
enrichi	-12.8333
▁climatisation	-12.8333
▁Macif	-12.8333
▁Tessi	-12.8333
▁inclut	-12.8333
▁Locam	-12.8333
▁médiation	-12.8333
▁Appart	-12.8333
▁déchets	-12.8333
▁réunionnaise	-12.8333
▁fictif	-12.8333
▁infections	-12.8333
▁défère	-12.8333
▁20/05	-12.8333
▁GTM	-12.8333
▁148-2	-12.8333
▁rétracter	-12.8333
▁déontologique	-12.8334
▁produisent	-12.8334
▁conjointement	-12.8334
▁récupération	-12.8334
▁échues	-12.8335
▁barreaux	-12.8335
▁éclairé	-12.8335
▁plage	-12.8336
UNSA	-12.8336
▁FCR	-12.8336
▁dépendantes	-12.8337
▁admettant	-12.8337
▁importait	-12.8338
▁hall	-12.8338
▁citer	-12.8338
▁dériv	-12.8339
Benz	-12.834
▁dépendent	-12.834
agisse	-12.8341
▁coauteur	-12.8343
▁1251-4	-12.8344
▁dangereuse	-12.8348
▁dépendait	-12.8348
▁321-2	-12.8348
▁371	-12.8351
▁conditionnée	-12.8351
▁prévisionnelle	-12.8353
▁Nationale	-12.8357
▁223-1	-12.8362
13-8	-12.8362
▁2]),	-12.8364
▁prima	-12.8367
▁manifester	-12.8368
▁recettes	-12.8377
▁rapidement	-12.8377
▁assurant	-12.8378
ITM	-12.838
▁bloqué	-12.838
▁jonction	-12.8381
urement	-12.8388
▁EST	-12.8388
étr	-12.8393
▁certifiée	-12.8394
midi	-12.8397
▁débits	-12.8401
▁mensongères	-12.8401
▁isolée	-12.8401
intégrer	-12.8401
▁équipes	-12.8424
▁italiennes	-12.8427
▁1134-1	-12.8427
▁aléa	-12.8432
▁FDG	-12.8437
nor	-12.8442
▁647	-12.8446
acompte	-12.8446
▁arbitraires	-12.8446
▁Sav	-12.8446
▁ouvrir	-12.8454
461-2	-12.8456
▁voisine	-12.8458
▁intégré	-12.8459
▁critiquer	-12.8462
▁endettement	-12.8463
▁confirm	-12.8463
ddition	-12.8467
▁rentr	-12.847
▁583	-12.8476
▁conserv	-12.8477
och	-12.8489
▁insertion	-12.8491
▁défenseur	-12.8491
ping	-12.8493
▁553	-12.8494
▁vain	-12.8504
▁333	-12.8515
▁divisé	-12.8522
640	-12.8533
▁proratisé	-12.8537
inactivité	-12.8538
eria	-12.856
▁révélés	-12.8574
▁appartements	-12.8582
▁répartie	-12.8582
▁demeurer	-12.8585
▁accusés	-12.8586
ajout	-12.86
▁habilitée	-12.86
▁Bard	-12.8604
exigent	-12.8607
Capital	-12.8618
impayés	-12.8619
Dijon	-12.8619
représentation	-12.8619
Q	-12.8619
cription	-12.862
▁1384	-12.862
▁ha	-12.8623
▁discuté	-12.8626
▁façade	-12.8638
▁416	-12.8646
MON	-12.8647
▁112-1	-12.8649
▁patrimonial	-12.8661
▁encouru	-12.8672
▁colle	-12.8675
berg	-12.8676
▁contribu	-12.8686
▁vid	-12.8691
▁Prop	-12.8694
▁BRM	-12.8699
▁auxiliaire	-12.8701
▁prénom	-12.8701
approuv	-12.8702
▁disparit	-12.8702
appropri	-12.8703
Buchheit	-12.8703
Evry	-12.8703
cohérence	-12.8703
ebradios	-12.8703
oeufs	-12.8703
▁22-23.9	-12.8703
▁22-24.7	-12.8703
▁23-10.8	-12.8703
▁Adrexo	-12.8703
▁Biogaran	-12.8703
▁Carcelles	-12.8703
▁Débout	-12.8703
▁Echange	-12.8703
▁Europipe	-12.8703
▁Girardin	-12.8703
▁Maniac	-12.8703
▁Mermet	-12.8703
▁Morbihan	-12.8703
▁Pibarot	-12.8703
▁Populaire	-12.8703
▁Predictis	-12.8703
▁Retail	-12.8703
▁Scheuten	-12.8703
▁Sécurité	-12.8703
▁Vanuxeem	-12.8703
▁Waroude	-12.8703
▁admissibles	-12.8703
▁congrès	-12.8703
▁domiciliation	-12.8703
▁fiabilité	-12.8703
▁flagrant	-12.8703
▁forêt	-12.8703
▁fussent	-12.8703
▁légitimité	-12.8703
▁phénomène	-12.8703
▁probabilité	-12.8703
▁racisme	-12.8703
▁répertoire	-12.8703
▁spéciaux	-12.8703
▁tension	-12.8703
▁télétravail	-12.8703
▁vulnérable	-12.8703
▁étape	-12.8703
optimis	-12.8703
▁19-21.	-12.8703
▁Confirme	-12.8703
▁Essex	-12.8703
▁débours	-12.8703
▁forestier	-12.8703
▁minière	-12.8703
▁revue	-12.8703
▁vaccin	-12.8703
▁étroit	-12.8703
▁20/02	-12.8703
▁Croix	-12.8703
CGSS	-12.8703
▁133-4-5	-12.8703
▁assimilable	-12.8703
▁promis	-12.8703
▁photocopie	-12.8703
▁4-6)	-12.8703
▁climatique	-12.8703
▁2005-15	-12.8703
▁divisionnaire	-12.8703
▁Bardoul	-12.8703
▁4614-1	-12.8703
▁Santé	-12.8703
▁revendiquant	-12.8704
▁souhaitez	-12.8704
▁([3])	-12.8704
▁conduisait	-12.8704
▁DSS	-12.8704
▁186-3	-12.8705
encaissement	-12.8705
▁brutal	-12.8705
▁franco	-12.8705
▁receveur	-12.8706
▁palli	-12.8706
▁instauré	-12.8706
▁Nous	-12.8706
▁Engineering	-12.8707
ectification	-12.8707
▁rétablir	-12.8709
▁déterminent	-12.8709
usée	-12.8711
▁solaire	-12.8712
▁assurent	-12.8714
valait	-12.8715
▁495	-12.8715
▁prescrivant	-12.8716
▁3121-1	-12.8722
▁nouveauté	-12.8722
illégalité	-12.8723
▁133-3	-12.8724
▁SIFA	-12.8725
▁FTA	-12.8725
▁dépasser	-12.8727
▁Jacques	-12.8727
▁neige	-12.8731
abot	-12.8735
▁satisfaites	-12.8736
▁récurrente	-12.8736
▁immixtion	-12.8737
▁rencontrer	-12.8739
▁tendaient	-12.8739
▁trimestrielle	-12.8743
▁34-1	-12.8746
▁Pub	-12.8746
▁remplacée	-12.8749
▁reposent	-12.875
▁estimait	-12.8756
▁assigner	-12.8757
▁décernée	-12.8758
▁futures	-12.876
▁IDF	-12.8762
▁1945	-12.8762
▁Sans	-12.8764
admis	-12.8768
▁CGM	-12.8768
▁liquidée	-12.8768
24-3	-12.8772
▁intercommunale	-12.8784
▁cultures	-12.8788
cole	-12.8795
▁passible	-12.8799
▁consultants	-12.8801
▁ressortissants	-12.8801
▁majorées	-12.8801
▁vexatoires	-12.8803
appareil	-12.8806
▁rencontre	-12.8809
▁candidate	-12.8815
▁dégagé	-12.8817
traitante	-12.8823
▁Viv	-12.8826
▁adoptées	-12.8831
▁agréés	-12.8837
▁précontractuel	-12.8848
▁expropriés	-12.8848
▁menées	-12.8856
onnent	-12.8862
▁environ	-12.8874
▁contourn	-12.889
roche	-12.8898
cima	-12.8905
▁marin	-12.8909
école	-12.891
ALL	-12.8915
▁638	-12.893
PCA	-12.8939
▁Fabr	-12.8956
▁impartial	-12.8964
énonciation	-12.8969
▁modifie	-12.8982
«	-12.899
▁doté	-12.8994
juge	-12.8994
propriétaire	-12.9003
ingérence	-12.9003
interdis	-12.9003
source	-12.9003
Su	-12.9004
interdit	-12.9005
rité	-12.9006
▁pens	-12.9015
▁développé	-12.9018
athieu	-12.9021
▁Moulin	-12.9023
oncentr	-12.9038
ION	-12.9046
▁mauvais	-12.9058
exploit	-12.9068
▁délivr	-12.907
enjoindre	-12.908
remier	-12.9086
assimil	-12.9086
aggrav	-12.9087
infiltration	-12.9087
▁85/374	-12.9088
-02.02.	-12.9088
ANGDM	-12.9088
adhérer	-12.9088
échantillon	-12.9088
▁21-23.84	-12.9088
▁22-22.6	-12.9088
▁22-23.7	-12.9088
▁44/2001	-12.9088
▁Communauté	-12.9088
▁Eurotitrisation	-12.9088
▁Goudale	-12.9088
▁Heerema	-12.9088
▁Kotan	-12.9088
▁Médiapost	-12.9088
▁Observer	-12.9088
▁Texatop	-12.9088
▁Vaucluse	-12.9088
▁Zanni	-12.9088
▁blessé	-12.9088
▁concomitamment	-12.9088
▁demandaient	-12.9088
▁fixait	-12.9088
▁fraudés	-12.9088
▁hospitalisé	-12.9088
▁illusoire	-12.9088
▁islamique	-12.9088
▁justificatives	-12.9088
▁législatif	-12.9088
▁magazine	-12.9088
▁maintenant	-12.9088
▁mensonge	-12.9088
▁moratoire	-12.9088
▁musique	-12.9088
▁négoce	-12.9088
▁phrase	-12.9088
▁profane	-12.9088
▁prohibition	-12.9088
▁psychiatre	-12.9088
▁ruisseaux	-12.9088
▁surcharge	-12.9088
▁22-24.4	-12.9088
▁22-86.4	-12.9088
▁23-84.1	-12.9088
▁basket	-12.9088
▁décisoire	-12.9088
▁déplacé	-12.9088
▁promoteur	-12.9088
▁quiconque	-12.9088
▁sévère	-12.9088
▁vicié	-12.9088
▁visible	-12.9088
animateur	-12.9088
▁23-11.3	-12.9088
▁23-11.6	-12.9088
▁artificielle	-12.9088
▁locateur	-12.9088
infère	-12.9088
▁Photo	-12.9088
▁recommandations	-12.9088
▁Rémy	-12.9088
▁cru	-12.9088
▁semestr	-12.9088
▁EPSI	-12.9088
▁nuire	-12.9088
assujettissement	-12.9088
▁télévision	-12.9088
▁commettant	-12.9088
▁Warn	-12.9088
ignorai	-12.9088
extraction	-12.9088
▁22-87.3	-12.9088
211-40	-12.9088
▁libéraux	-12.9088
▁intervenait	-12.9088
▁coopératif	-12.9088
▁contiennent	-12.9088
▁entrait	-12.9088
▁89-4	-12.9089
gramme	-12.9089
actualisation	-12.9089
▁privatif	-12.9089
▁FHF	-12.9091
expliquaient	-12.9091
▁1237-1	-12.9091
▁bénéficiaient	-12.9092
▁dédit	-12.9092
▁148-1	-12.9094
▁441-11	-12.9094
▁dominante	-12.9095
▁VRP	-12.9097
empiétement	-12.9099
▁soupçons	-12.9099
▁Cler	-12.9101
▁1251-3	-12.9102
▁Patr	-12.9102
▁offrai	-12.9103
▁décal	-12.9105
▁chiffré	-12.9105
▁gratuitement	-12.9105
▁[18],	-12.9106
▁Products	-12.9107
▁CPS	-12.9107
▁Ligue	-12.9108
▁contrevenant	-12.9109
▁différemment	-12.9109
▁assumer	-12.911
▁Tha	-12.9111
▁prévalue	-12.9114
▁inexacts	-12.9115
▁abattement	-12.9116
▁provoquée	-12.9117
▁111-4	-12.9119
▁tête	-12.912
▁graphique	-12.9123
▁terrassement	-12.9129
▁432	-12.9133
▁2021-17	-12.9134
auf	-12.9138
▁cogérants	-12.914
▁contributives	-12.9143
▁impact	-12.9146
▁Collectionneurs	-12.9148
▁successives	-12.9148
▁1982	-12.9149
▁avertie	-12.915
▁immatériels	-12.9151
Charentes	-12.9153
▁développés	-12.9154
▁marins	-12.9154
▁Licenciée	-12.916
▁hypothèques	-12.9164
assise	-12.9171
▁accepte	-12.9176
▁précisées	-12.9177
▁revendique	-12.9178
11-13	-12.9179
atifs	-12.9183
org	-12.9188
atant	-12.919
▁Real	-12.9191
▁militaires	-12.9192
aise	-12.9193
▁allègue	-12.9194
▁111-2	-12.9194
▁310	-12.9196
▁arrestation	-12.9201
▁distribué	-12.9204
exportation	-12.9204
▁paraît	-12.9214
▁concluait	-12.9224
▁infligée	-12.9225
bra	-12.9227
▁nets	-12.9228
▁497	-12.9235
▁Pap	-12.9243
invocation	-12.9243
entreprendre	-12.9249
▁diligentées	-12.9252
▁votée	-12.9254
▁joueurs	-12.926
▁[15]	-12.9263
▁proratis	-12.9263
engin	-12.9269
▁objectiv	-12.9272
▁subrogée	-12.9275
of	-12.9276
▁472	-12.9281
Iran	-12.93
▁668	-12.9316
cteurs	-12.9327
yba	-12.9329
▁541	-12.9334
▁415	-12.9337
heb	-12.9344
▁édicté	-12.9345
▁365	-12.9349
▁Grande	-12.9372
▁269	-12.9373
élu	-12.9378
▁notarial	-12.9382
▁offert	-12.9384
▁réglementé	-12.9396
2-14	-12.9401
adhérent	-12.9403
incrimination	-12.9403
Espace	-12.9403
arriéré	-12.9403
Besançon	-12.9404
ajoutant	-12.9409
▁423	-12.9417
▁Rec	-12.942
▁immatériel	-12.9422
▁stratégique	-12.9423
▁collègue	-12.9423
▁Transport	-12.9424
▁territorial	-12.9427
itter	-12.9445
▁utilis	-12.9448
▁attesté	-12.9451
▁inhérente	-12.9461
indemnis	-12.9462
076	-12.9468
▁explicite	-12.9473
2-25	-12.9475
▁emportera	-12.9481
▁roul	-12.9487
vêtements	-12.9487
▁prospect	-12.9487
▁buc	-12.9488
Ardèche	-12.9488
Aéroport	-12.9488
CRAMA	-12.9488
Exploitation	-12.9488
esdames	-12.9488
espoir	-12.9488
unanimité	-12.9488
▁21-24.67	-12.9488
▁22-22.8	-12.9488
▁22-87.2	-12.9488
▁23-10.6	-12.9488
▁23-14.3	-12.9488
▁23-80.4	-12.9488
▁Agricole	-12.9488
▁Chavanoz	-12.9488
▁Coffee	-12.9488
▁Creacard	-12.9488
▁Emploi	-12.9488
▁Financo	-12.9488
▁Ingénierie	-12.9488
▁Olymp	-12.9488
▁QUATRIEME	-12.9488
▁Sociale	-12.9488
▁Système	-12.9488
▁Tokio	-12.9488
▁Wesina	-12.9488
▁concédé	-12.9488
▁contraindre	-12.9488
▁contrebande	-12.9488
▁dialogue	-12.9488
▁détérioration	-12.9488
▁iatrog	-12.9488
▁impératif	-12.9488
▁incorporels	-12.9488
▁nomenclature	-12.9488
▁pandémie	-12.9488
▁probité	-12.9488
▁reconduction	-12.9488
▁technologiques	-12.9488
▁tolérance	-12.9488
▁île	-12.9488
▁22-24.6	-12.9488
▁22-83.5	-12.9488
▁23-10.9	-12.9488
▁23-80.3	-12.9488
▁331-2	-12.9488
▁fidèle	-12.9488
▁phonogra	-12.9488
▁alerté	-12.9488
▁Jura	-12.9488
▁USIC	-12.9488
▁470-1	-12.9488
▁unitaire	-12.9488
▁déclaratif	-12.9488
▁informatif	-12.9488
▁21-25.94	-12.9488
▁finition	-12.9488
▁Investissements	-12.9488
▁Lido	-12.9488
▁3-3)	-12.9488
▁165-1	-12.9488
▁Puis	-12.9488
▁1152-3	-12.9488
▁Green	-12.9488
▁131-4	-12.9488
▁jouit	-12.9488
chures	-12.9488
▁arguments	-12.9489
▁anomalies	-12.9489
pave	-12.9489
▁RGPD	-12.9489
▁cave	-12.9489
▁instruments	-12.9489
▁Menco	-12.9489
▁formulation	-12.9489
▁réputation	-12.949
accessi	-12.949
ncid	-12.949
▁péri	-12.9491
▁déroulées	-12.9491
▁HBS	-12.9492
▁bain	-12.9492
SIPO	-12.9492
▁212-1	-12.9493
infér	-12.9494
▁fournissait	-12.9494
▁19-14.	-12.9494
▁hôtelier	-12.9494
▁sauv	-12.9495
-498	-12.9495
énumération	-12.9497
▁expirant	-12.9499
▁incertaine	-12.95
▁legs	-12.9505
▁1116	-12.9506
▁322-2	-12.9508
▁Jour	-12.9512
▁verbalement	-12.9515
enregistrer	-12.9516
▁voulu	-12.9516
ssortissant	-12.9517
▁relance	-12.9517
▁marocaine	-12.9522
▁Yo	-12.9528
▁intérim	-12.9531
▁viticoles	-12.9532
▁22/0	-12.9536
nergie	-12.9538
▁voisins	-12.9546
▁attaque	-12.9549
▁1950	-12.9558
▁façades	-12.9559
▁aller	-12.9562
▁établissaient	-12.957
▁substitue	-12.957
▁conc	-12.9582
▁BSA	-12.9583
▁3211-12	-12.9588
41-5	-12.9589
▁650	-12.9598
▁laissée	-12.9602
▁réclam	-12.9603
▁implantée	-12.9621
▁indemnisables	-12.9626
▁sinc	-12.9628
tam	-12.9629
▁installée	-12.9632
▁erronées	-12.9634
entraîner	-12.964
▁bras	-12.9643
▁conditionne	-12.9645
coup	-12.9645
▁2016-18	-12.9662
▁traiter	-12.9675
communications	-12.968
▁645	-12.968
▁Cama	-12.9692
▁23-10.3	-12.9696
▁chargeur	-12.9708
▁488	-12.9711
égi	-12.9734
▁consacrée	-12.9735
▁révoqué	-12.9746
▁procur	-12.9756
▁Univers	-12.9766
▁rétabli	-12.9768
▁avancé	-12.9776
▁abrogé	-12.978
▁243-6	-12.9785
▁spécifi	-12.98
établisse	-12.9807
Georges	-12.9808
gérance	-12.9819
établissaient	-12.9819
apparent	-12.982
Normandie	-12.982
obstacle	-12.9821
transmis	-12.9821
▁successive	-12.9826
▁diffus	-12.9835
salariés	-12.9836
▁franc	-12.9836
hn	-12.9837
▁échu	-12.9837
▁minute	-12.9839
▁douane	-12.984
▁voyageur	-12.9841
aisant	-12.9847
▁Collectionneur	-12.9848
élices	-12.9855
EDF	-12.9859
▁projetée	-12.986
▁néerlandais	-12.9875
▁considér	-12.9879
▁forcé	-12.9883
▁désiste	-12.989
▁corporat	-12.9892
▁énumér	-12.9894
▁diligenté	-12.9898
▁circul	-12.9899
▁biologi	-12.9899
oteurs	-12.9899
▁délimit	-12.99
métrique	-12.9903
onnait	-12.9903
infection	-12.9904
Océan	-12.9904
échelon	-12.9904
▁néglige	-12.9904
▁êtes	-12.9904
AFUL	-12.9904
Canada	-12.9904
Dôme	-12.9904
Omnium	-12.9904
Orientales	-12.9904
alcoolémie	-12.9904
indisponibilité	-12.9904
éroportuaire	-12.9904
▁21-19.03	-12.9904
▁22-12.44	-12.9904
▁22-84.2	-12.9904
▁22-85.6	-12.9904
▁Automation	-12.9904
▁Corning	-12.9904
▁Dometic	-12.9904
▁Hainaut	-12.9904
▁Innovassur	-12.9904
▁Keating	-12.9904
▁Mercialys	-12.9904
▁Montargis	-12.9904
▁Mouchottes	-12.9904
▁Opteven	-12.9904
▁Pellenc	-12.9904
▁Solférino	-12.9904
▁Teisseire	-12.9904
▁boycott	-12.9904
▁campagne	-12.9904
▁changé	-12.9904
▁cliché	-12.9904
▁comprenne	-12.9904
▁conductrice	-12.9904
▁contestaient	-12.9904
▁coordonnées	-12.9904
▁curatelle	-12.9904
▁curatrice	-12.9904
▁endommagé	-12.9904
▁flous	-12.9904
▁gratification	-12.9904
▁habitable	-12.9904
▁irréfragable	-12.9904
▁minoritaire	-12.9904
▁permettrait	-12.9904
▁pluviales	-12.9904
▁23-11.7	-12.9904
▁PHARM	-12.9904
▁barrage	-12.9904
igny	-12.9904
▁08-86.	-12.9904
▁opté	-12.9904
▁DÉSIGNE	-12.9904
▁Team	-12.9904
▁surprise	-12.9904
▁délaissées	-12.9904
▁Guiban	-12.9904
▁couleur	-12.9904
intervalle	-12.9904
annonce	-12.9904
▁Pascal	-12.9904
▁persistance	-12.9904
▁laitiers	-12.9905
▁2020-31	-12.9905
▁Chef	-12.9905
▁viagère	-12.9905
▁dilatoire	-12.9905
▁2009-9	-12.9905
▁341-3	-12.9906
isolation	-12.9906
▁Tous	-12.9906
▁pharmacien	-12.9906
▁tracteur	-12.9906
▁poursuivait	-12.9907
▁FFJ	-12.9907
▁ample	-12.9907
▁supposant	-12.9908
▁représentent	-12.991
▁conservant	-12.991
▁Maine	-12.9911
▁franchisées	-12.9911
▁411-35	-12.9916
▁CNAM	-12.9916
▁5424-	-12.9916
▁(1009-1)	-12.9916
▁bout	-12.9917
▁131-2	-12.9918
▁Mobilit	-12.992
▁poser	-12.9922
▁renforcée	-12.9924
▁épisode	-12.9924
▁usurp	-12.9928
oz	-12.9929
▁loyalement	-12.9929
▁UAT	-12.993
▁incombent	-12.9932
▁péremptoirement	-12.9933
▁préférentielle	-12.9934
▁abstention	-12.9936
▁expédition	-12.9943
appliquerait	-12.9943
▁diligente	-12.9945
▁supposée	-12.9946
▁facteurs	-12.9948
main	-12.9949
▁rencontré	-12.9952
▁60-1	-12.9953
▁emportait	-12.9956
Ordre	-12.9962
▁sages	-12.9974
▁1648	-12.998
▁précisée	-12.9985
concurrentielles	-12.9987
ANT	-12.9991
▁encadré	-12.9994
▁Industries	-13.0004
▁revêtue	-13.0006
▁727	-13.0014
▁575	-13.0022
▁assimilées	-13.0025
▁municipale	-13.0039
▁appréhendée	-13.004
▁commencer	-13.0041
▁659	-13.0044
▁commandit	-13.0048
▁469	-13.0049
quoi	-13.005
barre	-13.0053
étay	-13.0065
678	-13.0071
.497	-13.0083
▁1000	-13.009
▁Han	-13.011
▁marié	-13.0113
▁2232	-13.0129
▁comptabilisé	-13.0132
▁émane	-13.0153
viendra	-13.0162
▁déduites	-13.0173
▁990	-13.0186
mast	-13.0187
▁réserver	-13.0199
édic	-13.0202
irecteur	-13.0222
33-10	-13.0225
llers	-13.0237
Aube	-13.0239
obstruction	-13.0254
adversaire	-13.0254
▁persistant	-13.0255
ingénierie	-13.0255
équivalent	-13.0255
Papeete	-13.0255
République	-13.0255
dernier	-13.0255
intervenir	-13.0255
anda	-13.0256
accepte	-13.0265
▁distributeur	-13.0274
▁diffamatoire	-13.0274
▁machine	-13.0275
▁minimal	-13.0284
▁consult	-13.0287
▁astreint	-13.0294
▁hypermarché	-13.0299
livreur	-13.0305
▁transportée	-13.0317
▁signifi	-13.0319
▁395	-13.0322
ito	-13.0324
▁subsist	-13.0332
▁exonéré	-13.0336
réambule	-13.0337
éritiers	-13.0338
Avignon	-13.0339
affichage	-13.0339
alléguait	-13.0339
appuyant	-13.0339
effacement	-13.0339
emphytéote	-13.0339
océan	-13.0339
▁22-85.9	-13.0339
▁411-69	-13.0339
▁Agirc	-13.0339
▁Akjol	-13.0339
▁Carclassic	-13.0339
▁Diffusion	-13.0339
▁Distritec	-13.0339
▁Effigest	-13.0339
▁Eurial	-13.0339
▁Eurimex	-13.0339
▁Fauveder	-13.0339
▁Foncier	-13.0339
▁Gmbh	-13.0339
▁Prestige	-13.0339
▁Roquette	-13.0339
▁Vosges	-13.0339
▁bénévole	-13.0339
▁cigarettes	-13.0339
▁contagion	-13.0339
▁différer	-13.0339
▁dissoute	-13.0339
▁déclaratives	-13.0339
▁délictueux	-13.0339
▁fatigue	-13.0339
▁fibrose	-13.0339
▁pavillon	-13.0339
▁présidé	-13.0339
▁rouge	-13.0339
▁similitude	-13.0339
▁soutènement	-13.0339
▁vibrations	-13.0339
▁évoquant	-13.0339
extrême	-13.0339
▁21-20.70	-13.0339
▁22-23.0	-13.0339
▁22-84.6	-13.0339
▁22-85.1	-13.0339
▁23-12.4	-13.0339
▁23-13.0	-13.0339
▁Club	-13.0339
▁circonscrit	-13.0339
▁résiduel	-13.0339
autorisait	-13.0339
imprimé	-13.0339
▁22-13.50	-13.0339
▁badge	-13.0339
▁blocs	-13.0339
▁situant	-13.0339
▁tonnes	-13.0339
▁verts	-13.0339
▁VIII	-13.0339
▁soulève	-13.0339
▁77-1-1	-13.0339
▁Remis	-13.0339
▁22-20.4	-13.0339
▁milieu	-13.0339
▁Vidal	-13.0339
▁acceptant	-13.0339
kog	-13.0339
épaule	-13.0339
▁décelé	-13.0339
▁concessionnaire	-13.0339
▁notable	-13.0339
▁sachant	-13.0339
▁NACC	-13.0339
▁nationaux	-13.0339
▁fauteuil	-13.0339
▁bijoux	-13.0339
Aude	-13.0339
▁Royal	-13.0339
▁raisonnement	-13.0339
▁légèreté	-13.0339
isolement	-13.0339
▁différentiel	-13.0339
▁Uber	-13.0339
▁outils	-13.034
▁patronales	-13.034
▁Villa	-13.034
▁recouvreur	-13.034
▁gouvernementale	-13.034
▁poursuivent	-13.034
▁Duic	-13.0341
▁provenance	-13.0341
▁DSV	-13.0341
▁prennent	-13.0341
▁JBA	-13.0341
ariat	-13.0341
Arc	-13.0341
▁233-2	-13.0342
▁coiffe	-13.0342
▁pareille	-13.0342
jac	-13.0343
▁monté	-13.0343
▁canal	-13.0343
▁dispensant	-13.0343
▁portion	-13.0343
▁Bouvet	-13.0343
▁maintenue	-13.0345
▁3-4)	-13.0345
▁810,	-13.0346
▁BRMJ	-13.0346
▁Technic	-13.0348
▁comparait	-13.035
▁SCA	-13.035
▁NAO	-13.0352
▁Active	-13.0353
mable	-13.0354
▁répondaient	-13.0355
▁rédiger	-13.0356
▁ponctuelle	-13.0363
▁passive	-13.0363
315-1	-13.0364
▁vallée	-13.0368
issage	-13.0369
expos	-13.0371
.211-1	-13.0371
▁Bord	-13.0372
▁BCF	-13.0376
▁infirmiers	-13.0388
▁Hall	-13.0391
▁Avenir	-13.04
▁Nova	-13.0407
▁minutes	-13.0408
▁Réa	-13.0409
341-1	-13.0411
▁chiffrés	-13.0413
▁unies	-13.0413
▁intégrés	-13.0418
▁séparée	-13.0423
▁documentaire	-13.0424
▁espagnoles	-13.0427
▁déchargement	-13.043
hic	-13.0431
penser	-13.0433
algérienne	-13.0434
lav	-13.0439
EGI	-13.0441
▁Tec	-13.0443
▁affirmée	-13.045
34-2	-13.0452
▁Gh	-13.0455
▁courantes	-13.0456
arch	-13.0459
▁4132-	-13.048
venaient	-13.0495
pprécia	-13.0508
▁désign	-13.0515
prendre	-13.0521
▁notifie	-13.0523
▁précédée	-13.0542
lem	-13.0564
▁Carre	-13.0567
▁voisin	-13.057
▁notifi	-13.058
▁558	-13.0586
igue	-13.0632
assage	-13.0652
▁[22]	-13.0663
▁veu	-13.0664
atteint	-13.067
vin	-13.0677
invit	-13.0697
451-1	-13.0698
710	-13.07
autorise	-13.0706
accroissement	-13.0709
échapper	-13.0709
alimentaire	-13.071
conciliation	-13.071
Groupama	-13.071
agissements	-13.071
familiales	-13.071
prix	-13.071
▁mental	-13.0715
▁contributive	-13.0728
▁quittance	-13.0729
▁prouv	-13.0731
▁retrouve	-13.0731
▁manuscrit	-13.0735
▁inexistant	-13.0737
▁prévalu	-13.0763
▁connaisse	-13.0763
▁provoqu	-13.0768
▁intégral	-13.0776
▁remplace	-13.0778
▁opportun	-13.0779
chauffe	-13.0786
▁posséd	-13.079
▁enjoi	-13.0791
▁Alexand	-13.0791
▁modul	-13.0793
▁General	-13.0793
adulte	-13.0793
▁méconnaissan	-13.0793
▁priori	-13.0793
▁résolu	-13.0793
influ	-13.0793
▁23-80.6	-13.0794
▁23-80.8	-13.0794
▁23-84.3	-13.0794
▁conférai	-13.0794
Anjou	-13.0794
Epargne	-13.0794
Restaurant	-13.0794
abrogation	-13.0794
adapter	-13.0794
démarrage	-13.0794
instruire	-13.0794
▁22-82.9	-13.0794
▁22-84.8	-13.0794
▁22-85.5	-13.0794
▁22-86.8	-13.0794
▁23-11.4	-13.0794
▁23-12.6	-13.0794
▁23-12.9	-13.0794
▁23-81.1	-13.0794
▁23-83.5	-13.0794
▁Arbeit	-13.0794
▁Astek	-13.0794
▁Cheuvreux	-13.0794
▁Chronopost	-13.0794
▁JIRS	-13.0794
▁Kiloutou	-13.0794
▁Laulhère	-13.0794
▁Lemouel	-13.0794
▁Novandie	-13.0794
▁Rolesco	-13.0794
▁Sojag	-13.0794
▁Vincent	-13.0794
▁abrégée	-13.0794
▁albanais	-13.0794
▁appuyé	-13.0794
▁chaussures	-13.0794
▁clarté	-13.0794
▁compatibilité	-13.0794
▁contraignant	-13.0794
▁coutumier	-13.0794
▁croire	-13.0794
▁cycle	-13.0794
▁dangerosité	-13.0794
▁défectueuse	-13.0794
▁déguisée	-13.0794
▁intrinsèque	-13.0794
▁modificatif	-13.0794
▁pathologique	-13.0794
▁plastiques	-13.0794
▁programmation	-13.0794
▁résidait	-13.0794
▁territoriaux	-13.0794
▁timbre	-13.0794
▁vignerons	-13.0794
▁énumère	-13.0794
▁chronologi	-13.0794
▁1233-5	-13.0794
▁21-20.35	-13.0794
▁Ferjac	-13.0794
▁vaste	-13.0794
▁Livre	-13.0794
▁Micro	-13.0794
▁excip	-13.0794
▁4-7)	-13.0794
▁vague	-13.0794
▁aboutissant	-13.0794
accumul	-13.0794
▁fermé	-13.0794
▁rayon	-13.0794
▁235-1	-13.0794
▁containers	-13.0794
▁Elite	-13.0794
▁OIL	-13.0794
administratrice	-13.0794
▁plomberie	-13.0794
▁2016-66	-13.0794
▁chants	-13.0794
▁1242-2	-13.0794
▁1152-2	-13.0794
harmonis	-13.0794
▁déplacer	-13.0794
▁CBF	-13.0795
▁distinctif	-13.0795
▁Adam	-13.0795
'[3]	-13.0796
▁Stur	-13.0796
▁DHL	-13.0797
▁chiffrées	-13.0797
▁démenti	-13.0797
▁Corum	-13.0798
▁706-154	-13.0798
▁Stella	-13.0798
▁rail	-13.0799
▁2314-3	-13.0799
▁2-5	-13.0801
▁distribuer	-13.0803
▁dépendre	-13.0805
Mme	-13.0806
▁USIM	-13.0807
▁édicte	-13.0808
▁[17],	-13.0812
▁évolué	-13.0813
rochant	-13.0813
▁connaiss	-13.0813
génie	-13.0815
▁622-21	-13.0815
▁logistics	-13.0817
▁Energie	-13.0818
▁EAD	-13.0829
▁4-1)	-13.0829
▁soumet	-13.0831
▁SCT	-13.0836
▁Bati	-13.0836
mm	-13.0838
▁urbaine	-13.0841
▁SBS	-13.0844
▁monte	-13.0852
city	-13.0852
1334	-13.0853
▁1955	-13.0863
▁communiqu	-13.0869
121-4	-13.087
▁défaillante	-13.0876
▁809	-13.0898
▁dédiée	-13.091
▁attestée	-13.0911
▁corporelle	-13.0919
indiqu	-13.0926
6-5	-13.0935
ô	-13.0942
▁jouiss	-13.0943
▁1153	-13.0951
▁payant	-13.0961
▁format	-13.0962
éenne	-13.0963
▁communale	-13.0984
angle	-13.0996
lta	-13.1004
▁Optic	-13.1008
111-2	-13.1012
▁perdur	-13.1029
oteaux	-13.1051
▁diminué	-13.106
▁2411-1	-13.1061
▁dépasse	-13.1064
jeter	-13.1071
0-9	-13.1081
▁sign	-13.1094
▁correct	-13.11
▁infligé	-13.1102
▁Madr	-13.1103
▁141-1	-13.111
Ille	-13.1112
▁déroul	-13.1117
▁relate	-13.1122
▁932	-13.1124
émis	-13.1131
montrent	-13.1148
▁occasionnel	-13.1152
dont	-13.116
▁706-15	-13.116
▁cadastré	-13.1162
▁inséré	-13.1174
▁3221-	-13.1182
interprète	-13.1185
écart	-13.1185
continu	-13.1186
Entreprise	-13.1186
invoquait	-13.1186
administratif	-13.1186
2016-131	-13.1186
hoc	-13.119
▁achevé	-13.1192
▁parisien	-13.1202
ajouter	-13.1203
▁confisqué	-13.1205
▁fruit	-13.1205
▁commerçant	-13.1205
▁mètre	-13.1205
▁cogérant	-13.1205
▁connexe	-13.1206
▁film	-13.1207
▁Safi	-13.1235
trum	-13.124
▁Natural	-13.1242
▁suggér	-13.1249
▁évolu	-13.1249
▁Général	-13.125
▁varie	-13.1252
▁dégrad	-13.1253
▁future	-13.1255
▁3141-1	-13.1257
IDE	-13.1261
▁Caste	-13.1265
▁prévalai	-13.1266
incrimine	-13.1267
▁constructi	-13.1268
▁journal	-13.1269
▁récapitul	-13.1269
▁démoli	-13.127
▁Studio	-13.127
▁produira	-13.127
Architecture	-13.127
Auxiliaire	-13.127
Exea	-13.127
Iraq	-13.127
Pièce	-13.127
avère	-13.127
empiète	-13.127
incompatibilité	-13.127
intensité	-13.127
ombrelle	-13.127
▁22-10.94	-13.127
▁22-12.5	-13.127
▁22-84.4	-13.127
▁23-80.2	-13.127
▁Bastien	-13.127
▁CLMCE	-13.127
▁Clemessy	-13.127
▁Développement	-13.127
▁Eaudiofuite	-13.127
▁Facebook	-13.127
▁Faurecia	-13.127
▁GrdF	-13.127
▁Gémie	-13.127
▁Jaulin	-13.127
▁Kugel	-13.127
▁Martigues	-13.127
▁Matmut	-13.127
▁Mediserres	-13.127
▁Monoprix	-13.127
▁Pacifique	-13.127
▁Prince	-13.127
▁Rapido	-13.127
▁SUBSIDIAIREMENT	-13.127
▁Sodexo	-13.127
▁Soetaert	-13.127
▁Soltechnic	-13.127
▁Soulard	-13.127
▁Syndex	-13.127
▁Tejarat	-13.127
▁Thierry	-13.127
▁articulés	-13.127
▁béret	-13.127
▁clandestin	-13.127
▁collision	-13.127
▁colloque	-13.127
▁collégiale	-13.127
▁délégant	-13.127
▁faisabilité	-13.127
▁flux	-13.127
▁inexploitable	-13.127
▁inhabituel	-13.127
▁interbancaire	-13.127
▁introductive	-13.127
▁offrir	-13.127
▁onzième	-13.127
▁potable	-13.127
▁réflexion	-13.127
▁souffrai	-13.127
▁successeur	-13.127
▁tapis	-13.127
▁touristique	-13.127
▁urgent	-13.127
▁échangées	-13.127
▁23-13.4	-13.127
▁percevr	-13.127
▁Catal	-13.127
▁Citya	-13.127
▁Tarn	-13.127
▁notoire	-13.127
▁ramené	-13.127
▁divergence	-13.127
▁PACA	-13.127
▁133-8	-13.127
inquiétude	-13.127
▁930-1	-13.127
▁lisible	-13.127
▁380-3-1	-13.127
▁malade	-13.127
▁agro	-13.127
▁limine	-13.127
▁Cybe	-13.127
sphère	-13.127
▁peuple	-13.127
▁Acim	-13.127
▁commentaire	-13.127
▁coordonnateur	-13.127
▁Pochet	-13.127
▁légère	-13.127
▁gliss	-13.127
▁East	-13.127
▁Charras	-13.127
▁perçoivent	-13.127
▁Systems	-13.127
▁déposant	-13.127
▁Juri	-13.127
▁pesée	-13.127
▁paysages	-13.127
▁Générali	-13.127
▁Sams	-13.1271
▁connect	-13.1271
▁Market	-13.1271
▁malaise	-13.1271
▁choc	-13.1271
▁1-7)	-13.1272
▁bordereaux	-13.1272
▁vécu	-13.1272
▁[11]	-13.1272
▁tradition	-13.1272
▁2143-3	-13.1272
▁provient	-13.1273
▁2315-86	-13.1273
▁245-5-	-13.1274
▁324-1-1	-13.1274
▁Castel	-13.1274
elui	-13.1276
▁envisageait	-13.1277
▁absorbée	-13.1277
▁Clever	-13.1278
▁découlent	-13.1279
▁Sade	-13.128
▁313-12	-13.1281
▁TEG	-13.1282
Artois	-13.1282
réparateur	-13.1284
▁Trade	-13.1288
▁DESIGNE	-13.1288
exprimer	-13.1289
▁dentaire	-13.129
▁restent	-13.1292
xtant	-13.1298
▁porteuse	-13.1299
▁132-4	-13.13
ayon	-13.1302
▁56-1	-13.1305
▁révoqu	-13.1305
262-1	-13.1308
▁Fev	-13.1316
oix	-13.1318
▁recouvr	-13.1322
▁provenai	-13.1322
▁Sub	-13.1323
▁HPH	-13.1325
▁Lavoix	-13.1328
/17	-13.1329
▁1927	-13.133
tz	-13.1331
▁sanctionne	-13.1336
62-3	-13.134
lèse	-13.1353
42-18	-13.1359
▁Adou	-13.1364
▁persistante	-13.137
▁détruite	-13.1393
limited	-13.1403
▁gérée	-13.1409
▁Gam	-13.1415
▁111-1	-13.1417
▁changer	-13.1419
▁manifest	-13.1431
aveu	-13.1469
▁réprimé	-13.1484
▁reportée	-13.1514
▁composante	-13.1541
TAT	-13.1554
enante	-13.1559
114-10	-13.1572
▁Arr	-13.1576
▁suppos	-13.1585
▁Mille	-13.1587
▁programmé	-13.1595
▁Axes	-13.1605
pay	-13.1634
attest	-13.1684
auxiliaire	-13.1685
opinion	-13.1685
Etienne	-13.1685
implants	-13.1685
CESEDA	-13.1685
exerçait	-13.1686
Art	-13.1688
mettaient	-13.1688
▁respective	-13.1698
▁caus	-13.1699
▁annuité	-13.1705
▁originaire	-13.1705
▁culturelle	-13.1705
Sud	-13.1706
1-7	-13.1725
▁édict	-13.1728
▁contente	-13.1731
▁145-4	-13.1736
▁pertinente	-13.1738
▁convoqu	-13.1742
opter	-13.1759
▁term	-13.1761
▁perturb	-13.1761
▁délégu	-13.1766
.581	-13.1766
▁dépose	-13.1767
▁syrien	-13.1767
▁usé	-13.1768
institut	-13.1768
assembl	-13.1768
▁collabor	-13.1769
▁tromper	-13.1769
occult	-13.1769
▁retranscri	-13.1769
audiovisuel	-13.177
▁22-22.2	-13.177
▁22-83.6	-13.177
▁23-13.2	-13.177
▁23-81.2	-13.177
Officiel	-13.177
Touraine	-13.177
animosité	-13.177
assiduité	-13.177
débauchage	-13.177
fumures	-13.177
innovation	-13.177
écoulement	-13.177
▁1210/2003	-13.177
▁22-84.5	-13.177
▁23-10.5	-13.177
▁Aboud	-13.177
▁Audilab	-13.177
▁Coopérative	-13.177
▁Corep	-13.177
[...]
