<pad>	0
</s>	0
<unk>	0
<s>	0
,	-2.98431
▁de	-3.04201
'	-3.21717
▁la	-3.45529
.	-3.93274
▁l	-3.93813
▁[	-4.14506
▁du	-4.16068
▁et	-4.16297
▁le	-4.17953
▁à	-4.18871
▁d	-4.4499
▁en	-4.63202
]	-4.7243
▁	-4.78682
▁par	-4.80638
▁des	-4.88266
▁les	-4.9056
▁a	-4.92435
▁M	-5.01365
▁que	-5.02221
s	-5.04237
▁société	-5.11539
-	-5.1321
▁n	-5.17098
▁Mme	-5.18352
▁au	-5.29537
▁;	-5.32639
▁cassation	-5.45501
▁qu	-5.46933
],	-5.51175
▁Cour	-5.56798
▁code	-5.5891
article	-5.64492
▁:	-5.67193
▁président	-5.70442
A	-5.71226
▁procédure	-5.7237
appel	-5.72602
▁chambre	-5.74365
▁pas	-5.74634
°	-5.7465
▁conseiller	-5.77783
▁dans	-5.79026
▁cour	-5.79373
▁pour	-5.81886
▁pourvoi	-5.8309
▁sur	-5.83795
▁2023	-5.8471
▁est	-5.85616
arrêt	-5.85675
▁civile	-5.86743
dresse	-5.8705
▁son	-5.92585
▁A	-5.95558
▁DE	-5.99115
▁un	-6.01523
▁qui	-6.02367
▁L	-6.04634
▁une	-6.05284
▁__________	-6.12052
▁été	-6.13542
▁moyen	-6.14712
▁avocat	-6.16137
▁publique	-6.1668
▁E	-6.17387
▁ce	-6.19492
▁rendu	-6.21337
▁sa	-6.21428
en	-6.21624
▁ne	-6.222
▁aux	-6.22988
▁R	-6.2621
▁(	-6.27027
▁décision	-6.27678
▁Le	-6.28926
il	-6.30778
▁après	-6.34693
▁dont	-6.35957
▁application	-6.39388
_______________	-6.40445
▁U	-6.41923
▁F	-6.42833
▁CASSATION	-6.43574
▁I	-6.44448
e	-6.44815
▁ou	-6.45862
une	-6.47443
▁COUR	-6.4946
▁En	-6.50828
▁général	-6.50831
▁DU	-6.5227
▁contre	-6.57129
▁SCP	-6.57139
▁fait	-6.57706
un	-6.59513
er	-6.61759
▁demande	-6.63223
▁avoir	-6.65024
▁il	-6.65763
ment	-6.67178
)	-6.67769
▁La	-6.68273
▁1	-6.68276
▁siège	-6.69351
▁N	-6.69473
▁B	-6.70846
▁deux	-6.71237
L	-6.71995
▁«	-6.74357
▁formé	-6.7553
▁s	-6.75739
▁travail	-6.76608
▁Sur	-6.77831
▁se	-6.79942
▁loi	-6.80346
▁ses	-6.8203
▁P	-6.83377
a	-6.84508
T	-6.84821
▁lieu	-6.86566
D	-6.86615
▁juin	-6.87177
▁être	-6.8853
▁S	-6.88586
▁arrêt	-6.88871
▁où	-6.88921
▁euros	-6.89024
est	-6.89286
),	-6.91435
▁référendaire	-6.91713
▁débats	-6.9238
I	-6.92654
E	-6.92926
▁sans	-6.9323
▁2	-6.94128
▁vingt	-6.94907
▁cette	-6.94986
▁mars	-6.95319
▁»	-6.95618
▁greffier	-6.98802
▁étaient	-7.00329
▁observations	-7.0035
▁prononcé	-7.00982
▁litige	-7.01697
RE	-7.0238
▁conformé	-7.04016
▁titre	-7.04353
▁rapport	-7.04739
▁doyen	-7.05141
▁3	-7.06102
▁lors	-7.06812
audience	-7.08456
▁procureur	-7.09727
▁composée	-7.09811
▁É	-7.10379
▁conseillers	-7.11466
▁Q	-7.11512
NOM	-7.11584
▁non	-7.11633
▁mai	-7.1172
▁ainsi	-7.12289
▁somme	-7.1319
▁sont	-7.13666
▁avait	-7.13856
▁premier	-7.14285
▁Il	-7.14419
▁ces	-7.15345
▁droit	-7.15557
▁Pourvoi	-7.15947
▁domicilié	-7.1623
H	-7.16619
▁faisant	-7.16636
▁septembre	-7.1733
▁leur	-7.17502
▁parties	-7.18559
y	-7.18952
▁fonction	-7.19353
▁délibéré	-7.19415
▁AU	-7.19478
B	-7.19926
▁rapporteur	-7.20083
▁sociale	-7.2074
▁avril	-7.2088
▁Ainsi	-7.20978
R	-7.21213
trois	-7.21383
▁articles	-7.21504
▁contrat	-7.21538
▁4	-7.21767
▁précités	-7.22018
▁LA	-7.22036
▁alors	-7.23778
▁D	-7.23818
▁Ç	-7.23828
▁FRANÇAIS	-7.23909
▁mille	-7.23923
▁CHAMB	-7.23954
PLE	-7.23961
▁violé	-7.24154
PEU	-7.24257
▁présent	-7.24395
▁Vu	-7.24849
N	-7.256
▁nature	-7.26136
▁ont	-7.26165
▁audience	-7.26593
S	-7.27161
C	-7.27634
▁était	-7.29797
▁EN	-7.29959
▁1],	-7.30724
▁pénale	-7.30725
▁6	-7.3107
▁lui	-7.31086
O	-7.31222
▁ayant	-7.31246
▁présents	-7.31656
▁date	-7.32619
P	-7.33185
▁salarié	-7.33337
▁judiciaire	-7.33783
▁2],	-7.35253
Y	-7.35325
M	-7.35578
▁attaqué	-7.35787
G	-7.36264
▁alinéa	-7.38123
▁moyens	-7.38821
V	-7.39289
▁dossier	-7.39335
▁2.	-7.39366
U	-7.39605
▁spécialement	-7.39784
F	-7.40069
▁1.	-7.40205
▁2022	-7.4163
▁Paris	-7.41997
▁février	-7.42033
J	-7.42221
▁700	-7.42384
(	-7.42714
Z	-7.42716
▁juillet	-7.43567
▁juge	-7.43672
▁payer	-7.43798
▁Fait	-7.44378
W	-7.45221
X	-7.45248
▁dépens	-7.45368
▁présente	-7.45844
▁même	-7.45875
▁CONSÉQUENCE	-7.46388
▁2°/	-7.46455
opposant	-7.46469
▁statuer	-7.47258
▁1°/	-7.47366
▁jugement	-7.47627
▁domiciliée	-7.4789
près	-7.48053
▁grief	-7.48297
▁qualité	-7.48527
▁janvier	-7.49273
elle	-7.49354
▁décembre	-7.49552
▁demandes	-7.51301
udience	-7.51409
▁communiqué	-7.51448
K	-7.51464
▁7	-7.51574
▁avec	-7.5252
▁octobre	-7.52758
ocalité	-7.52952
▁droits	-7.55044
▁5	-7.55243
▁2021	-7.5543
▁rejette	-7.55751
▁devant	-7.55802
▁dès	-7.56444
____________	-7.56903
°/	-7.57949
ordonnance	-7.58144
▁entre	-7.58794
▁DÉC	-7.5885
▁elle	-7.59174
▁cause	-7.59485
employeur	-7.597
▁dispositions	-7.59994
▁pris	-7.60323
▁y	-7.60466
▁peut	-7.60865
▁000	-7.61011
-1	-7.61291
▁8	-7.62305
▁Condamne	-7.62617
▁21	-7.63217
ant	-7.63841
▁novembre	-7.64021
▁C	-7.64026
▁10	-7.64496
encontre	-7.64912
▁deuxième	-7.6654
▁si	-7.66729
▁donc	-7.66964
▁13	-7.67818
▁première	-7.68626
▁jugé	-7.68639
2	-7.69247
▁résulte	-7.70356
instruction	-7.70738
▁Les	-7.7164
Réponse	-7.72905
▁22	-7.7319
▁9	-7.73694
noncé	-7.75848
▁requête	-7.76042
l	-7.76085
SION	-7.7646
▁Selon	-7.76747
▁soit	-7.76944
▁conclusions	-7.7749
▁paiement	-7.78182
1	-7.78357
▁civil	-7.78453
▁délai	-7.79799
▁manifestement	-7.80117
▁sous	-7.80252
ci	-7.80493
▁SARL	-7.80728
LE	-7.80782
▁doit	-7.808
▁REJET	-7.81039
▁Par	-7.81195
TE	-7.81692
▁mise	-7.81826
▁criminelle	-7.82389
▁15	-7.82552
▁tribunal	-7.82648
t	-7.83844
▁3],	-7.8462
▁MOTIFS	-7.85044
▁PAR	-7.85349
▁12	-7.8556
▁acte	-7.85751
▁CES	-7.85999
▁14	-7.86004
4	-7.8624
▁11	-7.8691
▁ARR	-7.86956
▁16	-7.87584
▁plus	-7.8763
▁motivée	-7.87662
▁20	-7.88005
▁attaquée	-7.88949
▁3.	-7.88956
▁recours	-7.8919
▁France	-7.90031
▁laquelle	-7.90708
▁responsabilité	-7.90835
▁troisième	-7.90972
▁sécurité	-7.91266
▁décidé	-7.91374
ait	-7.92185
espèce	-7.92619
▁entraîner	-7.93381
▁1014,	-7.95211
▁licenciement	-7.95286
▁suite	-7.96027
▁actions	-7.96737
▁celle	-7.96767
▁Rejet	-7.96824
▁4.	-7.97082
▁cas	-7.97647
▁ET	-7.97763
▁déléguée	-7.97882
▁comme	-7.98279
▁produit	-7.98548
▁statuant	-7.98549
▁préjudice	-7.98735
▁5.	-7.98856
▁17	-7.99115
▁pièces	-7.99168
▁motifs	-7.9925
appui	-7.99264
▁condamne	-7.99726
▁Exam	-7.99988
▁formée	-8.00207
▁avant	-8.00813
▁économique	-8.01474
▁conseillère	-8.01559
▁28	-8.01583
▁mois	-8.02415
▁part	-8.0313
avis	-8.03739
▁regard	-8.04803
▁19	-8.0491
▁6.	-8.06247
▁ni	-8.06743
exécution	-8.08136
▁CIVI	-8.09225
▁23	-8.09913
▁CIV	-8.10081
▁épouse	-8.10124
était	-8.10502
▁caisse	-8.11567
▁cet	-8.12193
▁personne	-8.12978
Arrêt	-8.13005
▁simplifiée	-8.13302
▁partie	-8.13331
▁7.	-8.13419
▁texte	-8.1352
▁sociétés	-8.13586
r	-8.14207
▁T	-8.14777
▁24	-8.15128
▁base	-8.15345
▁25	-8.16383
3	-8.16481
▁commerciale	-8.16679
affaire	-8.16693
▁30	-8.17315
assurance	-8.17671
▁motivé	-8.17739
▁mémoire	-8.18127
▁déclaré	-8.18536
▁mais	-8.1855
▁durée	-8.18814
▁567-1	-8.18876
▁légale	-8.19452
▁29	-8.19548
▁31	-8.19779
▁compter	-8.19923
▁ordonnance	-8.20403
à	-8.20526
▁27	-8.20862
▁dommages	-8.2121
▁compte	-8.22726
5	-8.23023
▁21-2	-8.23237
▁rédaction	-8.23251
▁tout	-8.23274
▁autres	-8.23863
▁prise	-8.24339
état	-8.24801
▁8.	-8.25326
▁écrites	-8.25395
▁Avocat	-8.25513
chambre	-8.25623
▁juridiction	-8.26376
▁18	-8.26397
▁2022,	-8.26967
es	-8.27274
▁garantie	-8.27314
▁celui	-8.27331
▁Pour	-8.27454
écision	-8.27843
▁Première	-8.27941
▁G	-8.28285
▁désistement	-8.28402
▁éléments	-8.28408
▁3°/	-8.28448
▁textes	-8.28957
▁Défendeur	-8.29289
▁ORDONNANCE	-8.29524
é	-8.29556
▁invoque	-8.29851
9	-8.29917
▁Demandeur	-8.29951
▁présidence	-8.2999
▁V	-8.29993
▁intérêts	-8.30091
ne	-8.30223
▁2021,	-8.30226
▁branche	-8.30721
▁maladie	-8.30737
▁Ordonnance	-8.30813
▁faire	-8.31107
0	-8.31501
▁charge	-8.31654
▁faits	-8.31689
▁août	-8.32222
▁limitée	-8.33098
▁montant	-8.33125
▁financière	-8.34021
▁professionnelle	-8.3431
au	-8.34799
avait	-8.34975
la	-8.35171
▁mesure	-8.35257
▁conditions	-8.35271
▁sera	-8.35298
▁faute	-8.35885
▁principe	-8.36508
▁4],	-8.36805
6	-8.373
▁autre	-8.37446
▁9.	-8.37664
▁bien	-8.38073
▁tous	-8.38292
instance	-8.38393
▁notamment	-8.38635
▁toutes	-8.38656
▁leurs	-8.39449
▁retient	-8.39832
existence	-8.39943
▁détention	-8.40264
▁sommes	-8.40825
▁ans	-8.40985
▁constaté	-8.41184
▁salariés	-8.4146
▁nom	-8.41579
▁public	-8.41652
absence	-8.42369
▁marge	-8.42629
▁demanderesse	-8.43414
▁défenderesse	-8.43502
▁termes	-8.43558
▁radiation	-8.44149
▁tant	-8.44506
▁délégué	-8.44516
▁aucun	-8.46102
▁preuve	-8.46145
▁agissant	-8.4633
▁sorte	-8.46565
re	-8.46828
▁ait	-8.46955
▁chef	-8.47074
▁toute	-8.47369
nt	-8.47725
▁MM	-8.47882
▁greffe	-8.47956
indemnité	-8.48548
▁conséquences	-8.48595
▁privé	-8.48782
▁diligences	-8.49135
▁ANNULE	-8.4927
▁défense	-8.49443
8	-8.49503
▁saisi	-8.50077
▁salariée	-8.50131
autre	-8.50673
▁heures	-8.51037
▁conseil	-8.51874
▁CASS	-8.52446
▁elles	-8.52462
▁10.	-8.52546
▁JUIN	-8.52838
▁2014	-8.52973
▁déclarer	-8.5339
objet	-8.53533
▁commerce	-8.53874
▁personnel	-8.53914
▁raison	-8.53975
▁transmis	-8.54246
▁jour	-8.54275
▁déclaration	-8.54529
7	-8.55058
exercice	-8.5514
▁temps	-8.55251
▁NON	-8.55378
▁rejeter	-8.55457
▁invoqués	-8.55494
entreprise	-8.55647
action	-8.55666
▁dispositif	-8.55891
▁conséquence	-8.55943
▁syndicat	-8.56147
▁»,	-8.56217
▁période	-8.563
▁pouvait	-8.56435
▁trois	-8.56599
▁-	-8.57085
▁motif	-8.57225
▁dernier	-8.57338
▁relevé	-8.57349
▁liquidateur	-8.57379
▁p	-8.57627
▁applicable	-8.578
▁lorsque	-8.57958
▁invoqué	-8.58286
▁produits	-8.58468
MI	-8.58608
▁condamné	-8.58662
▁second	-8.58751
▁caractère	-8.58751
▁anonyme	-8.58804
association	-8.59013
▁26	-8.59154
▁ALORS	-8.59278
▁permettre	-8.59379
▁clause	-8.59575
▁susvisé	-8.59813
▁2016	-8.60164
▁chefs	-8.6085
▁Dit	-8.60929
▁2016,	-8.61487
ent	-8.61538
▁saisie	-8.62051
Aix	-8.62258
Provence	-8.62659
▁ensemble	-8.6298
▁2023,	-8.6316
▁convention	-8.63672
NELLE	-8.6377
▁CRI	-8.63825
▁cassé	-8.66175
▁antérieure	-8.66689
▁condamner	-8.67054
intérêts	-8.67065
▁défaut	-8.67223
▁transcrit	-8.6728
▁incident	-8.67709
▁nullité	-8.67797
▁vente	-8.6816
▁constatations	-8.68272
elon	-8.68379
▁11.	-8.68759
▁défendeurs	-8.6894
▁2020	-8.6895
▁donné	-8.69032
▁prescription	-8.69393
▁Azar	-8.6969
▁quand	-8.69943
▁numéro	-8.70092
▁principal	-8.70131
▁Caroli	-8.70742
▁générale	-8.71389
▁juges	-8.7145
▁réparation	-8.71633
▁étant	-8.71844
▁Constat	-8.72041
ONNAL	-8.72399
▁2,	-8.72399
▁fondé	-8.72468
▁travaux	-8.72578
▁lettre	-8.73019
▁renvoi	-8.73086
▁créance	-8.73136
▁Cassation	-8.73661
▁déposé	-8.74022
▁contrôle	-8.74091
▁Bonna	-8.74207
▁demandeur	-8.74834
▁salaire	-8.74968
▁effet	-8.75316
▁retenu	-8.75524
▁disposition	-8.7571
▁appel	-8.7624
▁européenne	-8.76361
▁opposant	-8.76431
▁irrecevable	-8.76709
▁2021),	-8.7686
avoir	-8.77342
▁pourvois	-8.7855
▁fond	-8.78733
▁avaient	-8.78738
le	-8.78791
▁banque	-8.79253
▁MARS	-8.79462
▁libertés	-8.79696
▁partiellement	-8.80018
▁QUE	-8.80061
▁H	-8.8021
▁renvoie	-8.80316
/	-8.80547
▁mis	-8.80625
▁trouvaient	-8.80734
▁seulement	-8.81157
▁issue	-8.81338
▁2017,	-8.81515
▁dire	-8.81556
▁prud	-8.81974
▁état	-8.82007
▁immobilière	-8.82516
▁justice	-8.82571
▁retenant	-8.83164
▁Un	-8.83208
ensemble	-8.83329
▁2012	-8.83336
ils	-8.83366
▁directeur	-8.83452
▁légal	-8.83915
▁profit	-8.83965
▁situation	-8.83988
▁partielle	-8.84122
ALE	-8.84261
▁sauf	-8.84437
▁associés	-8.84981
information	-8.84989
▁5],	-8.85051
▁fin	-8.85496
▁J	-8.85524
▁rupture	-8.8579
▁Remet	-8.85804
▁propres	-8.8593
▁victime	-8.85967
▁2020,	-8.86047
▁cadre	-8.86149
EMB	-8.86192
▁SOCI	-8.8623
▁assurances	-8.86599
▁SOC	-8.86652
▁IARD	-8.8675
▁section	-8.8701
▁SEPT	-8.87026
administration	-8.8723
application	-8.87651
▁Me	-8.87978
▁tenu	-8.88117
on	-8.88279
▁12.	-8.88324
▁Célice	-8.88768
▁Lyon	-8.89118
obligation	-8.89133
▁déduit	-8.89266
▁aurait	-8.89314
▁Texidor	-8.89403
▁MAI	-8.8949
▁nouveau	-8.89537
▁Périer	-8.89687
▁bail	-8.90291
▁valoir	-8.90613
▁constate	-8.909
▁point	-8.91145
pôle	-8.91946
aient	-8.9228
▁violation	-8.92348
▁congés	-8.92621
▁aucune	-8.92633
▁seul	-8.92635
▁justifié	-8.92688
▁DEUXIÈME	-8.92785
▁2019	-8.93006
▁donner	-8.93014
▁in	-8.93046
in	-8.93234
▁AVRIL	-8.93298
▁obligation	-8.93818
▁fondement	-8.93901
▁recevabilité	-8.94111
▁santé	-8.94408
admission	-8.94631
▁Convention	-8.94706
▁cours	-8.9482
▁rechercher	-8.94871
▁cotisations	-8.94912
▁Versailles	-8.95301
de	-8.95382
▁primaire	-8.95831
▁lequel	-8.95907
▁2017	-8.9598
▁condamnation	-8.96095
▁b	-8.96181
▁tendant	-8.96219
▁2015	-8.96402
▁portant	-8.96441
▁prononcée	-8.96524
▁provisoire	-8.96588
établissement	-8.9659
▁peine	-8.96936
▁Gatineau	-8.97046
▁Rebeyrol	-8.97122
▁pu	-8.97404
▁débouter	-8.97589
▁SCI	-8.97594
▁2019,	-8.9765
▁Fattaccini	-8.97661
▁réelle	-8.97732
homme	-8.97939
▁griefs	-8.98217
URSSAF	-8.98352
▁résultant	-8.98585
▁copropriétaires	-8.98698
▁sens	-8.98753
▁Boré	-8.98818
▁Bruneton	-8.99207
▁Mégret	-8.99207
Salve	-8.99207
▁lien	-8.99572
▁documents	-8.99782
▁rappel	-8.99888
▁liquidation	-8.99912
al	-9.00033
activité	-9.0008
▁unique	-9.00207
▁perte	-9.00293
assureur	-9.00498
▁cinq	-9.0073
▁c	-9.01234
acte	-9.01461
ier	-9.01741
▁venant	-9.01762
▁procès	-9.02303
▁activité	-9.02347
▁K	-9.02398
▁Z	-9.02716
▁Mmes	-9.03018
▁méconnu	-9.03024
▁services	-9.03086
▁soutien	-9.03963
▁biens	-9.04099
▁sérieuse	-9.04121
▁jours	-9.04159
▁COMM	-9.04287
▁mandataire	-9.04351
▁susvisés	-9.0443
▁payés	-9.04526
si	-9.04553
▁recouvrement	-9.04662
▁service	-9.05287
▁rémunération	-9.0534
▁taux	-9.05908
▁dit	-9.06024
▁SAS	-9.06424
▁autrement	-9.07419
▁social	-9.07584
▁devenu	-9.07603
c	-9.07626
▁pendant	-9.07756
que	-9.07879
CO	-9.0803
annulation	-9.08287
▁dix	-9.08321
▁afin	-9.08653
▁2015,	-9.08841
▁outre	-9.09178
▁fonds	-9.09394
▁justifier	-9.09625
▁seule	-9.09849
▁eu	-9.10298
▁voie	-9.10304
▁Cabinet	-9.10601
▁jusqu	-9.10604
▁ressort	-9.10684
▁Conseil	-9.10834
organisation	-9.10987
▁personnes	-9.10996
▁connaissance	-9.11039
ER	-9.11293
▁mention	-9.11423
▁13.	-9.11555
▁2018	-9.11652
▁assigné	-9.11665
▁critique	-9.11829
▁rejeté	-9.11843
ès	-9.12153
▁devait	-9.12266
▁ceux	-9.12271
▁telle	-9.12515
▁question	-9.12704
▁instance	-9.12837
accord	-9.13277
▁six	-9.13804
▁moins	-9.14343
▁Société	-9.14524
▁fins	-9.14748
▁décret	-9.14798
ayant	-9.14835
▁MOYEN	-9.14889
▁frais	-9.15081
▁1026	-9.15492
▁nécessaire	-9.15495
▁groupe	-9.15495
p	-9.15676
▁depuis	-9.15729
▁contraire	-9.15901
▁désister	-9.15991
LAR	-9.16045
▁sauvegarde	-9.16175
▁tiré	-9.16581
▁supplémentaires	-9.16683
▁constitue	-9.16723
▁lorsqu	-9.16782
ordre	-9.16827
▁co	-9.1683
▁déchéance	-9.16844
ont	-9.17057
office	-9.17107
juridictionnelle	-9.17408
▁règlement	-9.17639
▁prix	-9.17871
▁prévue	-9.17874
même	-9.17885
▁finances	-9.18125
▁font	-9.18328
▁actes	-9.18645
▁objet	-9.18891
▁contrats	-9.18957
▁domiciliés	-9.19114
Vén	-9.19179
usia	-9.1918
▁2018,	-9.193
▁Ismail	-9.19465
▁peuvent	-9.19465
▁recevable	-9.1949
▁risque	-9.19504
avocat	-9.19751
▁résultait	-9.2004
▁établi	-9.20103
existe	-9.20555
elles	-9.20845
▁W	-9.20934
ation	-9.21388
▁ordonné	-9.21414
autorité	-9.21436
▁indemnité	-9.21888
▁matière	-9.21921
▁atteinte	-9.22029
▁X	-9.22134
▁relève	-9.22353
▁redressement	-9.22472
▁véhicule	-9.22915
IÈRE	-9.23065
▁branches	-9.23099
▁commis	-9.23178
▁tiers	-9.23562
indemnisation	-9.23724
▁qualités	-9.23908
▁recueilli	-9.23983
▁ès	-9.241
▁prêt	-9.24132
n	-9.24329
égard	-9.24329
▁suivie	-9.24732
▁rôle	-9.25066
▁MMA	-9.2507
AU	-9.25198
▁DÉ	-9.25308
▁examiné	-9.25365
IQUE	-9.25369
▁quatre	-9.25499
▁FINANC	-9.25572
▁gestion	-9.25579
▁moral	-9.25782
▁2013	-9.2596
▁également	-9.26312
▁mesures	-9.26452
▁rendue	-9.26609
▁comité	-9.26767
▁emploi	-9.2683
▁puis	-9.27196
▁notification	-9.27314
▁constater	-9.27344
exploitation	-9.27514
▁14.	-9.27571
SISTEMENT	-9.27728
▁celles	-9.27841
▁valeur	-9.27929
h	-9.27996
▁fiscale	-9.28051
▁Vigneau	-9.28153
▁pouvoir	-9.28441
▁Y	-9.28449
▁relatives	-9.28708
▁publiques	-9.28937
exclusion	-9.28977
▁cependant	-9.29087
o	-9.29314
▁forme	-9.29373
▁diverses	-9.2941
▁examen	-9.29478
CIA	-9.29588
▁dernière	-9.29712
ou	-9.29853
IGNE	-9.30039
▁conclu	-9.30107
▁suivante	-9.30166
▁nombre	-9.3025
▁défendeur	-9.30354
▁quatrième	-9.30571
▁Aux	-9.30804
▁remise	-9.30843
▁Elle	-9.30924
intérêt	-9.31246
▁6],	-9.31269
et	-9.31402
▁péremption	-9.31429
▁contestation	-9.31646
▁propriété	-9.31695
ADMIS	-9.31783
▁liberté	-9.32522
▁ADMIS	-9.32701
▁confirmé	-9.32847
).	-9.32859
ieurs	-9.32924
▁collective	-9.32958
▁Crédit	-9.33606
▁globale	-9.3363
▁TROISIÈME	-9.33716
▁agricole	-9.33744
▁nationale	-9.33833
▁Teiller	-9.33937
▁encore	-9.33974
▁avis	-9.34052
▁Thomas	-9.34321
▁afférents	-9.34529
être	-9.3477
homale	-9.34828
emprisonnement	-9.35271
▁PREMIÈRE	-9.35495
▁relatif	-9.35525
▁signé	-9.35562
▁condition	-9.35638
▁Ode	-9.35669
▁obligations	-9.35694
▁français	-9.35877
▁455	-9.35886
EILLE	-9.35929
▁concernant	-9.3595
▁Mais	-9.35966
OMMER	-9.36005
▁faisait	-9.36059
▁légales	-9.36248
Union	-9.36809
▁immobilier	-9.36904
▁permettant	-9.36964
▁5°/	-9.37345
16	-9.37494
▁pénal	-9.3792
▁vue	-9.37975
▁procéder	-9.38114
▁plan	-9.38116
▁2013,	-9.38183
▁fondée	-9.38358
▁circonstances	-9.38615
▁préalable	-9.38675
▁cession	-9.38852
TRE	-9.39062
-19	-9.39134
▁construction	-9.39204
▁répondre	-9.3939
▁développée	-9.39409
▁Caisse	-9.39513
▁Requête	-9.39851
▁3]	-9.39872
▁expressément	-9.40321
▁Car	-9.40386
aide	-9.40416
▁tenue	-9.4053
▁retraite	-9.41001
▁déterminant	-9.41125
▁résiliation	-9.41267
▁énonce	-9.41336
▁doivent	-9.41505
▁relative	-9.41577
▁grave	-9.41936
▁dû	-9.42021
▁mission	-9.42068
▁Hazan	-9.42102
▁contenant	-9.42224
▁consort	-9.4223
▁Waquet	-9.42342
▁cha	-9.42565
▁(1	-9.4278
▁jugeant	-9.42815
▁Farge	-9.42824
▁manière	-9.42824
▁tel	-9.43134
▁Pi	-9.43139
▁données	-9.43261
▁chose	-9.43308
▁administrative	-9.43514
d	-9.43666
▁subi	-9.43759
autres	-9.43971
▁sein	-9.441
▁années	-9.44257
▁demandé	-9.44836
▁soumis	-9.4496
▁commercial	-9.45328
▁suivant	-9.45558
▁totale	-9.45711
▁500	-9.46624
▁593	-9.46667
ANCE	-9.46924
▁règles	-9.47088
ad	-9.47317
▁débiteur	-9.47631
▁familiales	-9.47743
▁vie	-9.47847
▁française	-9.4794
▁prévenu	-9.48218
▁réalisation	-9.48282
▁manquement	-9.48441
▁ailleurs	-9.4852
▁commune	-9.48538
assemblée	-9.48597
zan	-9.48674
▁dommage	-9.48794
▁demandeurs	-9.49013
▁statué	-9.49049
▁harcèlement	-9.49306
Caen	-9.49635
1009-1	-9.49715
▁Rocheteau	-9.49822
Sarano	-9.49952
▁appartient	-9.50002
▁Goulet	-9.50083
▁prévues	-9.50084
▁mandat	-9.50505
▁suit	-9.5054
▁prime	-9.50772
▁défenderesses	-9.50914
▁République	-9.51019
▁15.	-9.51086
▁serait	-9.51186
▁Foussard	-9.51257
u	-9.51264
▁restitution	-9.51298
▁Froger	-9.51522
É	-9.51529
aux	-9.51844
▁terme	-9.51937
▁oeuvre	-9.51968
intéressé	-9.52155
▁Banque	-9.5218
ortée	-9.52232
▁978	-9.52478
▁directive	-9.52493
immeuble	-9.52541
▁remplacement	-9.52715
▁sursis	-9.52849
i	-9.53085
▁partiel	-9.53397
▁accord	-9.53479
▁protection	-9.53531
nica	-9.53638
▁_______________	-9.53835
▁action	-9.53869
▁seconde	-9.539
▁liste	-9.53973
▁2011	-9.54003
▁locataire	-9.54508
▁poste	-9.54698
▁Molinié	-9.54731
▁Thiriez	-9.54731
▁Aucun	-9.54731
-2	-9.54765
▁Champ	-9.54842
▁présence	-9.54867
▁prétentions	-9.54875
▁refus	-9.54878
▁respect	-9.54996
▁police	-9.55003
▁verser	-9.55174
ROY	-9.55552
▁ancien	-9.55591
▁t	-9.55887
▁Sud	-9.55993
▁contractuelle	-9.56027
Etat	-9.56091
▁treiz	-9.56099
▁régime	-9.56143
▁préavis	-9.56245
▁correspondant	-9.56395
verbal	-9.56502
▁demeure	-9.56675
▁commission	-9.56836
▁territoire	-9.57069
agissant	-9.57071
▁prendre	-9.57099
▁nouvelle	-9.57155
▁dépôt	-9.57348
▁légalement	-9.57437
▁points	-9.57619
▁époux	-9.57965
▁constitutionnel	-9.58177
▁établissement	-9.58243
▁Grévy	-9.58329
▁Thouvenin	-9.58329
▁compétence	-9.58395
all	-9.58466
▁Coudray	-9.58471
▁bonne	-9.58488
▁décès	-9.58613
▁Océane	-9.58895
2-10	-9.58896
▁justifie	-9.58904
▁exécution	-9.58976
▁voir	-9.59066
▁infractions	-9.59577
▁ministère	-9.59606
allocations	-9.59909
20	-9.6016
▁Gratian	-9.60322
accident	-9.60351
▁(2	-9.60735
infraction	-9.60871
▁volonté	-9.60899
MAS	-9.60945
expertise	-9.61226
▁caution	-9.61284
▁bornant	-9.61479
▁calcul	-9.61609
14	-9.62083
▁certaine	-9.62368
▁confiscation	-9.62503
▁libéral	-9.62756
union	-9.62878
▁direction	-9.63193
▁bureau	-9.63385
▁juger	-9.63565
emploi	-9.63592
▁prévu	-9.63601
▁correctionnel	-9.63758
▁reprise	-9.63831
AVOIR	-9.63891
▁2010	-9.63931
▁contradictoire	-9.63931
▁commun	-9.6403
▁annulé	-9.64101
▁arrêts	-9.6428
60	-9.64399
▁vigueur	-9.64432
2-13	-9.64435
▁professionnel	-9.64983
▁élément	-9.6508
▁charges	-9.65212
▁unipersonnelle	-9.65335
▁OCT	-9.65487
écarter	-9.65537
▁remboursement	-9.65637
▁réception	-9.65835
ée	-9.65931
▁formation	-9.66075
▁prononcer	-9.66105
▁invoquent	-9.66327
▁applicables	-9.66777
▁empêché	-9.66963
▁Van	-9.67025
▁limite	-9.67059
▁produites	-9.67112
occasion	-9.6725
18	-9.67261
▁Bordeaux	-9.67286
▁collectif	-9.6729
▁litigieux	-9.67319
▁domicile	-9.67322
▁judiciaires	-9.67483
▁précis	-9.67532
feu	-9.67628
année	-9.67725
BRE	-9.67856
▁4]	-9.67902
▁régionale	-9.67915
DIT	-9.67927
▁2009	-9.68106
▁pourtant	-9.68128
▁déjà	-9.68249
▁caractériser	-9.68256
▁nécessaires	-9.68405
▁dénommée	-9.68426
expert	-9.68486
ouvrage	-9.68501
▁néanmoins	-9.68561
▁bénéfice	-9.68852
▁Conseils	-9.68927
▁communication	-9.69013
▁déduire	-9.6903
▁Monsieur	-9.69039
▁assisté	-9.69206
▁place	-9.69346
▁civils	-9.69433
▁comptes	-9.69457
▁16.	-9.69459
ur	-9.69729
heures	-9.69822
▁permis	-9.69976
▁prioritaire	-9.70134
▁fermeture	-9.70134
▁propriétaire	-9.70158
▁créances	-9.70245
▁portée	-9.70388
▁transport	-9.70587
▁moment	-9.70611
▁accident	-9.70741
▁versées	-9.70829
nstitutionnalité	-9.70903
▁exigences	-9.71022
aucune	-9.71033
France	-9.71057
▁prononçant	-9.7109
les	-9.7119
▁engagé	-9.71223
22	-9.71354
▁sollicité	-9.71387
▁7],	-9.71423
▁production	-9.71474
▁Axa	-9.71579
▁mettre	-9.71733
▁faite	-9.71984
▁présentes	-9.72072
▁fixé	-9.72198
▁ensuite	-9.72218
▁relation	-9.72222
▁contradiction	-9.7238
▁traitement	-9.72391
▁indemnités	-9.7255
el	-9.72588
or	-9.7329
origine	-9.73341
▁Saint	-9.73443
▁encourue	-9.73535
▁opérations	-9.73602
▁O	-9.73661
▁complémentaires	-9.73739
▁retenir	-9.7385
▁chacun	-9.73857
▁coupable	-9.73863
étaient	-9.74006
sière	-9.74105
▁Rennes	-9.74137
▁condamnant	-9.74181
▁Prado	-9.74183
▁déterminée	-9.74277
▁[3]	-9.74307
▁capital	-9.7435
▁2]	-9.74623
▁désigné	-9.74678
▁Code	-9.74686
▁[1]	-9.7477
hommes	-9.75214
is	-9.75228
▁employeur	-9.75341
▁fondamentales	-9.75884
▁Laro	-9.75886
21-25.	-9.75941
▁prestations	-9.76003
▁quinz	-9.76026
▁22-14.	-9.76261
-11	-9.76481
▁crédit	-9.76547
23	-9.76565
▁représentée	-9.76693
interdiction	-9.76701
▁Pôle	-9.76897
▁nécessairement	-9.76928
▁fois	-9.77055
▁Et	-9.77108
age	-9.77122
▁national	-9.77181
▁vertu	-9.77198
▁engagée	-9.7723
examen	-9.77554
▁décisions	-9.77569
assuré	-9.77574
▁congé	-9.7758
▁exactement	-9.77914
▁veuve	-9.78053
▁départ	-9.78068
f	-9.78233
v	-9.78347
▁spéciale	-9.78366
▁compris	-9.78384
▁désignée	-9.78601
▁CH	-9.78618
▁re	-9.78715
21	-9.78775
▁Douai	-9.78876
13	-9.78899
▁6°/	-9.7915
▁impôts	-9.79363
▁Moyen	-9.7961
▁lesquelles	-9.79686
adastre	-9.79803
▁procédé	-9.79962
10	-9.80081
▁retard	-9.80134
▁version	-9.80136
mi	-9.80251
▁hors	-9.8031
neuf	-9.80353
▁jugée	-9.80417
▁condamnations	-9.80574
▁relevant	-9.80661
▁mêmes	-9.80691
▁JUILLET	-9.81015
▁usage	-9.81175
▁solidum	-9.81192
▁procédures	-9.81285
80	-9.81288
▁conséquent	-9.81546
▁FS	-9.81608
▁statut	-9.81616
▁prévoyance	-9.81724
25	-9.81747
▁104	-9.8178
▁mutuel	-9.818
effet	-9.82142
▁lesquels	-9.8226
▁résidence	-9.82331
▁2011,	-9.8235
15	-9.82408
▁1]	-9.82432
▁Renault	-9.82439
▁requalification	-9.82439
▁vérifier	-9.82443
01	-9.82509
▁entreprises	-9.82547
▁Antoine	-9.82799
▁''	-9.82897
04	-9.82902
▁reclassement	-9.82979
▁ajoute	-9.83075
▁annulation	-9.83117
Paris	-9.8323
▁seules	-9.83299
▁patrimoine	-9.8334
dier	-9.83353
▁reçu	-9.83412
▁Boulloche	-9.83885
▁maintien	-9.83885
▁rejetée	-9.8393
▁représentant	-9.83966
▁versement	-9.8398
▁ré	-9.84017
▁législation	-9.84067
17	-9.84239
▁Taillan	-9.84432
ouverture	-9.8449
24	-9.8462
▁préjudices	-9.84708
▁constat	-9.84736
▁relever	-9.84799
amende	-9.84883
aucun	-9.84911
▁prononcées	-9.84968
▁référence	-9.84983
30	-9.85017
▁hauteur	-9.85169
te	-9.85354
▁délit	-9.85446
▁représenté	-9.85464
▁notifié	-9.85629
▁considération	-9.85631
02	-9.85669
assises	-9.85752
▁modalités	-9.85957
▁LM	-9.85988
an	-9.86071
▁Leroy	-9.86093
▁Colin	-9.86098
▁1].	-9.86128
▁2006	-9.86153
▁condamnée	-9.86345
Thomas	-9.86378
▁Des	-9.86806
▁Stoclet	-9.8684
▁entreprise	-9.86911
inger	-9.86932
▁courrier	-9.86946
▁responsable	-9.86972
▁contentieux	-9.87295
▁susceptible	-9.87325
▁Gilbert	-9.87335
▁22-16.	-9.87482
▁sanction	-9.87483
29	-9.87744
▁Jean	-9.87814
28	-9.87839
habitation	-9.87994
▁important	-9.87999
▁Luc	-9.87999
▁formées	-9.88034
CE	-9.88083
▁peu	-9.88276
▁circonstance	-9.88278
▁lieux	-9.88427
ING	-9.88471
▁103	-9.8862
33	-9.8863
▁débat	-9.8866
▁bailleur	-9.88663
Colombie	-9.88732
▁suffisamment	-9.88823
50	-9.89081
▁document	-9.89193
assurer	-9.8924
▁enregistré	-9.89341
▁assistée	-9.89476
▁ANNEXE	-9.89499
26	-9.89515
▁repos	-9.8952
▁17.	-9.89571
▁anciennement	-9.89571
00	-9.89581
▁obtenir	-9.89606
▁privée	-9.89829
huit	-9.90022
▁projet	-9.9003
▁huit	-9.90137
▁Catherine	-9.90272
▁informé	-9.9036
▁locaux	-9.90466
Gis	-9.90539
2-11	-9.90581
accès	-9.90603
▁fonctions	-9.90605
▁connaître	-9.90661
exercer	-9.9081
▁débouté	-9.90885
▁annexé	-9.91002
▁an	-9.91069
▁accomplies	-9.91332
aud	-9.91364
▁litigieuse	-9.91387
▁réponse	-9.91443
▁professionnels	-9.91496
▁Montpellier	-9.91556
▁1134	-9.91644
34	-9.91663
▁Nord	-9.91852
eur	-9.91959
▁quant	-9.92013
lon	-9.92156
▁possibilité	-9.92177
;	-9.92188
▁présenter	-9.92282
▁mémoires	-9.92735
dite	-9.92762
▁obligatoire	-9.92976
▁Pinatel	-9.93025
▁indemnisation	-9.93098
▁délibération	-9.93178
▁rejet	-9.93188
▁revenus	-9.93267
▁marché	-9.9338
▁chacune	-9.93417
lli	-9.93497
▁fraude	-9.93626
▁fiscales	-9.9367
88	-9.93757
40	-9.93812
▁proposé	-9.93818
▁créancier	-9.93992
▁référendaires	-9.94126
▁2009,	-9.94145
Thaler	-9.94229
▁Fabiani	-9.94229
▁concurrence	-9.94233
▁22-17.	-9.94429
▁onze	-9.94431
GISS	-9.94438
87	-9.94642
ouze	-9.94643
▁sept	-9.94722
▁dirigé	-9.95035
▁prévoit	-9.95039
▁constitution	-9.95091
▁2].	-9.95158
▁rectification	-9.95207
▁référé	-9.9521
▁foi	-9.9522
06	-9.95243
▁médecin	-9.95251
▁effectivement	-9.95347
▁établir	-9.95373
96	-9.9543
▁avocats	-9.95434
64	-9.95688
▁dette	-9.95711
▁régulièrement	-9.95733
▁signature	-9.95857
▁fixer	-9.95878
▁juridique	-9.95904
83	-9.95936
▁6,	-9.96026
▁but	-9.96043
▁Monge	-9.96062
46	-9.96211
▁statue	-9.96235
ce	-9.96235
▁invitée	-9.96247
▁titulaire	-9.96447
▁ci	-9.96678
▁appartenant	-9.96691
ge	-9.96795
▁Mat	-9.96913
86	-9.96917
▁».	-9.97192
▁nul	-9.97329
67	-9.97532
▁porter	-9.97562
▁placement	-9.97619
▁For	-9.97715
▁adressé	-9.97739
timent	-9.97753
]-[	-9.97835
78	-9.97845
▁II	-9.97865
▁déclarée	-9.98022
entrée	-9.98034
▁prolongation	-9.98139
▁contrainte	-9.98139
impossibilité	-9.98143
▁membres	-9.98201
▁enfants	-9.98279
▁dénaturer	-9.98349
▁convient	-9.9835
expiration	-9.98356
▁dissimulé	-9.98361
rasco	-9.98377
73	-9.98384
▁vu	-9.98404
és	-9.98544
b	-9.98704
12	-9.98884
▁refusé	-9.98937
▁propre	-9.9897
▁Lapasset	-9.98982
▁porte	-9.98989
it	-9.99416
avaient	-9.99423
ILL	-9.99505
▁savoir	-9.99624
▁Vai	-9.99625
▁devenue	-9.99707
89	-9.99757
70	-9.99761
▁Réunion	-9.99832
▁solde	-9.99839
▁consommation	-9.99848
▁compensatrice	-10.0005
85	-10.0005
▁2008	-10.0019
▁Lab	-10.0024
▁acquis	-10.0032
▁grande	-10.0036
▁personnelle	-10.0042
ette	-10.0044
IER	-10.0046
▁présenté	-10.0047
▁102	-10.0047
▁correctionnelle	-10.0051
▁OD	-10.0063
▁rend	-10.0065
▁réalité	-10.0069
▁parcelle	-10.0069
Alpes	-10.0072
▁1240	-10.0074
97	-10.0075
▁TA	-10.0079
▁Associés	-10.009
ssette	-10.0091
▁bénéficier	-10.0096
75	-10.0101
▁LE	-10.0105
05	-10.0105
▁Mamou	-10.0112
03	-10.0127
▁concerne	-10.0143
77	-10.0152
THO	-10.0156
▁cessation	-10.0156
▁irrecevables	-10.0162
AND	-10.0178
▁cinquième	-10.0179
▁8],	-10.0201
43	-10.0206
▁intervenue	-10.0211
▁Europe	-10.0211
19	-10.0219
▁2010,	-10.022
▁prestation	-10.0244
48	-10.0267
▁Aide	-10.027
94	-10.028
Venezuela	-10.0287
▁auquel	-10.0287
ri	-10.0303
ité	-10.0305
▁figurant	-10.0309
55	-10.0329
Malignac	-10.0331
▁Rousseau	-10.0331
▁Nîmes	-10.0342
69	-10.0348
▁conforme	-10.0352
99	-10.0352
08	-10.0361
après	-10.0361
76	-10.0367
▁Grenoble	-10.0369
▁régional	-10.0379
▁sociales	-10.0382
▁RG	-10.0383
72	-10.0386
▁bon	-10.0387
▁pouvant	-10.0397
▁réduction	-10.0397
ux	-10.0398
▁bulletin	-10.0419
▁Besse	-10.0422
▁recherche	-10.0423
▁saisine	-10.0453
▁risques	-10.0458
▁Tapie	-10.0464
▁plein	-10.0464
▁contesté	-10.0468
▁conventionnelle	-10.0475
▁fondant	-10.0481
▁18.	-10.049
g	-10.049
68	-10.0505
ton	-10.0507
39	-10.0516
▁SG	-10.0527
▁commissaire	-10.0529
98	-10.0529
▁Centre	-10.0534
▁déchu	-10.0537
74	-10.0546
▁ORDONN	-10.0554
▁Ing	-10.0556
▁QU	-10.057
79	-10.0579
22-18	-10.0583
étant	-10.0585
▁[3],	-10.0596
▁2007	-10.0597
31	-10.0599
ine	-10.0604
fondé	-10.0606
ard	-10.0609
Amiens	-10.0622
▁cabinet	-10.0622
▁m	-10.0626
▁particulier	-10.0626
▁présentées	-10.0628
▁mutuelles	-10.063
▁105	-10.0643
▁dispose	-10.0649
▁soins	-10.0652
▁salaires	-10.0656
62	-10.0665
▁garde	-10.0668
▁soient	-10.0668
▁département	-10.067
▁trente	-10.0691
▁Mollard	-10.0691
rousse	-10.0691
▁entraîne	-10.0692
▁Bauer	-10.0714
▁discrimination	-10.0717
ra	-10.072
▁présentée	-10.0723
49	-10.0727
▁civiles	-10.0729
▁magistrats	-10.074
▁directement	-10.0746
▁définitive	-10.0747
66	-10.075
ang	-10.0751
63	-10.0758
▁duquel	-10.076
▁certaines	-10.077
35	-10.0771
▁permet	-10.0774
ées	-10.0778
53	-10.0789
▁effets	-10.0794
▁qualification	-10.0811
▁victimes	-10.0815
▁inopérant	-10.0816
▁livre	-10.0816
Violas	-10.0829
▁5]	-10.0834
▁591	-10.0835
▁constitué	-10.0839
▁précise	-10.0839
NGE	-10.0839
2-15	-10.0842
▁[2]	-10.0843
▁seuls	-10.0848
▁Feschotte	-10.0852
▁dues	-10.0853
▁confirmer	-10.0854
▁Provence	-10.0862
Desbois	-10.0876
▁délais	-10.0878
▁financier	-10.0881
▁précité	-10.091
dit	-10.0917
36	-10.0918
▁reconnaissance	-10.0922
Montagn	-10.0923
▁justification	-10.0925
obtenir	-10.0933
45	-10.0934
37	-10.0942
▁dénaturé	-10.0946
▁réinscription	-10.0946
▁simple	-10.0962
▁Duhamel	-10.0969
▁Sebagh	-10.0969
▁Toulouse	-10.0983
▁suivants	-10.0997
▁maison	-10.0998
▁désignation	-10.0999
▁effectué	-10.1005
▁FD	-10.1016
▁développement	-10.1017
52	-10.1027
▁tenant	-10.104
41	-10.1045
▁CM	-10.1063
▁Coutou	-10.1064
▁prévaloir	-10.1064
▁stupéfiants	-10.1065
▁juridictions	-10.1066
▁saurait	-10.1075
▁maître	-10.1081
▁(3	-10.1088
▁2016.	-10.1091
▁centre	-10.1092
47	-10.1104
▁absence	-10.1109
▁indéterminée	-10.1113
▁Jo	-10.1121
▁Admission	-10.1136
▁copropriété	-10.1136
▁égard	-10.1143
▁2008,	-10.1151
▁Allianz	-10.116
▁Letourneur	-10.116
▁pouvaient	-10.116
appelant	-10.1167
▁poursuite	-10.117
▁pièce	-10.1186
▁postérieurement	-10.119
1-18	-10.1195
impression	-10.1208
▁invoquée	-10.1217
ot	-10.1221
Maitre	-10.1233
▁causé	-10.1244
Gury	-10.1256
▁preneur	-10.1256
▁Ayant	-10.1256
31-5	-10.1258
▁transcription	-10.1259
▁appartenait	-10.1259
▁proposition	-10.1264
▁MO	-10.1268
exception	-10.127
sept	-10.127
'[	-10.127
▁garantir	-10.1282
▁client	-10.1304
▁établie	-10.1304
▁Duval	-10.1305
▁façon	-10.1305
nare	-10.1315
▁adoptés	-10.1317
▁prescrite	-10.1327
▁autorisation	-10.1329
▁délégation	-10.1333
▁limites	-10.1334
57	-10.1339
▁poursuites	-10.1346
-4	-10.1366
▁derniers	-10.1367
▁Dan	-10.138
▁624	-10.1382
07	-10.1383
90	-10.1389
▁eux	-10.1399
▁syndic	-10.14
▁plainte	-10.1412
▁considéré	-10.1418
NE	-10.1422
ir	-10.1424
8°/	-10.1425
▁chance	-10.1427
44	-10.1438
▁soumise	-10.1444
▁parts	-10.1446
82	-10.1448
▁peines	-10.1463
▁2022),	-10.1466
▁Rinuy	-10.1477
▁Alain	-10.1477
Graff	-10.148
Daudret	-10.1502
▁Spinosi	-10.1502
▁passif	-10.1502
▁règle	-10.1524
▁déterminer	-10.1528
▁énonçant	-10.1533
▁SL	-10.1535
▁notaire	-10.1537
▁effective	-10.1539
▁affirmant	-10.1551
sky	-10.1551
établir	-10.1568
▁registres	-10.1578
▁effectuées	-10.1589
▁Somm	-10.1599
▁ouverte	-10.1603
uchan	-10.1625
32	-10.1627
▁452	-10.1631
administrateur	-10.1644
▁Poupot	-10.1652
59	-10.1655
▁électronique	-10.1663
engagement	-10.1672
tir	-10.1673
▁connexité	-10.1677
▁causes	-10.1685
appréciation	-10.1695
81	-10.17
▁Layemar	-10.1702
▁publics	-10.1719
▁Valdelièvre	-10.1728
▁force	-10.1728
21-23	-10.1729
▁douanes	-10.1732
▁dépendance	-10.1753
▁remettre	-10.1755
84	-10.1762
ie	-10.1772
▁énonciations	-10.1779
▁matérielle	-10.1781
38	-10.1784
▁50	-10.1784
▁médical	-10.1786
▁vendeur	-10.1794
Denis	-10.1804
▁RENVOIE	-10.1808
▁Mutuelle	-10.1816
▁cautionnement	-10.1819
92	-10.1822
Rameix	-10.1822
▁agents	-10.1829
▁administration	-10.1833
11	-10.1834
agent	-10.1843
▁Lance	-10.1844
ancienneté	-10.1849
▁radi	-10.1854
▁Jouan	-10.1856
▁interjeté	-10.1856
neau	-10.1858
▁enregistrée	-10.1877
▁préciser	-10.1882
▁Fond	-10.1885
▁pertes	-10.1885
intégralité	-10.1901
▁constituait	-10.1907
▁transports	-10.1908
▁désordres	-10.1916
▁informations	-10.1918
▁violences	-10.1921
51	-10.1926
▁Isola	-10.1933
▁protocole	-10.1933
▁énoncé	-10.194
VS	-10.195
respect	-10.1954
▁conclusion	-10.1973
▁joints	-10.198
▁souscrit	-10.198
▁faux	-10.1986
▁chargé	-10.1996
[	-10.2002
x	-10.2005
▁1382	-10.2019
ti	-10.2025
▁coût	-10.2025
▁participation	-10.2025
▁uniquement	-10.2027
▁dernières	-10.204
93	-10.2061
61	-10.2062
▁surplus	-10.2065
▁sociaux	-10.2068
▁Iard	-10.2109
▁Thou	-10.2116
▁transfert	-10.2116
at	-10.2126
aurait	-10.2128
insuffisance	-10.2139
us	-10.2142
▁Martin	-10.2142
▁Boucard	-10.2143
▁Bénabent	-10.2143
▁préalablement	-10.2145
▁propos	-10.2158
Palat	-10.2169
▁technique	-10.2187
▁réseau	-10.2196
95	-10.2196
▁signification	-10.2196
▁Boyer	-10.2198
k	-10.2203
▁écarté	-10.2209
▁épidémie	-10.2211
▁système	-10.2211
▁courir	-10.2216
56	-10.2217
▁CGT	-10.2236
▁générales	-10.2248
▁fixation	-10.2249
té	-10.2256
▁Grand	-10.2257
▁écrit	-10.2259
27	-10.2267
▁européen	-10.2274
Kar	-10.2283
▁légitime	-10.2306
inexécution	-10.2311
▁tels	-10.2312
▁OR	-10.2317
acquisition	-10.2327
vers	-10.2327
ld	-10.2328
▁matériel	-10.2329
▁Delbano	-10.233
ut	-10.2334
om	-10.2354
▁engagement	-10.2356
▁Pontonnier	-10.2357
▁Capitaine	-10.2357
chez	-10.2365
irrecevabilité	-10.2384
▁5,	-10.2385
▁expertise	-10.2393
▁décompte	-10.2401
▁contrepartie	-10.2411
42	-10.2417
▁Vigne	-10.2437
expropriation	-10.2439
▁activités	-10.244
ate	-10.2461
▁niveau	-10.2466
▁pouvoirs	-10.2498
▁astreinte	-10.2518
▁prévention	-10.2521
▁Alors	-10.2521
09	-10.2534
m	-10.2553
▁2016-131	-10.2553
▁temporaire	-10.2553
▁visés	-10.2554
▁comportement	-10.2557
enty	-10.256
65	-10.2572
Flore	-10.2575
▁puisse	-10.2577
▁1015	-10.2579
▁complémentaire	-10.2595
im	-10.2596
entretien	-10.2603
▁faculté	-10.2604
Azur	-10.2604
▁456	-10.2614
autorisation	-10.2631
▁infraction	-10.2643
issue	-10.265
▁parcelles	-10.2659
▁jamais	-10.2659
▁chargée	-10.2662
▁impropres	-10.2686
▁blanchiment	-10.2687
▁toutefois	-10.2687
dessus	-10.269
▁erreur	-10.2691
▁constatée	-10.2696
lement	-10.2702
▁membre	-10.2707
occupation	-10.271
▁déclarations	-10.2712
▁distribution	-10.2715
▁considérant	-10.2716
▁déclare	-10.2716
examiner	-10.2716
▁mutuelle	-10.2722
▁9],	-10.2723
▁travailleurs	-10.2741
▁versée	-10.2748
▁écritures	-10.2749
▁décédé	-10.2752
eth	-10.2755
▁location	-10.2757
▁Guer	-10.2758
impôt	-10.2764
vient	-10.2766
▁conteste	-10.2769
▁remis	-10.2781
z	-10.2784
71	-10.2785
▁Val	-10.2797
▁Durin	-10.28
▁prétendre	-10.2802
▁trouve	-10.2803
▁fixe	-10.2815
▁affaires	-10.2819
▁local	-10.2822
▁placé	-10.283
▁autorités	-10.2842
▁exposés	-10.2847
art	-10.2854
▁Civ	-10.2872
ar	-10.2878
▁Coste	-10.2885
▁questions	-10.2891
91	-10.2891
▁Chevalier	-10.2914
▁CAP	-10.2921
▁_______	-10.2924
▁certificat	-10.2935
▁Mariette	-10.2942
usage	-10.2945
▁ECF	-10.2946
arrêté	-10.2946
du	-10.2955
54	-10.296
▁réalisés	-10.2967
▁constituer	-10.2967
▁Lavaud	-10.2971
▁Rhône	-10.2973
▁certains	-10.2989
▁déchue	-10.2993
▁So	-10.3026
▁site	-10.3032
me	-10.3032
▁principes	-10.3041
▁RB	-10.3043
▁GM	-10.3047
▁quatorze	-10.3087
ordonner	-10.3088
▁démontrer	-10.309
▁arrêté	-10.3107
▁déclarant	-10.3117
ic	-10.3119
▁international	-10.3122
égalité	-10.3124
▁[4]	-10.314
ignard	-10.3145
▁populaire	-10.3145
▁organisée	-10.3155
▁périodes	-10.3194
apprécier	-10.3212
▁auraient	-10.3226
▁FB	-10.3233
▁2004	-10.3236
inscription	-10.3238
▁Dumont	-10.3263
▁retenue	-10.3274
58	-10.3277
▁1)	-10.3286
▁vol	-10.3287
▁magistrat	-10.3288
▁échéant	-10.3293
affectant	-10.3293
atteinte	-10.3301
▁Chauve	-10.3322
enquête	-10.3343
▁déboute	-10.3349
▁Groupe	-10.335
▁respectivement	-10.3353
ville	-10.3359
▁rejetant	-10.3359
lisab	-10.3375
acquéreur	-10.3382
▁Ru	-10.3389
▁19.	-10.3396
▁prétend	-10.3397
▁nécessité	-10.3408
▁gravité	-10.3412
▁Piet	-10.3415
▁obstacle	-10.3418
huissier	-10.3419
▁objectifs	-10.3435
incapacité	-10.3449
▁lot	-10.3458
▁agir	-10.3467
▁exerçant	-10.3475
▁supposer	-10.3475
▁effectif	-10.3481
▁Je	-10.3482
▁encontre	-10.3501
▁renvoyé	-10.3502
▁consultation	-10.3534
▁comptable	-10.3535
▁106	-10.3545
▁Cependant	-10.3564
opération	-10.3571
▁fausse	-10.359
▁satisfait	-10.3592
▁réparer	-10.3596
▁Bos	-10.3603
▁réserve	-10.3603
▁porté	-10.361
ITAI	-10.3625
▁Hascher	-10.3625
▁holding	-10.3625
Arnou	-10.3625
▁délivrance	-10.3625
▁bande	-10.3625
ETTE	-10.3625
▁assuré	-10.3632
▁syndicale	-10.3633
▁critiqués	-10.3646
▁rappelé	-10.3653
▁catégorie	-10.3653
▁Constitution	-10.3656
▁22-19.	-10.3657
▁40	-10.3657
▁équivoque	-10.366
▁intervenir	-10.3662
ARI	-10.3684
▁Laurent	-10.3687
▁amiable	-10.3689
▁abus	-10.3699
▁contestée	-10.3706
18-1	-10.3713
ym	-10.3717
▁Andrich	-10.3718
▁décidant	-10.3718
▁manquements	-10.3719
▁2000	-10.3731
▁résultat	-10.3746
Orléans	-10.3749
▁poursuivi	-10.3759
▁susceptibles	-10.3762
▁relatifs	-10.3772
▁Cavrois	-10.378
▁premiers	-10.3787
▁prescrit	-10.379
▁2),	-10.3791
▁provision	-10.3809
▁f	-10.381
▁Désistement	-10.3811
▁présomption	-10.3811
▁intervenu	-10.3822
▁pourra	-10.3824
▁demander	-10.3829
▁Sung	-10.3842
▁clauses	-10.385
▁indiqué	-10.3866
▁modification	-10.3872
▁justifiait	-10.3874
▁régulier	-10.3903
apos	-10.3935
▁soutenait	-10.3937
▁licencié	-10.3949
▁régulière	-10.3955
ssel	-10.3955
▁établissements	-10.3957
▁illicite	-10.3967
▁pension	-10.3969
▁bénéficiaire	-10.4
▁total	-10.4013
▁1147	-10.4013
rait	-10.4014
▁soutient	-10.4016
▁modifié	-10.4017
▁loyers	-10.4029
▁fixée	-10.4031
▁logement	-10.4032
▁Auroy	-10.4033
▁champ	-10.4033
▁contester	-10.4036
▁ajoutent	-10.4036
▁2°)	-10.4045
▁déterminé	-10.4046
▁trè	-10.4046
deux	-10.4047
▁1°)	-10.405
▁devoir	-10.406
▁suspension	-10.4097
▁jouissance	-10.4097
▁caducité	-10.4097
▁ressources	-10.4102
▁directe	-10.4114
▁quoi	-10.412
▁équitable	-10.4129
▁méconnaissance	-10.4129
▁trouble	-10.4135
▁consenti	-10.4142
▁Sornay	-10.4161
▁De	-10.4163
aménagement	-10.4175
▁statuts	-10.4181
▁[1],	-10.4187
▁[4],	-10.4213
▁ordonner	-10.4223
▁Compagnie	-10.4226
▁Martinel	-10.4227
▁enfin	-10.4227
assignation	-10.4241
enfant	-10.4241
▁nouvelles	-10.4247
▁difficultés	-10.4251
lot	-10.4252
Robillot	-10.4259
▁choix	-10.4259
▁clôture	-10.4259
eau	-10.4269
épidémie	-10.4274
▁support	-10.4279
▁forfait	-10.4291
▁succession	-10.4292
▁principale	-10.4292
étendue	-10.4307
ini	-10.4308
▁tenir	-10.4325
▁marque	-10.4328
▁éventuel	-10.4336
▁direct	-10.4357
▁Buk	-10.4358
▁mère	-10.4391
▁incombe	-10.4393
▁(4	-10.44
▁aussi	-10.4401
▁experts	-10.4418
▁garanties	-10.4424
▁exécutoire	-10.4426
▁considérer	-10.4426
▁Madame	-10.4432
▁antérieurement	-10.4435
▁telles	-10.4436
attribution	-10.444
ill	-10.444
exécuter	-10.4443
▁2005	-10.4451
▁association	-10.4456
beke	-10.4457
▁rural	-10.4457
▁nationalité	-10.4458
abord	-10.4459
▁10],	-10.4461
escroquerie	-10.4474
▁SA	-10.4477
▁parquet	-10.4491
▁terrain	-10.4493
▁mentions	-10.4501
▁Co	-10.4501
▁Poitiers	-10.4502
▁hypothèse	-10.4507
▁véhicules	-10.4508
▁interdiction	-10.4522
▁tableau	-10.4524
▁limiter	-10.4531
▁accompli	-10.4536
▁accueilli	-10.4542
▁récidive	-10.4558
▁reprochés	-10.4559
alia	-10.4584
écrit	-10.4586
▁Colmar	-10.4605
▁Lament	-10.4605
▁régularité	-10.4626
▁rétention	-10.4626
▁constatant	-10.4635
▁libre	-10.4647
▁47	-10.465
▁excessives	-10.4651
▁retrait	-10.4651
assiette	-10.466
▁productions	-10.466
▁profession	-10.4663
écu	-10.4671
enregistrement	-10.4678
gé	-10.4687
▁Pinet	-10.4694
EL	-10.4706
ap	-10.4719
▁Limited	-10.4728
▁Huglo	-10.4728
▁forfaitaire	-10.4729
▁remises	-10.4732
▁recommandée	-10.4734
▁surveillance	-10.4743
abus	-10.4783
▁quelconque	-10.4797
étis	-10.4797
▁dirigée	-10.4798
▁équivaut	-10.4798
▁101	-10.48
▁35	-10.4808
▁Rouen	-10.4809
▁Nicol	-10.4819
▁visite	-10.4836
▁contribuable	-10.4836
▁besoin	-10.4837
▁conclure	-10.4838
▁exclusivement	-10.4841
▁annexés	-10.4842
▁III	-10.4848
oeuvre	-10.4852
AL	-10.4857
▁Boud	-10.4867
delà	-10.4871
▁résolution	-10.4872
▁lié	-10.4888
▁réalisé	-10.4889
actif	-10.4892
ère	-10.4893
▁bailleresse	-10.4901
▁malfaiteurs	-10.4901
observations	-10.4907
▁Nancy	-10.491
UI	-10.4926
yer	-10.4926
▁prises	-10.4928
qu	-10.4936
▁souverainement	-10.4944
▁permanente	-10.4951
▁délivré	-10.4958
tonnier	-10.4971
▁durant	-10.4972
▁disciplinaire	-10.4977
co	-10.4977
▁horaires	-10.4988
assistance	-10.4993
cinq	-10.4994
▁Alpes	-10.5002
▁Bernard	-10.5006
▁Rovinski	-10.5006
aré	-10.5015
▁factures	-10.5021
▁Loire	-10.5029
ion	-10.5034
▁complet	-10.5042
▁possession	-10.5042
▁constituent	-10.505
▁étranger	-10.5071
▁gérant	-10.5074
▁mentionne	-10.5082
▁paragraphe	-10.5083
▁semaine	-10.5084
▁représentation	-10.5085
▁devra	-10.5094
intervention	-10.51
▁spécifique	-10.5107
▁intérêt	-10.511
▁Holding	-10.5113
▁notifiée	-10.5114
▁Si	-10.5122
▁2007,	-10.5125
▁information	-10.5129
tt	-10.5132
▁Guihal	-10.5149
▁permettent	-10.5149
▁suivi	-10.5159
ec	-10.517
▁intégrale	-10.5173
▁postes	-10.5176
▁clients	-10.518
▁courant	-10.5183
▁circulation	-10.5184
▁tard	-10.522
▁Leblanc	-10.522
▁BNP	-10.5221
1-17	-10.5232
▁versé	-10.5247
▁ordonnée	-10.525
▁justifiant	-10.5256
recevoir	-10.5282
▁quelle	-10.529
▁adressée	-10.5292
▁loyer	-10.5297
▁financement	-10.5303
▁refusant	-10.5306
▁identique	-10.5307
▁Ma	-10.5354
▁situé	-10.5356
ul	-10.536
▁ORejR	-10.5366
▁possible	-10.5366
▁produire	-10.5366
▁physique	-10.5374
▁exercé	-10.5384
▁année	-10.5388
▁fonder	-10.5391
quatre	-10.5392
▁déboutant	-10.5402
▁dirigeant	-10.5412
▁publié	-10.5413
Ile	-10.5415
▁demanderesses	-10.5417
▁Est	-10.5428
▁Une	-10.5429
▁motivation	-10.5439
▁renonciation	-10.5439
▁consentement	-10.5439
▁fils	-10.5441
os	-10.5451
auteur	-10.5465
▁/	-10.5468
▁refuser	-10.5476
▁Insurance	-10.5476
▁prévoyant	-10.5476
▁totalité	-10.5479
expliquer	-10.5507
▁commise	-10.5507
▁Grignon	-10.5513
▁préliminaire	-10.5513
▁prévus	-10.5525
▁32	-10.5528
▁critères	-10.554
irrégularité	-10.5541
évaluation	-10.5541
▁Ouest	-10.5542
▁répond	-10.5542
▁tend	-10.5549
amiante	-10.555
▁Dumoulin	-10.555
▁précision	-10.5553
▁respectives	-10.5555
▁observer	-10.5556
Bourdeau	-10.5587
▁subsidiairement	-10.5599
organisme	-10.5616
▁respecter	-10.5625
▁Paribas	-10.5625
▁chiffre	-10.5628
▁cadres	-10.564
▁Company	-10.5662
▁irrégulière	-10.5662
▁toujours	-10.5662
▁définitif	-10.5662
▁Texier	-10.5665
▁industrielle	-10.5669
▁2022.	-10.5682
▁JL	-10.5694
▁impossibilité	-10.5699
▁Mich	-10.5701
▁internationale	-10.5703
▁déloyale	-10.5704
▁déféré	-10.5721
▁complète	-10.5738
▁différents	-10.5759
RN	-10.5776
andis	-10.5777
èle	-10.5777
▁radiée	-10.5778
▁paie	-10.5788
▁marchandises	-10.5803
▁100	-10.5807
▁promesse	-10.5814
▁secteur	-10.5821
▁solidairement	-10.5822
▁caractérisé	-10.5822
▁relèvent	-10.5822
▁tenus	-10.5823
▁conduite	-10.5842
▁aient	-10.5851
▁copie	-10.5868
eaux	-10.5872
▁21-14.	-10.589
▁souscription	-10.5891
▁communiquer	-10.5893
▁conducteur	-10.5903
▁compétent	-10.5911
▁compétente	-10.5919
aquin	-10.593
▁saisis	-10.5939
▁contribution	-10.5943
exposante	-10.5964
▁fondamentaux	-10.5968
▁sinistre	-10.5968
▁fonctionnement	-10.5968
ing	-10.597
▁1353	-10.5977
Brochier	-10.6007
▁estimé	-10.6007
▁père	-10.6009
▁distinct	-10.6027
▁formelle	-10.6028
▁contenu	-10.6035
ac	-10.6036
▁ad	-10.604
▁François	-10.6046
▁substance	-10.6046
▁répartition	-10.6046
▁devaient	-10.6046
▁morale	-10.6047
▁Del	-10.6051
▁[2],	-10.6051
▁20.	-10.6059
▁associé	-10.6061
▁certain	-10.6079
erreur	-10.6085
▁Bull	-10.6086
▁pied	-10.6086
▁route	-10.6086
as	-10.6091
-20	-10.6106
▁1°	-10.6117
identité	-10.612
▁Tech	-10.6124
▁Bouniol	-10.6125
▁médicaux	-10.6125
▁renvoyer	-10.6125
▁Boutet	-10.6125
▁affirmer	-10.6137
OUL	-10.6144
▁dépenses	-10.6148
▁saisir	-10.6149
▁honoraires	-10.615
▁Hourdeaux	-10.6164
▁Vi	-10.6165
▁visant	-10.617
ry	-10.6173
▁Recevabilité	-10.6204
▁foncier	-10.6204
▁livraison	-10.6204
▁complément	-10.6206
▁comporte	-10.6211
▁imparti	-10.6215
▁différence	-10.6219
▁médicale	-10.6231
▁impossible	-10.6244
▁sixième	-10.6245
adi	-10.6272
▁Bru	-10.6282
▁maintenues	-10.6291
▁étrangers	-10.6317
▁solidarité	-10.6324
▁Charte	-10.6324
▁accueillie	-10.6326
▁commandement	-10.6331
ro	-10.6338
▁groupement	-10.6339
▁entrepris	-10.6346
ique	-10.6348
▁puisqu	-10.635
▁stipulations	-10.6352
Rhône	-10.6362
ensuit	-10.6364
extradition	-10.6364
Association	-10.6365
gère	-10.6367
-12	-10.6371
Meier	-10.6378
▁particulières	-10.6381
▁déposées	-10.639
applique	-10.6399
▁garanti	-10.6401
▁assureur	-10.6401
▁obtenu	-10.6403
▁quel	-10.6405
▁Echappé	-10.6405
▁34	-10.6409
▁publication	-10.6422
▁disposait	-10.6446
offre	-10.646
▁bis	-10.6461
▁aggravées	-10.6475
▁Lacquem	-10.6486
▁1009-3	-10.6486
emprunteur	-10.6487
▁partage	-10.6493
AGS	-10.6493
▁tirée	-10.6512
tion	-10.6513
▁BD	-10.6514
▁divers	-10.6525
▁complicité	-10.6527
▁réinscrite	-10.6527
VAL	-10.6537
▁tentative	-10.6545
▁familiale	-10.6551
affaires	-10.6553
▁neuf	-10.6558
▁manifestant	-10.6569
▁permettai	-10.6581
▁CGEA	-10.6585
▁exercer	-10.6596
▁vis	-10.6604
um	-10.6608
▁45	-10.6611
▁baux	-10.6614
▁représentants	-10.6632
lieu	-10.6644
▁CF	-10.6647
▁Balat	-10.6651
▁solliciter	-10.6653
▁Chambre	-10.6657
▁exclu	-10.6658
▁utilement	-10.6661
exposant	-10.6679
▁émis	-10.6681
▁Caen	-10.6686
▁manifeste	-10.6696
▁abusive	-10.6712
▁concernés	-10.6731
▁raisonnable	-10.6735
interprétation	-10.6735
▁portait	-10.6737
entre	-10.6757
q	-10.6765
▁correspond	-10.6767
▁2021.	-10.6774
▁exercice	-10.6776
GLO	-10.6777
▁rembourser	-10.6777
nnie	-10.6779
▁rendre	-10.6781
▁communes	-10.6786
▁comporter	-10.6798
▁réalisée	-10.6816
▁2017.	-10.6819
▁résulter	-10.6819
▁réintégration	-10.6819
utilisation	-10.6819
▁HU	-10.6823
▁subsidiaire	-10.6824
▁inter	-10.6828
▁précisément	-10.6829
▁hebdomadaire	-10.6839
▁assurer	-10.6843
ch	-10.6848
▁33	-10.6848
▁acquéreurs	-10.6862
▁annuelle	-10.6865
▁écrite	-10.6865
▁court	-10.6881
▁627	-10.6884
▁FI	-10.6888
▁contractuelles	-10.6891
▁manque	-10.6892
ement	-10.6895
▁PREMIER	-10.6904
▁enquêteurs	-10.6904
Versailles	-10.6906
▁Au	-10.6911
▁Dijon	-10.6914
▁accepté	-10.6917
▁enquête	-10.693
▁exercée	-10.6943
▁dépourvu	-10.6947
▁enrôlée	-10.6947
▁borne	-10.6947
▁transmission	-10.6947
▁présumer	-10.6947
▁dé	-10.696
▁engagements	-10.6964
▁vice	-10.6968
▁formulé	-10.6973
▁passage	-10.6988
▁détournement	-10.699
▁jurisprudence	-10.699
▁produisait	-10.699
▁conservation	-10.699
Côte	-10.6992
▁autorisé	-10.6993
▁seront	-10.6994
▁attestation	-10.6995
▁1103	-10.6999
▁acquise	-10.6999
duc	-10.7001
ré	-10.7003
▁relations	-10.7032
ubac	-10.7033
emporte	-10.7036
▁renouvellement	-10.7036
▁Ce	-10.704
▁départemental	-10.7042
▁volontairement	-10.7044
▁étrangère	-10.7055
▁justifiée	-10.7061
▁administratif	-10.7062
achat	-10.7076
▁supérieur	-10.7086
▁3].	-10.709
▁supplémentaire	-10.7099
État	-10.7102
▁annuel	-10.7115
▁présentation	-10.7116
▁ordonnant	-10.712
▁séjour	-10.712
▁forcée	-10.7122
di	-10.7128
▁constatait	-10.7128
éléments	-10.7143
▁car	-10.7149
▁transaction	-10.7155
▁meurtre	-10.7163
▁rente	-10.7163
▁examiner	-10.7164
▁opération	-10.7174
▁Chambéry	-10.7178
▁démontré	-10.7187
▁global	-10.719
▁primes	-10.7204
▁sérieux	-10.7207
▁mauvaise	-10.721
▁conduit	-10.7219
▁horaire	-10.7221
appliquer	-10.7233
▁paiements	-10.7235
▁3)	-10.7243
▁apprécier	-10.7244
CPAM	-10.7256
▁[5]	-10.7266
▁ouvert	-10.7271
mment	-10.7272
▁personnellement	-10.728
▁décédée	-10.7281
our	-10.7282
▁11],	-10.7284
▁immeuble	-10.7286
▁économiques	-10.7291
▁élections	-10.7296
1°/	-10.73
▁mineurs	-10.7311
▁recevables	-10.7328
▁soutenu	-10.7329
▁départementale	-10.7336
▁mainlevée	-10.734
▁ministre	-10.734
▁examinée	-10.7343
▁prévenus	-10.7344
ay	-10.7345
▁litigieuses	-10.7352
▁entretien	-10.7364
▁réunion	-10.7368
▁soumises	-10.7376
▁indiquant	-10.7384
▁convocation	-10.7384
interruption	-10.7385
▁Déclaration	-10.7385
loz	-10.7385
▁Poulet	-10.7386
commissaire	-10.7391
▁fixées	-10.7392
2°/	-10.7394
▁quelque	-10.7399
id	-10.7405
▁syndical	-10.7413
▁reconnu	-10.7421
▁bénéficié	-10.743
épargne	-10.7435
▁confié	-10.7436
▁couvert	-10.744
ionel	-10.7444
▁techniques	-10.7448
▁assurée	-10.7457
▁2015.	-10.7469
▁MARTIN	-10.7474
▁Bouches	-10.7474
Terre	-10.7475
▁communiqués	-10.7477
▁réaliser	-10.7478
▁autorité	-10.7478
▁invité	-10.7485
▁reproche	-10.7496
▁expert	-10.7515
▁Richard	-10.752
▁Tinchon	-10.752
▁double	-10.752
▁confiance	-10.752
▁validité	-10.752
▁508	-10.7523
▁Brun	-10.7525
1-1	-10.7526
▁mentionné	-10.7528
▁agissements	-10.7533
▁38	-10.7536
▁Bell	-10.7545
aisse	-10.7557
▁prononce	-10.7562
Odent	-10.7565
▁David	-10.7565
▁maritime	-10.7565
▁Trichet	-10.7565
▁face	-10.7565
6°/	-10.7568
laise	-10.7569
▁Pau	-10.7576
▁facture	-10.7577
eux	-10.7598
ia	-10.7599
▁retour	-10.7604
▁probatoire	-10.7611
▁effectuée	-10.7623
▁interne	-10.7636
▁particulière	-10.764
▁effectués	-10.7644
▁opposition	-10.7645
▁besoins	-10.765
abstenant	-10.7657
▁Delvolvé	-10.7657
▁personnalité	-10.7657
▁76	-10.766
envoi	-10.7664
▁contravention	-10.7684
▁constatation	-10.7687
▁titres	-10.7688
▁Group	-10.7692
▁411-3,	-10.77
▁Yves	-10.7703
▁60	-10.7704
▁naissance	-10.7706
astreinte	-10.7712
▁conformité	-10.772
▁sanctions	-10.7722
▁puisque	-10.7726
agrément	-10.7758
▁payé	-10.7759
▁considérée	-10.776
▁réunis	-10.7762
▁langue	-10.7777
▁établis	-10.7777
▁aggravé	-10.7806
ière	-10.781
▁déboutée	-10.782
▁2003	-10.7822
▁limité	-10.7824
▁inscription	-10.7834
▁confirmant	-10.7843
▁606	-10.7844
able	-10.7845
▁poursuivie	-10.7848
agir	-10.7853
▁65	-10.7855
▁Trésor	-10.7859
▁Invest	-10.7883
▁Laba	-10.7888
▁entraîné	-10.7889
▁restituer	-10.7889
▁compensation	-10.7889
ale	-10.7903
▁pure	-10.793
▁Lepri	-10.7936
incompétence	-10.7937
▁autonome	-10.794
XE	-10.7944
expression	-10.7953
▁bancaire	-10.7967
TS	-10.7967
▁Polynésie	-10.7985
▁construire	-10.7986
opposition	-10.7995
▁différentes	-10.8003
▁rendus	-10.8014
▁505	-10.8016
▁Se	-10.8017
▁inopérants	-10.8021
▁mineur	-10.8023
▁divorce	-10.8031
'«	-10.8033
▁300	-10.8036
ma	-10.8039
▁Metz	-10.8046
▁cotisant	-10.8064
tre	-10.8069
lange	-10.8073
▁cela	-10.8078
▁mensuelle	-10.8081
-17	-10.8089
▁placée	-10.8089
▁lots	-10.8089
▁6]	-10.8105
▁exclusive	-10.8118
▁culpabilité	-10.8127
▁seize	-10.8127
▁architectes	-10.8128
▁Reims	-10.8141
▁supérieure	-10.8141
Crim	-10.8142
▁Seine	-10.8149
ibi	-10.8151
▁saisies	-10.8152
▁506	-10.8153
▁3171-	-10.8169
▁démontre	-10.8169
▁coefficient	-10.8176
▁régularisation	-10.8176
▁seraient	-10.8179
▁2°	-10.8194
ig	-10.8197
faisaient	-10.82
▁désistée	-10.8206
▁conventions	-10.8213
▁prévoyait	-10.8224
▁Croc	-10.8224
▁autorisée	-10.8225
▁début	-10.8236
▁Nicola	-10.8242
▁CIC	-10.8243
▁507	-10.825
▁fautes	-10.8251
▁spécial	-10.8254
▁maire	-10.8262
authe	-10.8271
▁Chevallier	-10.8273
▁Maître	-10.8273
▁dehors	-10.8273
▁manqué	-10.8273
▁1991	-10.828
▁premières	-10.8292
che	-10.8294
▁analyse	-10.8296
ex	-10.8315
▁r	-10.8322
▁prouver	-10.8324
am	-10.8333
▁individuelle	-10.8335
▁dossiers	-10.8355
▁citoyen	-10.8371
Christophe	-10.8371
▁Claire	-10.8371
▁Haas	-10.8371
▁Salomon	-10.8371
▁113-1	-10.8376
actes	-10.8386
▁37	-10.8392
▁volontaire	-10.8393
mettant	-10.8396
▁zone	-10.8421
▁vise	-10.8421
ag	-10.8428
▁électroniques	-10.8448
▁précédemment	-10.847
▁Capron	-10.847
▁mentionnant	-10.8471
▁valablement	-10.848
▁permanent	-10.8484
▁entendu	-10.8489
ort	-10.849
▁Guerr	-10.8495
▁offre	-10.8507
uvre	-10.8515
▁Sevaux	-10.852
▁destinataire	-10.852
▁suppose	-10.8531
annexe	-10.8538
▁908	-10.8539
ance	-10.8544
▁connu	-10.8552
▁variable	-10.8556
▁initial	-10.856
ncou	-10.856
▁2001	-10.857
▁commerciaux	-10.8571
▁infirmatif	-10.8571
▁comparution	-10.8571
▁rien	-10.8571
aval	-10.8573
2.1	-10.8576
▁respecté	-10.8576
▁locale	-10.8582
▁détail	-10.8588
▁égale	-10.8605
▁politique	-10.8607
▁dirigeants	-10.8609
▁financiers	-10.8609
▁financières	-10.8612
▁2020)	-10.8616
▁h	-10.862
▁ampliatif	-10.8621
▁combinaison	-10.8621
▁destination	-10.8621
▁indispensable	-10.8621
▁loyauté	-10.8621
▁recel	-10.8621
▁21-15.	-10.8621
3°/	-10.8625
▁décider	-10.8629
étranger	-10.8639
▁intention	-10.8643
▁excéd	-10.8648
▁simplement	-10.8649
▁Etat	-10.8661
▁39	-10.8669
▁auteur	-10.8671
▁chômage	-10.8672
▁fixant	-10.8672
▁gérer	-10.8672
▁modifier	-10.8673
▁AF	-10.8686
▁42	-10.869
indu	-10.8694
▁pourrait	-10.872
▁suppression	-10.8723
Autorité	-10.8723
▁appréciation	-10.8724
▁autant	-10.8727
▁publicité	-10.8728
▁née	-10.8733
disproportionnée	-10.8734
▁délits	-10.8748
▁omission	-10.8752
▁intérieur	-10.8756
▁repris	-10.8756
▁réclamation	-10.876
▁Haute	-10.8764
▁interprétation	-10.8774
▁Finance	-10.8774
▁création	-10.8775
▁Mathonnet	-10.8776
étend	-10.8783
▁Hôtel	-10.8789
▁contrôler	-10.8799
▁définitivement	-10.8803
3.4	-10.8807
▁rémunérations	-10.8814
dire	-10.8815
assurances	-10.8818
▁Rouch	-10.8826
▁faveur	-10.8826
▁notion	-10.8826
li	-10.8828
▁propriétaires	-10.8829
▁504	-10.8843
▁gains	-10.8843
attestation	-10.8846
avenant	-10.8848
▁domaine	-10.8864
▁imputable	-10.8865
▁ca	-10.8865
▁ZB	-10.8876
urbanisme	-10.8878
▁2016-1088	-10.8878
▁Lanouvelle	-10.8878
▁personnelles	-10.8884
▁insuffisance	-10.8886
▁Mazi	-10.889
▁matériels	-10.8898
conclusions	-10.8898
ainsi	-10.8899
▁prêts	-10.89
ons	-10.8906
▁200	-10.891
▁pénalités	-10.8917
▁filiale	-10.8917
▁Gr	-10.8927
▁initiale	-10.8928
▁Vigand	-10.893
▁consolidation	-10.893
▁constituant	-10.893
▁promotion	-10.893
▁Papeete	-10.894
asch	-10.8948
quelles	-10.8955
▁utile	-10.8957
▁postérieure	-10.8962
▁vendu	-10.8981
Homme	-10.8982
ayro	-10.8982
▁MF	-10.8993
▁visées	-10.8994
▁réalisées	-10.9014
▁relevait	-10.9036
né	-10.9037
▁Bou	-10.9037
2-12	-10.9048
imposition	-10.9056
llard	-10.907
▁2002	-10.907
▁consommateur	-10.9076
▁organismes	-10.908
▁Vend	-10.9087
▁Ortscheidt	-10.9088
▁coopérative	-10.9088
▁poursuivre	-10.9088
▁prétendument	-10.9096
▁partant	-10.91
▁AGS	-10.9104
5°/	-10.9105
▁rédigée	-10.9126
▁revenu	-10.913
▁Ces	-10.9131
▁personnels	-10.914
▁authentique	-10.9141
▁Turb	-10.9141
▁malgr	-10.9141
▁reprendre	-10.9141
importance	-10.9141
▁affecté	-10.9149
▁frappé	-10.9153
▁Bari	-10.9159
▁déposée	-10.9162
▁réglementaires	-10.9183
▁précisé	-10.9191
▁mode	-10.9192
Angers	-10.9194
▁soumettre	-10.9194
▁Altran	-10.9194
▁commises	-10.9194
st	-10.9195
ron	-10.9196
▁Brou	-10.9197
▁fondées	-10.9199
3.3	-10.9213
▁demandait	-10.9248
▁peser	-10.9248
▁Marlange	-10.9248
▁réserves	-10.9254
▁intervention	-10.9255
▁21.	-10.926
one	-10.9268
▁réquisitions	-10.927
▁opposable	-10.9291
▁Prad	-10.9301
verbaux	-10.9302
▁Burgade	-10.9302
▁conduire	-10.9302
▁nouveaux	-10.9305
▁48	-10.9311
▁amende	-10.932
assurée	-10.9323
▁Sot	-10.9325
iste	-10.9326
udit	-10.9329
rez	-10.9329
▁conservatoire	-10.9346
▁annulée	-10.9349
▁admis	-10.935
▁interdit	-10.9354
▁Hedios	-10.9356
▁sûreté	-10.9356
▁traduction	-10.9356
▁donation	-10.9357
analyse	-10.9358
▁3°)	-10.9372
▁recevoir	-10.9373
▁report	-10.9376
▁né	-10.9386
▁visé	-10.9386
▁509	-10.9389
▁chantier	-10.9401
▁courriel	-10.9401
▁barreau	-10.9411
argent	-10.9411
▁causalité	-10.9411
▁commencé	-10.9412
▁visée	-10.9418
▁initialement	-10.9425
▁503	-10.9444
▁industriel	-10.9449
3-60	-10.9453
EU	-10.9455
▁reste	-10.9456
▁liés	-10.9458
iv	-10.9464
▁International	-10.9466
▁consistant	-10.9466
▁Ott	-10.9467
▁Fédération	-10.9469
▁démission	-10.9471
zes	-10.9478
▁incidence	-10.9478
▁Tra	-10.948
▁conseils	-10.9497
▁afférentes	-10.9503
isation	-10.9513
▁auxquel	-10.9514
▁Ca	-10.9514
▁motiver	-10.9521
▁reconventionnel	-10.9521
▁terrorisme	-10.9521
▁désormais	-10.9526
▁Gout	-10.9527
▁changement	-10.9528
▁appels	-10.9532
▁1315	-10.9536
▁1999	-10.9537
dé	-10.9537
▁subis	-10.9551
▁donnée	-10.9553
ili	-10.9563
▁justifiés	-10.9566
▁tierce	-10.9577
entrepreneur	-10.9577
obsta	-10.9579
▁demandée	-10.9583
▁opposé	-10.9597
▁exécuté	-10.9605
▁allégué	-10.9605
▁inopérante	-10.9606
▁exclure	-10.9608
▁constructeur	-10.9624
▁disproportionné	-10.9625
associé	-10.9631
▁débitrice	-10.9633
▁monétaire	-10.9633
▁définition	-10.9633
▁relaxé	-10.9634
▁Enfin	-10.9639
▁al	-10.9641
▁Bastia	-10.9646
▁viol	-10.9655
hypothèse	-10.9662
▁annuler	-10.9664
hl	-10.968
▁famille	-10.968
tu	-10.9681
▁diligence	-10.9681
▁conformes	-10.9684
▁57	-10.9685
▁Chauvin	-10.9689
▁censure	-10.9689
▁servitude	-10.9689
▁fourniture	-10.969
▁écartant	-10.9691
▁Gan	-10.9691
▁constant	-10.9696
▁référés	-10.9698
▁hoc	-10.9699
agit	-10.9718
oiseau	-10.972
▁512	-10.9723
▁requis	-10.974
imputabilité	-10.9745
éviction	-10.9745
▁proximité	-10.9745
▁forclusion	-10.9745
▁12],	-10.9746
▁capitalisation	-10.9746
traitant	-10.9756
▁Basse	-10.9761
▁type	-10.9763
se	-10.9763
▁détenu	-10.9776
▁contributions	-10.9783
▁dettes	-10.9789
▁vérification	-10.9794
▁déduction	-10.9802
▁revanche	-10.9802
amarre	-10.9802
gy	-10.9804
▁SNCF	-10.981
▁contractuel	-10.9813
▁Normandie	-10.9813
▁SE	-10.9823
annuler	-10.9833
▁fiscal	-10.9841
▁irrévocable	-10.9846
▁passé	-10.9856
▁raisons	-10.9857
▁réglementation	-10.9859
▁décennale	-10.9862
▁fournir	-10.9865
▁2004,	-10.9867
▁2005,	-10.9868
▁1221-1	-10.9868
▁1789	-10.9868
▁immédiatement	-10.987
▁Al	-10.9871
▁7]	-10.9874
▁70	-10.9877
vis	-10.9877
▁immédiat	-10.9879
▁va	-10.9884
▁pôle	-10.9889
▁AO	-10.9897
▁150	-10.99
▁Philipp	-10.9903
allocation	-10.9911
infractions	-10.9915
UE	-10.9919
▁conclus	-10.992
▁inaptitude	-10.992
▁effectuer	-10.9926
▁2224	-10.9931
▁liée	-10.9936
▁pro	-10.9942
▁réel	-10.9951
▁présentait	-10.9956
▁Massignon	-10.9975
▁légaux	-10.9975
▁démontrait	-10.9975
apport	-10.9979
▁Groupama	-10.9985
▁vers	-10.9985
▁recherché	-10.9996
intention	-11.0007
ési	-11.0018
▁versés	-11.0021
▁mandataires	-11.0024
ire	-11.003
animation	-11.0033
▁hospitalier	-11.0033
▁lumière	-11.0033
Apaire	-11.0033
▁Munier	-11.0033
▁Anne	-11.0034
▁fiche	-11.0034
▁107	-11.0037
▁carte	-11.0043
▁liées	-11.0044
ichon	-11.005
▁[13]	-11.0051
▁HA	-11.0053
ol	-11.006
agence	-11.0066
▁(5	-11.0078
▁favorable	-11.0085
▁inopposable	-11.0085
▁mentionnées	-11.0087
tial	-11.0087
▁rompu	-11.0091
▁poursuivis	-11.0095
▁IV	-11.01
▁bailleurs	-11.0114
vie	-11.0117
▁Pro	-11.0119
▁énoncer	-11.0122
▁Etablissement	-11.0133
enne	-11.0134
investissement	-11.0136
▁indemnitaire	-11.0144
ca	-11.0147
exigibilité	-11.015
▁suffit	-11.015
▁maîtrise	-11.015
jean	-11.015
▁investigations	-11.015
▁anticipée	-11.0154
▁majeure	-11.0161
▁missions	-11.0172
▁Or	-11.0178
▁disant	-11.0188
▁exploitation	-11.0205
2-2	-11.0205
▁compagnie	-11.0209
▁percevoir	-11.0209
▁pêche	-11.0209
▁finalité	-11.021
▁rapporter	-11.0212
▁position	-11.0218
▁Ch	-11.0233
▁exerce	-11.0239
▁constitutifs	-11.0253
utilité	-11.0269
▁Financière	-11.0269
▁comparu	-11.0269
▁Bien	-11.0273
▁éventuellement	-11.0277
ve	-11.0292
électricité	-11.0305
▁apparaît	-11.0308
▁indépendants	-11.0308
▁Ile	-11.0312
▁accusation	-11.0323
▁registre	-11.0324
▁mur	-11.0325
▁pratiques	-11.0325
▁comportant	-11.0329
▁géolocalisation	-11.0329
▁inexcusable	-11.0329
▁Verni	-11.0329
▁gestionnaire	-11.0329
▁Bret	-11.0338
▁souveraine	-11.034
▁indu	-11.034
nant	-11.0341
com	-11.0347
▁CE	-11.037
▁lettres	-11.0372
▁taxe	-11.0385
▁prétention	-11.0385
▁ordre	-11.0388
▁mentionnait	-11.0389
▁précitées	-11.0389
▁ressortir	-11.0392
▁1971	-11.0398
▁délivrée	-11.0411
▁exécutées	-11.0423
éviter	-11.0425
▁DB	-11.0426
▁immobiliers	-11.0429
informer	-11.043
obtention	-11.0449
▁Darbois	-11.0449
▁minimum	-11.0449
ONCTION	-11.0449
▁degré	-11.0449
▁additionnel	-11.0449
▁pré	-11.045
▁procédant	-11.0451
▁sol	-11.0458
▁conciliation	-11.0461
▁doute	-11.0464
▁existe	-11.0465
▁Go	-11.0468
▁administratives	-11.0468
▁Laul	-11.0471
▁investissement	-11.0471
▁conclut	-11.0472
enseigne	-11.0475
▁compétences	-11.0484
objectif	-11.0488
▁majorations	-11.0499
▁danger	-11.0508
économie	-11.051
indemnités	-11.0523
▁utiles	-11.0525
▁accès	-11.0528
▁nulle	-11.0536
▁Bourges	-11.0545
▁brut	-11.0547
▁syndicats	-11.0553
▁physiques	-11.0557
▁particuliers	-11.0561
▁fournisseur	-11.057
▁3°	-11.0571
Davost	-11.0572
▁club	-11.0572
▁fût	-11.0572
▁région	-11.0572
proportionnalité	-11.0576
▁1970	-11.0582
▁Besançon	-11.0584
▁cédé	-11.0586
impose	-11.0594
apprécie	-11.0596
▁con	-11.06
▁pénales	-11.0602
▁vices	-11.0603
▁requérant	-11.0615
tet	-11.0618
mmen	-11.0618
SA	-11.0628
▁compensatoire	-11.0633
▁Generali	-11.0634
▁inférieure	-11.0634
▁proportionnée	-11.0636
▁soulevée	-11.0645
▁Riom	-11.0649
▁exceptionnelle	-11.065
▁36	-11.0658
▁13],	-11.0663
▁mensuel	-11.0668
éri	-11.0669
▁survenu	-11.0692
▁IRRECEVABLE	-11.0696
▁détermination	-11.0699
▁Méditerranée	-11.0699
▁1998	-11.0705
▁expresse	-11.0711
ver	-11.0716
iff	-11.0716
▁formulée	-11.0716
▁v	-11.0719
▁954	-11.072
▁mentionnés	-11.0722
clusion	-11.073
▁central	-11.074
▁distincte	-11.0742
▁BTSG	-11.0758
▁trésorerie	-11.0758
▁Cass	-11.0759
▁assurance	-11.0759
illon	-11.0759
▁Com	-11.076
▁crimes	-11.076
▁note	-11.0764
▁indique	-11.0775
▁laissant	-11.0781
ey	-11.0788
▁[5],	-11.08
▁reproché	-11.0803
▁accordé	-11.0812
▁redevable	-11.0819
▁communauté	-11.0821
▁constituaient	-11.0821
▁contestait	-11.0821
▁Petit	-11.0821
▁perçu	-11.0824
▁crime	-11.0825
▁appelé	-11.0831
▁75	-11.0832
▁précisant	-11.0841
▁décharge	-11.0871
évolution	-11.0872
▁Flore	-11.0882
octroi	-11.0884
▁nuit	-11.0884
▁restant	-11.0885
ert	-11.0891
▁dénonciation	-11.0904
harmo	-11.0917
▁avenant	-11.094
▁pourvoir	-11.0941
▁réputée	-11.0945
▁2014.	-11.0947
▁Finaréa	-11.0948
▁utilisatrice	-11.0948
▁Jehannin	-11.0948
▁1996	-11.0959
▁appréciations	-11.0966
oirre	-11.0977
▁atteint	-11.0979
▁renseignements	-11.0982
inspecteur	-11.0992
▁identiques	-11.0998
▁main	-11.0999
Desaché	-11.1012
▁manifestation	-11.1012
▁parole	-11.1013
▁indépenda	-11.1016
▁posée	-11.1017
▁indemnitaires	-11.1018
▁Entreprise	-11.1023
▁suffisante	-11.1024
soudaine	-11.1031
études	-11.1032
▁rapportant	-11.1033
▁cumul	-11.1051
▁soulevé	-11.1064
▁assignée	-11.107
▁RENVOI	-11.1072
bert	-11.1076
▁Ne	-11.1076
▁Lorraine	-11.1077
▁conviction	-11.1077
▁trouvait	-11.1077
Lemoine	-11.1077
▁abusif	-11.1077
▁origine	-11.1083
▁rapportée	-11.1097
▁80	-11.111
tra	-11.1119
▁MJ	-11.1119
▁constituée	-11.112
ième	-11.1124
▁priver	-11.1138
lo	-11.114
▁déficit	-11.1141
▁Vexliard	-11.1142
▁brevet	-11.1142
▁comptabilité	-11.1142
▁produisant	-11.1142
▁révocation	-11.1142
riot	-11.1143
▁1231-1	-11.1145
▁QPC	-11.1145
▁relevée	-11.1146
▁surendettement	-11.115
▁comptables	-11.115
▁Transports	-11.1152
▁contrefaçon	-11.1159
▁Sey	-11.1163
intéressée	-11.1194
▁demandent	-11.1196
▁torts	-11.1198
▁accords	-11.1198
CS	-11.1205
▁divorcé	-11.1207
▁subordination	-11.1207
▁Hair	-11.1208
▁formalité	-11.1208
▁occupé	-11.1208
▁journalières	-11.1219
▁Pons	-11.1221
▁cadastrée	-11.1224
2.3	-11.1225
▁Leca	-11.1229
▁41	-11.1235
▁attestations	-11.124
▁43	-11.1247
▁invoquer	-11.125
Est	-11.1271
▁rattache	-11.1272
▁Briard	-11.1273
▁clientèle	-11.1273
▁CFDT	-11.1279
▁Bois	-11.1282
▁créanciers	-11.1286
▁rubriques	-11.1304
▁figure	-11.1307
▁exacte	-11.1313
officier	-11.1321
▁solidaire	-11.1328
▁convenu	-11.133
ONNE	-11.1339
▁Bouzidi	-11.1339
▁périmètre	-11.1339
▁dissimulation	-11.1339
▁septième	-11.1339
▁réunies	-11.134
▁arme	-11.1341
ques	-11.1348
▁nullement	-11.1354
▁SMABTP	-11.1363
▁conclue	-11.137
▁400	-11.1376
▁607	-11.1386
▁reconnue	-11.1388
achèvement	-11.1389
▁précédent	-11.1389
▁caractérisée	-11.1392
urs	-11.1396
po	-11.1403
▁Bouhanna	-11.1406
▁Fontaine	-11.1406
▁contexte	-11.1406
▁privant	-11.1407
▁solution	-11.1408
edd	-11.1411
▁4),	-11.142
▁proposés	-11.1421
▁Etats	-11.1426
▁bancaires	-11.143
▁dite	-11.1431
▁EDF	-11.1432
▁antérieures	-11.1437
▁Bo	-11.1453
vi	-11.1458
esist	-11.1465
▁Côte	-11.147
▁Segu	-11.1472
▁Farrenq	-11.1473
▁Rouvière	-11.1473
ème	-11.1473
▁ligne	-11.1475
▁sanitaire	-11.1477
▁alléguée	-11.1494
ans	-11.1496
▁mal	-11.1506
▁modifiée	-11.1507
▁21-20.0	-11.1508
▁page	-11.151
▁fournis	-11.1516
extension	-11.1524
em	-11.1526
▁Wy	-11.1528
▁déclarées	-11.1529
▁5),	-11.1536
uffre	-11.154
▁Nouvelle	-11.154
▁mixte	-11.154
▁titrisation	-11.154
▁révision	-11.154
hébergement	-11.1541
▁mort	-11.1541
io	-11.1543
▁impropre	-11.1544
▁manifesté	-11.1552
▁réduit	-11.1566
▁distincts	-11.1585
▁investi	-11.1585
▁608	-11.159
incidence	-11.1593
▁valable	-11.1596
▁pratique	-11.1597
ino	-11.1601
▁prend	-11.1606
▁GmbH	-11.1608
▁contagieuse	-11.1608
▁tarification	-11.1608
▁Joly	-11.1608
▁Itta	-11.1608
▁mariage	-11.1609
Verg	-11.1611
▁242-1	-11.1611
▁sexuelle	-11.1613
▁devis	-11.1617
▁1985	-11.1623
fr	-11.1628
▁agent	-11.1628
▁52	-11.1629
2.4	-11.1632
▁2021)	-11.1633
▁habituelle	-11.1637
▁signée	-11.1641
▁imposé	-11.1658
▁semaines	-11.1664
rie	-11.1665
▁prive	-11.1671
▁Delt	-11.1673
▁législateur	-11.1677
▁mutation	-11.1677
▁déplacement	-11.1681
▁2020.	-11.1683
honoraires	-11.17
▁essentielles	-11.17
▁and	-11.1701
▁infirmé	-11.1703
▁inscrite	-11.171
▁relevés	-11.1714
▁rectifié	-11.1715
▁annexe	-11.1729
▁Midi	-11.1746
▁intellectuelle	-11.1746
ég	-11.175
▁44	-11.1751
▁mentionner	-11.1752
▁juridiques	-11.1756
Agen	-11.1758
▁françaises	-11.1767
lé	-11.1774
▁cautions	-11.1776
▁indirects	-11.1787
▁22.	-11.1794
▁définies	-11.1794
▁recherches	-11.1809
▁existant	-11.1813
▁inférieur	-11.1815
▁conjoint	-11.1815
▁CHAUVIN	-11.1815
▁Distribution	-11.1815
▁composition	-11.1815
▁foncière	-11.1815
▁capacité	-11.182
▁parents	-11.1822
ph	-11.1833
▁indemnisé	-11.1835
ches	-11.1842
▁formule	-11.1845
▁escroquerie	-11.185
cf	-11.1866
ancien	-11.1869
comptable	-11.1872
▁établit	-11.1883
▁CSE	-11.1884
▁PARTIELLE	-11.1885
▁démolition	-11.1885
▁Burg	-11.1885
▁prévoient	-11.1885
▁dépourvue	-11.1885
▁indiquait	-11.1885
▁Gall	-11.1888
accomplissement	-11.1888
▁sollicitée	-11.1889
héritière	-11.189
▁vous	-11.189
▁frauduleuse	-11.1891
▁exigible	-11.1891
▁travailleur	-11.1899
▁Dar	-11.1905
▁prévenue	-11.1916
▁créé	-11.1917
22-20	-11.1918
▁510	-11.1919
▁former	-11.192
▁immédiate	-11.1921
▁normale	-11.1923
▁612	-11.1927
▁estime	-11.1931
▁63	-11.1931
▁Euro	-11.1935
▁anciens	-11.1935
▁destinés	-11.1941
▁avantages	-11.1945
▁assure	-11.1945
avance	-11.1955
▁posées	-11.1957
▁délictuelle	-11.1959
▁bornée	-11.196
▁couverture	-11.1962
▁AG	-11.1964
aire	-11.1964
avantage	-11.1968
anac	-11.1969
▁fille	-11.197
▁55	-11.1974
▁graves	-11.1983
▁1355	-11.1984
▁retenus	-11.1988
▁présentant	-11.1995
▁HP	-11.1997
bo	-11.2014
▁antérieur	-11.2014
▁concerné	-11.2016
▁objets	-11.2019
▁21-13	-11.2019
▁assortie	-11.2022
▁choisi	-11.2024
▁franchise	-11.2026
▁photo	-11.2026
▁Jonction	-11.2026
▁stade	-11.2026
▁Adida	-11.2027
▁pose	-11.2028
▁permettaient	-11.203
▁commande	-11.203
▁exclusif	-11.2033
▁eaux	-11.204
▁prétendue	-11.2046
▁irrégularité	-11.205
▁aggravés	-11.2054
▁exploitant	-11.2054
-[	-11.2078
arabe	-11.2086
▁morales	-11.2091
▁découlant	-11.2098
▁moindre	-11.2098
▁conscience	-11.2098
▁bénéficiaires	-11.21
▁prêteur	-11.2105
ateur	-11.2114
▁suivantes	-11.2118
▁communications	-11.212
▁surabondants	-11.2123
▁désisté	-11.2124
PI	-11.2128
▁desquelles	-11.2135
▁commissions	-11.2144
▁égal	-11.2149
▁Po	-11.2154
▁évalué	-11.2154
▁ville	-11.2156
▁fonctionnel	-11.216
▁Boullez	-11.217
▁moitié	-11.217
▁preuves	-11.2172
▁donne	-11.2177
▁49	-11.2177
▁Ni	-11.2182
▁In	-11.2188
▁clairs	-11.2194
dis	-11.2203
▁port	-11.2205
▁exception	-11.2208
▁perçues	-11.2213
▁précitée	-11.2227
▁utilisé	-11.2232
▁utilisés	-11.2234
▁finance	-11.2237
▁proportion	-11.2237
Uni	-11.2239
Barri	-11.2242
▁Baraké	-11.2242
▁Ricard	-11.2242
▁trafic	-11.2242
▁Aldi	-11.2245
▁Sa	-11.2254
▁marchés	-11.2259
▁continue	-11.2266
op	-11.2274
▁ferme	-11.228
▁conventionnel	-11.2288
▁HT	-11.2295
▁audition	-11.2311
UNEDIC	-11.2315
arbitrage	-11.2315
▁fabricant	-11.2315
▁carrière	-11.2316
▁emprunteurs	-11.2316
chiro	-11.2316
▁violant	-11.2322
▁catégories	-11.2322
▁clairement	-11.2325
▁Lamy	-11.2329
▁filiales	-11.2333
pa	-11.2337
1-3	-11.2338
▁centrale	-11.2342
▁Alt	-11.2348
▁considérés	-11.2361
▁aménagement	-11.2365
ner	-11.2365
ive	-11.2384
▁Dji	-11.2389
▁Hannotin	-11.2389
▁connexion	-11.2389
▁notice	-11.2389
▁presse	-11.2389
▁technologies	-11.2389
anxiété	-11.2389
▁délivrer	-11.2391
▁oralement	-11.2392
▁inversé	-11.2392
▁vacances	-11.2393
▁visa	-11.2398
j	-11.24
▁habitat	-11.2416
▁condamnés	-11.2417
▁mentionnée	-11.2425
▁56	-11.2429
▁Bouti	-11.2444
▁juste	-11.245
▁agricoles	-11.2452
accusé	-11.2453
▁entraînera	-11.246
extinction	-11.2463
▁SECOND	-11.2463
▁confirmation	-11.2463
▁tient	-11.2463
▁liant	-11.2464
▁répondu	-11.2464
▁régler	-11.2464
▁rattachent	-11.2466
▁taxes	-11.2468
infirmation	-11.2471
▁2)	-11.2472
▁chauffeur	-11.2472
▁chèque	-11.2473
dits	-11.2482
▁CC	-11.2492
▁détenue	-11.2493
▁éman	-11.2494
ins	-11.2497
oda	-11.2512
▁BV	-11.2523
hygiène	-11.2538
identification	-11.2538
▁Latreille	-11.2538
▁estimant	-11.2538
▁tort	-11.2543
▁Sommé	-11.2545
▁discussion	-11.2547
▁témoin	-11.2548
▁entaché	-11.2555
▁910	-11.2556
ebert	-11.2558
▁62	-11.2562
▁609	-11.2564
▁Fort	-11.2589
▁signifié	-11.2595
▁69	-11.2605
▁provoqué	-11.261
effectuer	-11.261
▁Ascen	-11.2613
▁blessures	-11.2613
▁comportait	-11.2613
▁destruction	-11.2613
▁perquisition	-11.2613
▁pénitentiaire	-11.2613
Guillou	-11.2616
▁établissant	-11.2619
▁adressés	-11.2619
▁2017-138	-11.2621
▁accusé	-11.2623
▁exerçait	-11.2625
▁organisme	-11.2641
lis	-11.2666
▁2019.	-11.2668
CP	-11.2668
▁faites	-11.2671
▁automobiles	-11.2674
▁invit	-11.2678
initiative	-11.268
ayants	-11.2682
▁héritiers	-11.2683
▁Ald	-11.2688
▁prétendu	-11.2688
▁Croiz	-11.2688
▁Laboratoire	-11.2688
▁Poupet	-11.2688
▁Quint	-11.2688
▁comprenant	-11.2688
▁sollicitait	-11.2688
éducation	-11.2688
▁Immo	-11.2689
▁GFA	-11.2689
▁apparaître	-11.2691
▁investissements	-11.2694
▁repose	-11.2695
▁ultérieurement	-11.2698
▁spécialisé	-11.2702
▁pur	-11.2712
kp	-11.2717
▁Ful	-11.2725
▁renouvelé	-11.2728
▁affectée	-11.2736
▁organisation	-11.2736
▁13°/	-11.2742
▁réclamées	-11.2742
up	-11.2745
▁appartement	-11.2754
▁constante	-11.2756
alerte	-11.2757
▁Brenntag	-11.2765
▁Occhipinti	-11.2765
▁notarié	-11.2765
▁rétractation	-11.2765
▁transmettre	-11.2765
▁diffusion	-11.2765
▁cessionnaire	-11.2765
▁associations	-11.2768
con	-11.277
▁levée	-11.2771
▁représenter	-11.2772
▁1995	-11.2775
▁travailler	-11.2776
▁lutte	-11.2779
▁Monte	-11.2787
▁employés	-11.2796
▁800	-11.2803
▁consécutives	-11.2804
▁constructions	-11.2806
▁14],	-11.2838
Vasseur	-11.2842
▁Bendel	-11.2842
▁Ghnassia	-11.2842
▁retiennent	-11.2842
▁rémunérées	-11.2844
▁invoquant	-11.2849
▁minimale	-11.286
▁travaillé	-11.2866
▁511	-11.2867
▁illégale	-11.2867
ecours	-11.2882
gi	-11.2908
vous	-11.2913
▁prolonge	-11.2916
▁114	-11.2916
▁Air	-11.2917
éférer	-11.2919
▁irrégulier	-11.2919
▁majorité	-11.2919
nvic	-11.2919
plume	-11.2919
▁mains	-11.292
▁Valér	-11.2921
▁SMA	-11.2921
oc	-11.2924
▁contraintes	-11.2926
▁formuler	-11.2927
▁1881	-11.2928
▁Kl	-11.293
▁aura	-11.2933
▁révélé	-11.2941
▁allouée	-11.2945
mo	-11.2954
▁garantis	-11.297
▁impose	-11.2972
ue	-11.2978
▁opéré	-11.2979
ni	-11.2979
▁2003,	-11.2988
indication	-11.2992
▁tarif	-11.2994
▁sollicite	-11.2994
▁armes	-11.2995
▁contraires	-11.2997
▁Jollec	-11.2997
▁Mornet	-11.2997
▁vieillesse	-11.2997
▁mieux	-11.2997
▁1009-2	-11.2998
▁désigner	-11.3004
2-3	-11.3006
4.1	-11.3011
▁renoncé	-11.3017
▁cachés	-11.3023
▁supporter	-11.303
▁Mar	-11.3048
installation	-11.3071
inaptitude	-11.3072
▁loué	-11.3072
▁ordonne	-11.3073
▁Bonnet	-11.3076
▁chemin	-11.3076
▁exempt	-11.3076
▁dépi	-11.3077
▁représentante	-11.3077
image	-11.3081
▁État	-11.3083
▁sentence	-11.309
héritier	-11.3091
▁informée	-11.3095
▁concours	-11.3096
bat	-11.3101
▁automobile	-11.3114
▁étendue	-11.3144
llivier	-11.3155
adaptation	-11.3155
▁Carrefour	-11.3155
▁comparaison	-11.3155
▁incompatible	-11.3155
▁méthode	-11.3155
▁plaignant	-11.3155
▁pays	-11.3156
iquot	-11.3156
▁totalement	-11.3158
LIE	-11.3158
▁Habitat	-11.3163
bilité	-11.3167
▁francs	-11.3168
▁majoration	-11.3171
▁ajouté	-11.3174
▁introduite	-11.3177
▁625	-11.3184
▁reprises	-11.3186
▁avantage	-11.3201
▁Ala	-11.3202
▁convoqué	-11.3218
▁solutions	-11.3233
▁relaxe	-11.3234
▁CONSTATE	-11.3235
▁Kacenelenbogen	-11.3235
▁Rapide	-11.3235
▁logistique	-11.3235
▁prévaut	-11.3235
▁réfère	-11.3235
▁soutenir	-11.3235
▁Schmi	-11.3236
▁contribué	-11.3236
▁méconnaîtr	-11.3241
▁prescriptions	-11.3245
▁GIE	-11.3248
▁met	-11.3251
AMF	-11.3253
▁entrée	-11.3262
IS	-11.3268
▁concernée	-11.327
lant	-11.3285
intermédiaire	-11.3313
urgence	-11.3313
institution	-11.3314
▁joint	-11.3314
exclusivité	-11.3316
▁Bank	-11.3316
▁contact	-11.3316
▁hiérarchique	-11.3316
▁Limoges	-11.3326
▁manuscrite	-11.3326
▁fourni	-11.3328
▁rémunéré	-11.3329
nsan	-11.3332
▁909	-11.3333
▁inclus	-11.3335
▁entendue	-11.3345
▁voies	-11.3348
▁vote	-11.3361
▁Lion	-11.3361
▁23.	-11.3365
actions	-11.3378
entente	-11.3395
indivision	-11.3395
concurrence	-11.3396
alinéa	-11.3396
▁destiné	-11.3396
▁suffisant	-11.3397
▁Casino	-11.3397
▁détachement	-11.3397
▁inapte	-11.3397
▁sujet	-11.3397
▁Robin	-11.3397
▁trop	-11.3398
▁AIG	-11.3399
▁commerciales	-11.34
appliquent	-11.3403
▁résultats	-11.3404
ISF	-11.3404
▁Valla	-11.3404
▁prenant	-11.3405
▁affectés	-11.3414
▁expiré	-11.3418
▁arbitrale	-11.3428
▁communiquées	-11.3437
▁AVOIR	-11.3448
▁échéances	-11.3449
ienne	-11.345
to	-11.3451
▁1792	-11.3462
▁906	-11.3463
▁spécifiques	-11.3464
ran	-11.3467
▁fixés	-11.3478
volta	-11.3479
▁Management	-11.3479
▁Maunand	-11.3479
▁TVA	-11.348
▁dépassement	-11.3482
▁PIP	-11.3488
▁réglementaire	-11.3497
▁précisait	-11.3499
▁entité	-11.3511
21-10	-11.3518
▁corps	-11.3519
son	-11.3522
▁versements	-11.3524
▁omis	-11.353
▁2312-	-11.3533
▁bénéficie	-11.3555
abstraction	-11.3562
▁Abgrall	-11.3562
▁Syndicat	-11.3562
Rhin	-11.3562
▁gel	-11.3563
▁substantielle	-11.3569
▁Var	-11.357
▁portent	-11.3572
▁Mathieu	-11.3576
▁plafond	-11.358
▁élevé	-11.3586
▁[6],	-11.3592
▁destinée	-11.3597
par	-11.3606
▁équivalent	-11.361
▁Aquitaine	-11.361
▁145-	-11.3611
if	-11.3615
▁fine	-11.3619
▁disposer	-11.3621
▁dispositifs	-11.3623
▁dés	-11.3623
▁emporte	-11.3625
▁loués	-11.363
▁assemblée	-11.3634
ob	-11.364
interpréter	-11.3645
▁discipline	-11.3645
▁préfet	-11.3645
▁suicide	-11.3645
▁sécuris	-11.3645
▁WBG	-11.3645
▁prévoir	-11.3645
▁participer	-11.3647
▁122	-11.3653
▁611	-11.3653
▁46	-11.3654
▁605	-11.3656
ba	-11.3659
▁structure	-11.3664
▁difficulté	-11.3665
VB	-11.3674
▁Services	-11.368
▁exercées	-11.3694
▁assureurs	-11.3701
avocats	-11.3703
▁prescrites	-11.3706
▁continu	-11.3707
▁involontaires	-11.3708
▁concernées	-11.3716
▁Versantis	-11.3729
▁Ancel	-11.3729
▁lecture	-11.3729
▁tourisme	-11.3729
▁EXP	-11.373
▁intéressés	-11.3733
▁incombait	-11.3733
▁excluant	-11.3739
▁concluent	-11.3747
▁fichier	-11.3749
▁53	-11.3749
▁cotisation	-11.375
▁excéder	-11.3752
▁600	-11.3765
▁immeubles	-11.3771
▁notaires	-11.3779
▁implique	-11.3782
architecte	-11.3814
homicide	-11.3814
▁Bacache	-11.3814
▁demeurant	-11.3814
▁détenir	-11.3814
▁fautive	-11.3815
▁déposer	-11.3815
▁bois	-11.3815
exposition	-11.3815
Saint	-11.3816
▁4].	-11.3817
attente	-11.3817
▁61	-11.3824
▁invoquées	-11.383
man	-11.3831
sse	-11.3834
▁intégralement	-11.3844
ix	-11.3863
▁2002,	-11.3866
▁21-12	-11.3868
▁intitulé	-11.3876
▁justifiées	-11.3887
CI	-11.3887
▁traité	-11.3894
▁procède	-11.3897
▁Bruyère	-11.39
▁TRLP	-11.39
▁Diop	-11.39
▁fédération	-11.39
▁précédant	-11.39
tique	-11.3905
è	-11.3908
CEE	-11.3909
▁scellés	-11.3909
ène	-11.3923
▁pénalité	-11.3924
▁libérale	-11.3926
▁indiquer	-11.3929
xposé	-11.3931
▁territoriale	-11.3933
analyser	-11.394
ui	-11.3947
▁objectif	-11.3952
▁long	-11.3959
▁CPAM	-11.3977
orientation	-11.3985
▁Languedoc	-11.3986
▁Technip	-11.3986
▁prétexte	-11.3986
▁survenance	-11.3986
▁ignorer	-11.3986
▁nombreuse	-11.3987
▁cessé	-11.3987
agissait	-11.3988
▁consignation	-11.3988
▁consulter	-11.399
▁1965	-11.3996
▁daté	-11.4005
▁involontaire	-11.4008
▁critère	-11.4008
▁délégués	-11.4008
▁conserver	-11.4017
oul	-11.4023
▁interprété	-11.4026
▁907	-11.4031
▁accordée	-11.4034
ed	-11.4035
tiennent	-11.404
▁garantiss	-11.4041
mêmes	-11.4059
▁Galle	-11.4062
5.1	-11.4063
are	-11.4067
▁7),	-11.407
▁défaillance	-11.4073
▁surface	-11.4073
▁carence	-11.4073
▁620,	-11.4075
▁classification	-11.4076
invalidité	-11.4076
autrui	-11.4076
adresse	-11.4078
▁Pierre	-11.4082
sol	-11.4089
▁valeurs	-11.4091
RL	-11.4092
▁caractéristique	-11.4094
▁constitutif	-11.4096
SE	-11.4097
▁téléphoniques	-11.4109
▁jugements	-11.411
▁déclarés	-11.4114
▁attachée	-11.4121
érard	-11.4122
▁candidats	-11.413
▁calculée	-11.4131
▁Dou	-11.4132
▁produite	-11.4143
▁aucunement	-11.4143
▁dépend	-11.4148
/20	-11.4154
▁Samuel	-11.416
▁constitutive	-11.416
▁soutenant	-11.416
indivisibilité	-11.4161
▁Sylva	-11.4162
voix	-11.4163
CJUE	-11.4165
▁strictement	-11.4165
▁905	-11.4174
af	-11.4183
▁excessive	-11.4184
▁fournies	-11.4186
▁Ville	-11.419
▁8)	-11.4201
▁signifiée	-11.4203
▁opposée	-11.4216
schel	-11.4227
▁nouvel	-11.4238
130	-11.4243
ynard	-11.4249
▁CONSEQUENCE	-11.4249
▁craindre	-11.4249
▁prévenir	-11.4249
▁Poste	-11.4249
▁Wurt	-11.4249
ist	-11.4252
valant	-11.4259
▁145	-11.426
th	-11.4266
entend	-11.4269
▁probante	-11.427
▁2018.	-11.4273
oi	-11.4274
ouet	-11.4276
▁Auvergne	-11.428
▁81	-11.4285
▁moyenne	-11.4294
▁exposants	-11.4294
▁inviter	-11.4294
▁salariales	-11.4308
OS	-11.4309
▁indemniser	-11.432
▁entend	-11.4323
TI	-11.4324
ACTE	-11.4331
▁caractérise	-11.4332
▁je	-11.4337
▁vendre	-11.4337
▁Cardini	-11.4338
▁détriment	-11.4338
EARL	-11.4339
▁144	-11.4341
environnement	-11.4344
▁brute	-11.435
▁cesser	-11.4354
plain	-11.4355
▁internet	-11.4357
▁subordonnée	-11.4363
▁marchandise	-11.4364
da	-11.4372
mat	-11.4372
▁futurs	-11.4375
▁courriers	-11.4378
▁payées	-11.4378
lle	-11.4381
ai	-11.4391
▁études	-11.4391
▁heure	-11.4399
implique	-11.4402
▁engagées	-11.4424
cc	-11.4425
iss	-11.4425
plaçant	-11.4426
▁générateur	-11.4428
rivin	-11.443
Simon	-11.4435
acceptation	-11.4435
:	-11.4436
énergie	-11.4436
sdites	-11.4438
▁64	-11.4441
▁gr	-11.4444
Agent	-11.4448
▁ancienneté	-11.4452
▁ventes	-11.4453
▁accessoires	-11.4479
1-6	-11.4489
▁Art	-11.4492
▁610	-11.4503
▁concrète	-11.4507
héritiers	-11.451
▁gouvernement	-11.4519
inspection	-11.4519
▁automatique	-11.4519
▁magasin	-11.4519
▁incluant	-11.4519
▁Enedis	-11.4519
▁Logistics	-11.4519
▁directrice	-11.4519
Gibe	-11.452
▁venue	-11.452
▁reconnaître	-11.452
▁Cora	-11.452
RIN	-11.4522
ras	-11.4525
▁licenciements	-11.4545
▁pathologie	-11.4546
▁stipulation	-11.4546
▁dégradation	-11.4546
▁grand	-11.4566
Ra	-11.4568
▁agi	-11.4572
▁davantage	-11.458
▁opposer	-11.4581
▁Du	-11.4585
▁Wa	-11.4589
▁93	-11.4591
▁RM	-11.4593
▁témoins	-11.4598
▁Pyrénées	-11.46
▁précises	-11.4606
▁office	-11.4608
▁Trans	-11.4611
▁volume	-11.4611
▁confirmatif	-11.4611
pi	-11.4613
▁régissant	-11.4613
accusation	-11.4619
autoriser	-11.4619
▁toiture	-11.462
ana	-11.4624
▁industriels	-11.4627
▁reproch	-11.4631
▁59	-11.4635
▁bilan	-11.4638
▁2013.	-11.4639
▁injustifiée	-11.4647
▁supérieurs	-11.4656
ab	-11.4663
ho	-11.4664
nien	-11.4667
▁existait	-11.467
euse	-11.4674
▁84	-11.4676
▁rappeler	-11.4677
▁immatriculé	-11.468
▁datée	-11.4684
oir	-11.4685
émission	-11.4686
▁formalités	-11.4702
▁23-82.	-11.4704
▁Pireyre	-11.4704
▁Toutefois	-11.4704
▁résolutoire	-11.4704
▁Poinseau	-11.4704
▁Viaud	-11.4705
▁apporté	-11.4705
▁donneur	-11.4705
identifier	-11.4706
▁longue	-11.4706
▁renoncer	-11.4707
▁rempliss	-11.4711
▁Partners	-11.4713
▁formes	-11.4716
▁Bouv	-11.4718
▁rendait	-11.4719
▁Bed	-11.4723
▁instances	-11.4735
▁dispense	-11.4765
hier	-11.4765
▁502	-11.4765
▁903	-11.4766
▁légalité	-11.4773
▁68	-11.4781
▁contribuables	-11.4784
sur	-11.4788
accueil	-11.4796
SENT	-11.4797
▁Cabarrus	-11.4797
▁Grandemange	-11.4797
▁Soutenant	-11.4797
▁déduisent	-11.4797
▁maximum	-11.4797
▁suivent	-11.4797
▁vidéo	-11.4797
▁1152-1	-11.4797
▁TTC	-11.4797
▁bénéficiait	-11.48
▁consulté	-11.4807
incident	-11.4808
▁8]	-11.4811
ub	-11.4818
▁délibérations	-11.4819
▁transféré	-11.4819
▁99	-11.482
▁787	-11.4824
▁apport	-11.4836
▁réclamée	-11.4838
▁tour	-11.4852
▁904	-11.4859
▁Duc	-11.4865
▁protégé	-11.4874
▁sexuelles	-11.4887
xami	-11.4887
▁Marc	-11.489
▁déterminées	-11.489
ontestant	-11.489
▁participé	-11.4891
▁approuvé	-11.4892
▁Hill	-11.4896
Pyrénées	-11.4903
▁exposé	-11.4903
▁critiqué	-11.4904
▁interprétariat	-11.4905
▁énergie	-11.4914
▁pacte	-11.4914
▁évaluation	-11.4915
rdé	-11.492
▁Pays	-11.4926
▁impliqué	-11.4931
▁impliqu	-11.4931
▁limitation	-11.4934
▁requalifié	-11.4943
▁précédente	-11.4944
organiser	-11.4961
▁veille	-11.4966
▁industrie	-11.4967
▁conven	-11.497
▁officiel	-11.4981
▁bordereau	-11.4986
▁Eiffage	-11.4987
▁diffamation	-11.4987
▁mélangé	-11.4987
▁dévolutif	-11.4987
▁rachat	-11.4987
▁fonde	-11.499
▁propag	-11.4991
exerce	-11.4994
ailleurs	-11.4998
▁alloué	-11.4999
mp	-11.5001
▁Re	-11.5001
▁Avocats	-11.5009
▁Hauts	-11.5009
ables	-11.501
▁explications	-11.501
▁terres	-11.5012
devenu	-11.5013
▁emplois	-11.5016
ib	-11.5019
▁66	-11.502
▁009	-11.5025
▁15],	-11.5042
▁audit	-11.505
▁82	-11.5059
▁interrompu	-11.5063
échéance	-11.5068
▁organisations	-11.5074
▁souscrite	-11.5076
▁SNC	-11.5077
▁Lefeuvre	-11.5083
▁contestable	-11.5083
▁suivre	-11.5083
▁1235-3	-11.5083
CRCAM	-11.5083
▁Grive	-11.5083
▁Ltd	-11.5083
▁dol	-11.5085
▁005	-11.5085
▁engagés	-11.5085
▁sauraient	-11.5091
KAR	-11.5092
▁photographies	-11.5093
▁représentatives	-11.5102
▁51	-11.5109
▁claire	-11.511
▁trimestre	-11.5115
▁menace	-11.5115
▁afférente	-11.5124
▁souscrits	-11.5129
▁définie	-11.513
▁386	-11.5136
▁67	-11.5145
▁77	-11.5146
▁Alsace	-11.5147
▁appelée	-11.5151
RG	-11.5154
▁Maison	-11.5156
ond	-11.5166
▁établies	-11.5173
▁22-12.2	-11.518
▁Piazza	-11.518
▁revendication	-11.518
▁teneur	-11.518
▁satisfaire	-11.518
▁conception	-11.518
▁71	-11.518
▁opérateurs	-11.518
▁Inter	-11.518
▁Bureau	-11.5181
▁Gilli	-11.5181
▁04	-11.5183
appartement	-11.5194
▁contestées	-11.52
ez	-11.5207
▁subséquentes	-11.5223
▁annuels	-11.5227
▁calculé	-11.5231
▁incompétent	-11.5232
▁indépendant	-11.5234
▁assignation	-11.5235
▁éventuelle	-11.5245
▁aggravée	-11.5247
▁90	-11.5247
▁litiges	-11.5251
▁54	-11.5255
▁validé	-11.5265
▁réparations	-11.5266
▁unilatérale	-11.5272
▁rapports	-11.5275
▁Agostini	-11.5278
▁répétition	-11.5278
net	-11.5278
▁défendre	-11.5278
▁Chir	-11.5279
▁008	-11.5279
▁puni	-11.5279
▁candidat	-11.5279
▁007	-11.528
▁prescrits	-11.5285
▁intoxication	-11.5287
▁valider	-11.5288
▁détenus	-11.5292
Marie	-11.5293
▁réglé	-11.5293
▁Auto	-11.5295
▁ultérieure	-11.5305
go	-11.5307
▁salariale	-11.5317
eurs	-11.5326
▁comprend	-11.5332
▁liquidateurs	-11.5332
▁retenues	-11.5338
lin	-11.5339
oy	-11.534
▁604	-11.5342
▁menaces	-11.5344
▁appréciée	-11.5346
▁commence	-11.5347
donnant	-11.5352
▁située	-11.5355
▁composé	-11.5362
▁désignés	-11.5366
▁enfant	-11.5366
▁coupables	-11.5369
isse	-11.5376
▁précaire	-11.5377
Dora	-11.5377
▁recourir	-11.5377
▁exigée	-11.5381
impartialité	-11.5382
▁intervenus	-11.5383
▁Vala	-11.5392
Morel	-11.5392
▁4°)	-11.5393
exigence	-11.5393
▁4°	-11.5395
évaluer	-11.5397
▁10)	-11.5398
iers	-11.5399
▁AFD	-11.5399
▁agence	-11.542
▁suspendu	-11.5421
▁706-	-11.5422
▁obtenus	-11.5436
min	-11.5441
venu	-11.5448
AM	-11.545
▁chèques	-11.5464
▁disproportion	-11.5469
▁montants	-11.5475
▁reconnaiss	-11.5477
▁Lagauche	-11.5477
▁défectueux	-11.5477
▁hypothécaire	-11.5477
▁secret	-11.5477
▁pesant	-11.5477
▁Congo	-11.5477
▁comparaître	-11.5478
▁fournit	-11.548
▁cité	-11.5481
ages	-11.5482
immatriculation	-11.5494
audition	-11.5494
▁courriels	-11.5495
▁laisser	-11.5505
tirer	-11.5526
▁sérieusement	-11.5533
▁ma	-11.5536
ju	-11.5545
▁010	-11.5546
▁883	-11.555
▁organisé	-11.555
▁dis	-11.5553
▁situés	-11.5554
▁incapacité	-11.5555
▁subordonné	-11.5558
▁soi	-11.5566
▁conventionnels	-11.5566
ois	-11.5566
▁tardive	-11.5568
▁g	-11.5571
▁averti	-11.5571
▁250	-11.5577
▁Corlay	-11.5578
▁indûment	-11.5578
▁réduire	-11.5578
Brico	-11.5578
▁MAAF	-11.5578
▁citation	-11.5578
7-1	-11.5584
▁imposant	-11.5594
▁AJ	-11.5594
▁1997	-11.5595
embauche	-11.5596
encourt	-11.5596
ef	-11.5598
▁comprise	-11.5606
▁responsables	-11.5623
▁participations	-11.5625
leur	-11.5626
▁législatives	-11.5629
▁stipulée	-11.563
ga	-11.5639
▁dressé	-11.5642
gu	-11.5643
Soc	-11.565
▁accomplis	-11.5654
uy	-11.5656
▁assemblées	-11.5661
▁maintenu	-11.5661
▁antérieurs	-11.5671
particulièrement	-11.5677
▁confusion	-11.568
▁maintenir	-11.568
▁protecteur	-11.568
▁Mallet	-11.568
▁seuil	-11.5681
Oise	-11.5682
▁411-3	-11.5684
▁rapporte	-11.5695
autonomie	-11.5698
▁conflit	-11.5718
▁venir	-11.5724
▁informatique	-11.5732
▁01	-11.5735
avocate	-11.5742
otre	-11.5755
▁confiée	-11.5755
asne	-11.5781
▁Davoi	-11.5783
asile	-11.5784
▁006	-11.5786
▁facturation	-11.5789
éloignement	-11.5803
adoption	-11.5803
professionnelle	-11.5805
val	-11.5806
▁échéance	-11.5808
▁imputables	-11.5809
AMR	-11.5813
ck	-11.5821
▁régie	-11.5823
▁fondait	-11.5843
étude	-11.5843
▁Atlantique	-11.5852
▁revêt	-11.5856
▁Bél	-11.5863
▁gratuit	-11.587
▁observation	-11.5878
▁LI	-11.5879
▁marques	-11.5884
no	-11.5886
occurrence	-11.5887
▁Nanterre	-11.5887
▁troubles	-11.5887
▁Assurances	-11.5887
▁démontrant	-11.5888
▁004	-11.5888
▁figurait	-11.5889
▁occupait	-11.5891
▁El	-11.5905
accessoire	-11.5908
mer	-11.5919
PS	-11.5926
▁appelants	-11.5931
▁Cherm	-11.5936
▁réputé	-11.5942
▁Ap	-11.5947
▁contracté	-11.5947
ret	-11.5953
▁post	-11.5958
CH	-11.5965
▁locataires	-11.5967
mément	-11.5973
▁consentie	-11.5979
▁rapide	-11.598
valorisation	-11.5993
▁Prieur	-11.5993
▁monsieur	-11.5993
▁mécanisme	-11.5993
▁restauration	-11.5993
▁évoqué	-11.5993
▁Viole	-11.5993
▁vérité	-11.5993
▁prévalait	-11.5993
▁05	-11.5994
▁distinctes	-11.6003
▁quitter	-11.6004
▁480	-11.6007
2-7	-11.601
▁79	-11.601
▁attest	-11.6012
▁ingénierie	-11.6013
horaire	-11.6015
Ouest	-11.6015
Bordeaux	-11.6015
▁liquide	-11.6016
indemniser	-11.6018
ative	-11.6019
▁Chaf	-11.6022
▁ancienne	-11.603
▁négociation	-11.6034
▁déc	-11.6039
▁accomplir	-11.604
▁vocation	-11.6044
non	-11.6048
▁Rat	-11.605
▁cessions	-11.6053
▁462	-11.6055
▁équivalente	-11.6059
9),	-11.6063
▁assorti	-11.6063
▁exceptionnel	-11.607
▁défini	-11.6078
▁allouées	-11.6083
▁actifs	-11.6084
uat	-11.6092
▁74	-11.6092
▁avisé	-11.6094
ostain	-11.6099
▁derechef	-11.6099
▁Sarl	-11.6099
▁4121-1	-11.6099
▁ayants	-11.6101
▁distinction	-11.6101
▁trancher	-11.6101
▁libéré	-11.6112
ures	-11.6113
Douai	-11.6123
▁inscrit	-11.613
▁expliquer	-11.6137
mont	-11.6139
isé	-11.6153
▁informer	-11.6157
▁expérience	-11.6158
▁perdu	-11.6162
▁présumé	-11.6177
▁indépendante	-11.6188
▁(6	-11.6189
ouv	-11.6192
élection	-11.6194
engage	-11.6195
hner	-11.6197
▁72	-11.62
▁Beauvois	-11.6206
▁desquels	-11.6206
▁excessif	-11.6206
▁million	-11.6206
▁stipulait	-11.6206
▁alinéas	-11.6206
▁Goldman	-11.6206
▁clos	-11.6206
▁Turc	-11.6206
▁Lévis	-11.6206
▁imminent	-11.6206
▁docteur	-11.6206
▁formalisme	-11.6207
▁lourde	-11.6207
guette	-11.6207
▁joueur	-11.6209
▁formulées	-11.6217
▁effectifs	-11.6221
Comté	-11.6224
option	-11.623
UES	-11.6231
section	-11.6231
▁indirect	-11.6232
▁intentionnelle	-11.6232
▁Moselle	-11.6234
IT	-11.6239
▁accorder	-11.6241
0.000	-11.6248
ure	-11.625
▁découvert	-11.625
▁argumentation	-11.6258
▁normes	-11.6264
▁change	-11.6269
RP	-11.6277
▁affirmation	-11.6279
▁16],	-11.6279
▁85	-11.628
▁mineure	-11.6295
▁appliqué	-11.6302
▁vot	-11.6308
▁résultent	-11.6312
▁1021	-11.6314
▁faible	-11.6315
▁Foncière	-11.6315
▁succursale	-11.6315
▁TRF	-11.6315
amant	-11.6329
trat	-11.6335
oppose	-11.6336
▁amendes	-11.6339
Royaume	-11.634
▁officier	-11.6344
▁115	-11.6352
▁postérieurs	-11.6356
▁interrogatoire	-11.636
▁douanière	-11.636
▁technicien	-11.6364
▁maximale	-11.6366
▁ouvre	-11.6371
▁901	-11.6373
ais	-11.6378
unique	-11.6379
▁créée	-11.6381
▁restaurant	-11.6385
ide	-11.6385
▁décide	-11.6408
▁méconnaît	-11.6418
acquitter	-11.6425
▁Risks	-11.6425
▁caractérisai	-11.6425
▁fabrication	-11.6425
▁interruptif	-11.6425
▁stationnement	-11.6425
▁Kass	-11.6431
▁réclamer	-11.6435
▁parfaitement	-11.6436
▁syndicales	-11.6443
▁1977	-11.6443
Philipp	-11.6452
pièce	-11.6452
affectation	-11.6453
▁maîtres	-11.6455
▁sus	-11.6466
Maritimes	-11.6472
▁excès	-11.6474
▁augmentation	-11.6483
▁concern	-11.6495
▁familial	-11.6518
ach	-11.6536
Ménard	-11.6536
▁défiscalisation	-11.6536
▁instructeur	-11.6536
▁navire	-11.6536
▁réquisitoire	-11.6536
▁résilié	-11.6536
▁souscripteur	-11.6536
Seiller	-11.6536
▁Covid	-11.6536
▁métallurgie	-11.6536
▁huitième	-11.6537
▁21-21.1	-11.6539
▁Confor	-11.6541
ubert	-11.6541
six	-11.6542
▁Bretagne	-11.6542
.000	-11.6546
timents	-11.6546
alis	-11.6551
▁24.	-11.6551
anno	-11.6558
▁créer	-11.6559
▁interrompue	-11.656
inventaire	-11.6564
RH	-11.6589
MJ	-11.659
▁considérations	-11.6591
ence	-11.6591
▁statutaires	-11.6593
▁actionnaires	-11.6596
▁mé	-11.6599
▁subies	-11.6607
▁entier	-11.6612
▁rédigé	-11.6615
pl	-11.6615
▁132-1	-11.6618
▁011	-11.6638
▁02	-11.6639
▁mandats	-11.6643
▁notifiées	-11.6644
TW	-11.6644
▁78	-11.6648
▁contient	-11.6648
▁lyonnais	-11.6648
▁stipule	-11.6648
▁vitesse	-11.6648
▁réforme	-11.6649
▁fiable	-11.665
▁Cove	-11.665
▁Marseille	-11.6653
▁réorganisation	-11.6655
▁Kerne	-11.6657
▁soulign	-11.6658
▁substituer	-11.6661
▁ajoutant	-11.6674
▁salle	-11.6675
Rennes	-11.6678
▁exigence	-11.6679
▁inopérantes	-11.6679
▁diligentée	-11.6688
▁librement	-11.6691
▁463	-11.6694
▁décrit	-11.6702
41-2	-11.6705
▁513	-11.6707
▁Agence	-11.6721
nora	-11.6732
▁attribué	-11.6733
▁attaqués	-11.6753
▁9)	-11.6758
▁Blanc	-11.6762
Allemagne	-11.6762
▁Invoquant	-11.6762
▁Pierson	-11.6762
▁consiste	-11.6762
▁22-10.1	-11.6762
Menay	-11.6762
▁Chaumont	-11.6762
aillard	-11.6762
▁131-21	-11.6763
▁Match	-11.6763
▁Tel	-11.6766
▁Nouméa	-11.6769
atrice	-11.6773
▁transporteur	-11.6779
▁1992	-11.678
▁07	-11.6782
▁garant	-11.6783
▁reçue	-11.6797
▁564	-11.6798
▁562	-11.6803
▁One	-11.6815
apporter	-11.682
▁confirme	-11.6821
Com	-11.6823
IRE	-11.6827
▁remplie	-11.6827
▁eau	-11.6829
land	-11.6837
CC	-11.6839
nd	-11.6842
▁dégradations	-11.6843
▁réparée	-11.6857
vente	-11.6858
▁exceptions	-11.6867
▁Bas	-11.6873
▁Ghestin	-11.6877
▁maintenance	-11.6877
▁licence	-11.6877
▁prévalant	-11.6877
▁collaboration	-11.6877
MEN	-11.6879
▁déduisai	-11.6879
▁moteur	-11.688
▁notifier	-11.6882
▁1009	-11.6888
▁94	-11.6895
▁rappelés	-11.6896
▁1987	-11.6897
▁nécessite	-11.6899
▁accessoire	-11.6904
▁salariées	-11.6906
▁Mont	-11.6908
ambigu	-11.6909
▁différent	-11.691
▁attributions	-11.6911
MC	-11.6916
▁06	-11.6923
▁manoeuvres	-11.6926
▁Cha	-11.6935
▁cassée	-11.6947
euros	-11.6949
omb	-11.6953
DF	-11.6957
▁perçue	-11.6958
abat	-11.6958
honoraire	-11.6962
▁compétentes	-11.6963
PL	-11.6976
▁découle	-11.6991
adjudication	-11.6993
▁défavorable	-11.6993
▁dérogation	-11.6993
▁suspicion	-11.6993
▁Corre	-11.6993
▁Doumic	-11.6993
▁souffrances	-11.7004
▁BTP	-11.7006
▁parentale	-11.7007
▁titulaires	-11.7009
▁employeurs	-11.701
▁adhérents	-11.702
Grenoble	-11.7027
▁indivis	-11.7028
▁cotisante	-11.7032
▁spécifiquement	-11.7035
IP	-11.7047
▁St	-11.7058
▁58	-11.7084
▁contredite	-11.7093
RIE	-11.7093
▁fer	-11.7097
▁tacite	-11.7098
▁fondés	-11.7099
▁Mo	-11.7102
▁Di	-11.7104
▁confirmée	-11.7107
▁Person	-11.7111
▁budget	-11.7111
▁côté	-11.7111
▁géographique	-11.7111
▁irrépétibles	-11.7111
▁Jardin	-11.7111
▁Commission	-11.7111
Calais	-11.7112
▁sortie	-11.7112
▁21-25.6	-11.7113
▁oblige	-11.7114
▁baisse	-11.7114
DE	-11.7119
▁1993	-11.7128
▁justifient	-11.7129
▁échus	-11.7129
▁1975	-11.7131
▁convoquée	-11.7143
na	-11.7144
▁tr	-11.7146
Etablissement	-11.7146
tribunal	-11.7148
▁qualifié	-11.7148
autant	-11.7149
▁électrique	-11.7165
▁susvisée	-11.7165
▁violence	-11.7166
▁extra	-11.7167
IC	-11.717
▁insuffisante	-11.7183
▁alimentaire	-11.7187
▁exercices	-11.7187
▁plateau	-11.7188
éc	-11.7215
vent	-11.7222
▁déplacements	-11.7223
ON	-11.7228
▁contestations	-11.7228
▁exposition	-11.7228
▁gros	-11.723
humanité	-11.723
▁Cayenne	-11.723
▁Picardie	-11.723
▁Securitas	-11.723
▁déduisant	-11.723
▁Fabric	-11.7231
▁vaut	-11.7231
▁Guil	-11.7231
▁siége	-11.7233
▁classement	-11.7237
▁Solutions	-11.7239
▁CHSCT	-11.7246
▁secondaire	-11.7247
▁1984	-11.7248
▁Savi	-11.7249
ip	-11.7256
▁auteurs	-11.7264
▁individuelles	-11.7269
oise	-11.7271
▁installations	-11.7274
▁assistance	-11.7276
od	-11.7285
▁prévisible	-11.7285
▁renseignement	-11.7286
do	-11.7291
▁pratiquée	-11.7297
▁rendues	-11.7316
▁requise	-11.732
ations	-11.732
forme	-11.7325
BC	-11.7328
PF	-11.7331
▁exigibles	-11.7341
▁autrui	-11.7346
▁Design	-11.7351
▁Frères	-11.7351
▁animatrice	-11.7351
▁dénaturation	-11.7351
▁disposant	-11.7351
▁allégations	-11.7351
▁sanctionner	-11.7352
▁parce	-11.7353
▁figurent	-11.7354
▁nous	-11.7355
▁active	-11.7356
▁[6]	-11.7364
▁écartée	-11.7369
▁collectifs	-11.7374
▁associée	-11.7379
▁apprécié	-11.7388
▁substitué	-11.7391
apparaît	-11.7393
▁Pec	-11.7399
▁03	-11.7399
▁démarches	-11.7399
▁durées	-11.7403
▁norme	-11.7408
▁exécuter	-11.7413
DS	-11.742
▁journée	-11.7427
▁Cap	-11.7429
▁MJA	-11.743
▁causés	-11.7432
▁liquid	-11.744
Or	-11.7443
▁17],	-11.7443
▁tenues	-11.7455
▁transmises	-11.7466
pro	-11.7466
▁terrasse	-11.7471
Belgique	-11.7472
▁Irrecevabilité	-11.7472
▁bornage	-11.7472
▁indivisible	-11.7472
▁rénovation	-11.7472
▁éligible	-11.7472
▁substitution	-11.7472
▁prudence	-11.7474
▁Régi	-11.748
▁sommairement	-11.7481
▁conservé	-11.7484
▁Duma	-11.7486
inopposabilité	-11.7489
▁1988	-11.7493
Unis	-11.7496
▁certificats	-11.7504
▁réparé	-11.7509
ble	-11.7511
importation	-11.7511
1.1	-11.7512
▁occupant	-11.7514
▁projets	-11.7514
▁An	-11.752
▁attribuée	-11.752
▁parvenir	-11.7524
▁rempli	-11.7524
DP	-11.7527
▁Sci	-11.7531
des	-11.7533
ture	-11.7534
engager	-11.7537
▁présentent	-11.7546
▁résidences	-11.7547
▁handicap	-11.7553
▁613	-11.7565
▁exécutée	-11.7566
▁indemnisée	-11.757
▁collectives	-11.7584
ront	-11.7586
▁individuel	-11.7586
and	-11.7588
amy	-11.7591
pp	-11.7593
▁quarante	-11.7596
▁DEUXIEME	-11.7596
▁Helvetia	-11.7596
▁Natyce	-11.7596
▁filiation	-11.7596
▁significatif	-11.7596
▁surcoût	-11.7596
▁Caston	-11.7596
▁devront	-11.7596
▁Résidence	-11.7596
▁fraction	-11.7596
▁feuille	-11.7596
▁Guin	-11.7597
▁privation	-11.7597
▁perçus	-11.7599
▁Sous	-11.76
▁suffisantes	-11.7601
lloch	-11.7602
▁inhérent	-11.7603
▁essentiellement	-11.7604
queur	-11.7605
▁aide	-11.761
▁Con	-11.7612
▁Atelier	-11.7615
Marne	-11.7637
▁adopté	-11.7638
▁correctionnels	-11.7639
▁insuffisants	-11.7641
CLA	-11.7644
▁restrictions	-11.7644
▁consécutive	-11.7656
▁1351	-11.7657
▁hebdomadaires	-11.7662
▁pourvue	-11.7663
▁auto	-11.7665
▁proposer	-11.7666
▁réclame	-11.7672
▁sis	-11.7673
▁licenciée	-11.7675
21-1	-11.7679
▁étendu	-11.7681
▁21-8	-11.7682
▁événement	-11.7687
▁survenue	-11.7687
▁unité	-11.7693
intimé	-11.7697
▁parti	-11.7703
ém	-11.7706
▁juridictionnel	-11.771
▁pourvu	-11.7714
▁18],	-11.772
▁CIPM	-11.7721
▁Journal	-11.7721
▁cinquante	-11.7721
▁population	-11.7721
▁superficie	-11.7721
▁dessaisissement	-11.7721
▁plateforme	-11.7721
▁rabat	-11.7721
▁BPCE	-11.7721
▁JUR	-11.7721
▁suisse	-11.7721
environ	-11.7721
▁diminution	-11.7721
▁infirm	-11.7721
▁circulaire	-11.7721
▁collège	-11.7721
US	-11.7722
teau	-11.7723
▁notes	-11.7725
▁renvoyée	-11.7725
irport	-11.7733
▁1994	-11.7743
▁espèces	-11.7746
▁cent	-11.7751
▁Eco	-11.7762
indépendance	-11.7762
Atlantique	-11.7763
Alsace	-11.7763
Lyon	-11.7764
▁su	-11.7768
▁omise	-11.7769
SO	-11.7771
▁empêcher	-11.7771
▁Union	-11.7774
▁requalifi	-11.7779
▁démontrée	-11.778
▁fautif	-11.7782
selet	-11.7785
▁accéder	-11.7787
▁Qu	-11.7788
TP	-11.779
be	-11.7795
000	-11.78
réf	-11.7802
▁affirmé	-11.7816
▁forte	-11.7816
▁180	-11.7821
part	-11.7836
▁environnement	-11.7839
▁bons	-11.7839
unité	-11.7842
▁inform	-11.7844
Italie	-11.7847
assassinat	-11.7847
▁cocontractant	-11.7847
▁contentieuse	-11.7847
▁couvrant	-11.7847
▁mandant	-11.7847
▁préemption	-11.7847
▁tenté	-11.7848
▁Sovi	-11.7848
▁préparation	-11.7849
▁préserver	-11.785
atoire	-11.7851
▁bénéficient	-11.7852
▁Fondation	-11.7853
▁indirectement	-11.786
▁savait	-11.7861
▁contractuels	-11.7865
▁vérifications	-11.7865
cadre	-11.7865
partage	-11.7885
acheteur	-11.7891
adhésion	-11.7891
opposer	-11.7895
▁Corse	-11.7899
▁542	-11.791
▁législative	-11.7911
▁statutaire	-11.7912
▁indirecte	-11.7916
/22	-11.7921
▁équipements	-11.7939
▁imposée	-11.794
▁reprochée	-11.7944
caractéristiques	-11.7945
▁huissier	-11.7948
▁destinées	-11.7951
sible	-11.7954
▁faut	-11.7957
CD	-11.7958
▁prépar	-11.796
▁agression	-11.796
▁Paul	-11.7963
▁adressées	-11.7964
▁exploité	-11.7971
▁invalidité	-11.7971
cal	-11.7972
parition	-11.7976
Calédonie	-11.7976
▁Bertrand	-11.7976
▁Bolloré	-11.7976
▁TROISIEME	-11.7976
▁limitant	-11.7976
▁ruraux	-11.7976
▁secrétaire	-11.7976
▁discriminatoire	-11.7976
▁21-23.7	-11.7976
▁commettre	-11.7976
▁libération	-11.7976
▁mutualité	-11.7976
▁HG	-11.798
▁candidature	-11.798
Plati	-11.7982
▁empêch	-11.7993
▁viols	-11.7995
▁invoquait	-11.7998
▁71-1	-11.8001
air	-11.801
▁frères	-11.8011
▁placés	-11.8012
▁échanges	-11.8012
▁compensateurs	-11.8022
où	-11.8022
▁réclamé	-11.8023
▁présentés	-11.8023
▁collectivités	-11.8023
▁ouvrages	-11.8032
indices	-11.8034
▁10]	-11.8035
▁légitimement	-11.8037
▁modèle	-11.804
▁découverte	-11.8053
▁on	-11.8075
▁affaire	-11.8085
▁Sas	-11.8085
▁18°/	-11.809
▁RENVO	-11.8096
▁proportionné	-11.8101
▁parfaite	-11.8103
▁Lease	-11.8106
▁compréhension	-11.8106
▁matériaux	-11.8106
▁problème	-11.8106
▁successifs	-11.8106
▁séparation	-11.8106
▁tuteur	-11.8106
▁téléphone	-11.8106
▁véritable	-11.8106
▁indemnisable	-11.8106
▁barème	-11.8106
▁Maigr	-11.8106
▁postale	-11.8106
▁généraux	-11.8106
▁localisation	-11.8106
▁1234-1	-11.8108
▁341-4	-11.8111
entier	-11.8113
▁3171-2	-11.8118
▁dénoncé	-11.8122
▁collègues	-11.8126
▁travaille	-11.8127
▁Tout	-11.8136
▁instructions	-11.8138
▁man	-11.8152
inscrire	-11.8153
hôtel	-11.8153
exonération	-11.8153
Gilbert	-11.8153
Agence	-11.8154
existait	-11.8155
line	-11.8172
▁journalier	-11.8172
▁disponible	-11.8172
▁routier	-11.8172
▁sanctionné	-11.8175
▁rédigés	-11.8181
▁provenan	-11.8192
▁trouvé	-11.8198
ZU	-11.8203
imp	-11.8205
enquêtes	-11.8209
▁124	-11.821
▁19],	-11.8215
out	-11.8215
▁indices	-11.8222
▁exposant	-11.8227
▁attaché	-11.8232
▁occupés	-11.8235
▁2003/88	-11.8237
assainissement	-11.8237
▁22-15.5	-11.8237
▁Alpha	-11.8237
▁Construction	-11.8237
▁Daubigney	-11.8237
▁OReins	-11.8237
▁Wallis	-11.8237
▁attributive	-11.8237
▁frauduleux	-11.8237
▁lendemain	-11.8237
▁publicitaire	-11.8237
▁soixante	-11.8237
▁dénomination	-11.8237
▁entrant	-11.8237
accompagnement	-11.8237
▁11)	-11.8238
▁PV	-11.8239
▁jeu	-11.8239
▁erronée	-11.8241
▁actuelle	-11.8241
▁finalement	-11.8243
▁Auchan	-11.8244
▁préfectoral	-11.8245
▁Franche	-11.8246
▁461-1	-11.8259
use	-11.8272
▁volontaires	-11.8278
Office	-11.8286
injonction	-11.8286
▁étrangères	-11.8303
▁message	-11.8305
▁inexécution	-11.8309
▁maximales	-11.8317
▁Bar	-11.8319
▁Chal	-11.8321
cité	-11.8327
▁confiées	-11.8329
▁élu	-11.8331
▁affectation	-11.8338
▁poursuit	-11.8352
▁commandes	-11.8359
▁frauduleuses	-11.836
erie	-11.836
▁Pharma	-11.8366
llant	-11.8366
Bell	-11.837
étanchéité	-11.837
▁Lanoue	-11.837
▁Regis	-11.837
▁Tahiti	-11.837
▁compromis	-11.837
▁compétitivité	-11.837
▁considère	-11.837
▁céder	-11.837
▁distance	-11.837
▁perception	-11.837
▁régulariser	-11.837
▁stipulant	-11.837
▁trouvant	-11.837
▁recrutement	-11.8371
▁2013-50	-11.8371
▁déroulement	-11.8371
▁110-4	-11.8371
allocataire	-11.8371
▁réseaux	-11.8372
INPI	-11.8373
▁197	-11.8374
▁réouverture	-11.8374
▁remplit	-11.8375
▁limitées	-11.8376
appliquait	-11.8376
▁Lorsque	-11.8378
▁3171-3	-11.8379
▁portées	-11.8392
▁Fabi	-11.8394
▁accessibles	-11.8395
▁obligatoires	-11.8403
▁formés	-11.8406
▁mètres	-11.8406
port	-11.8408
ium	-11.8415
ies	-11.8417
infirm	-11.842
▁[7]	-11.8423
▁120	-11.8424
UP	-11.8428
▁Sainte	-11.8432
▁MAF	-11.8434
▁justificatifs	-11.8435
▁routiers	-11.8437
▁tranche	-11.8437
▁mouvement	-11.844
▁justificatif	-11.8441
▁incompétente	-11.8441
▁rubrique	-11.8441
▁prolongé	-11.8447
▁133	-11.8453
▁Parc	-11.8457
ES	-11.8458
▁tranché	-11.8459
▁qualifiée	-11.8459
▁Inc	-11.8462
▁bénéfici	-11.8467
▁louée	-11.8468
▁opérée	-11.8468
▁territoriales	-11.8473
▁admise	-11.848
▁administrateur	-11.8482
▁dénommé	-11.8487
mmatriculation	-11.8505
affection	-11.8505
attention	-11.8506
honneur	-11.8506
intégrité	-11.8506
▁1233-3	-11.8506
▁Soltner	-11.8506
▁chapitre	-11.8506
▁sollicitant	-11.8506
▁opérant	-11.8506
▁coordination	-11.8506
▁subordonn	-11.8506
imputer	-11.8508
▁analyser	-11.851
tant	-11.8522
▁Ped	-11.8523
abelle	-11.8524
ki	-11.8528
value	-11.8541
▁États	-11.8541
▁impayés	-11.8544
5-3	-11.8552
▁dispensé	-11.8554
ram	-11.8559
▁ordonnances	-11.8562
▁écrits	-11.8564
▁contrôleur	-11.8566
▁considérées	-11.8574
▁envoyé	-11.8576
▁insurmontable	-11.8577
▁combinée	-11.8578
▁douanières	-11.8586
▁régimes	-11.86
▁déclar	-11.8601
PE	-11.8607
▁121-1	-11.8617
▁décidée	-11.8618
▁envoi	-11.8619
▁86	-11.8628
car	-11.8628
▁détenues	-11.8631
eu	-11.8637
▁solidaires	-11.864
▁Gaudinelles	-11.8643
▁Halem	-11.8643
▁bref	-11.8643
▁séquestration	-11.8643
▁analysé	-11.8643
autorisant	-11.8643
▁Etude	-11.8643
▁postule	-11.8643
▁1235-1	-11.8643
▁panneaux	-11.8643
▁23-15.	-11.8643
▁déterminés	-11.8645
EY	-11.8645
étendre	-11.8651
▁fenêtres	-11.8653
▁sport	-11.8654
▁voire	-11.866
▁SRL	-11.866
▁rappelées	-11.8662
▁1790	-11.8664
▁allégués	-11.8664
▁consommateurs	-11.8673
▁835	-11.8678
immunité	-11.8697
Suisse	-11.8697
▁anti	-11.87
▁existence	-11.8702
▁erroné	-11.8712
▁autorisés	-11.8712
▁copropriétaire	-11.8717
▁Marne	-11.874
▁laisse	-11.8743
▁directives	-11.8763
245-1	-11.877
▁NV	-11.8772
conformité	-11.8774
▁Ag	-11.8775
▁italien	-11.8779
▁favoris	-11.8781
▁rompre	-11.8781
▁Antilles	-11.8782
▁impérative	-11.8782
▁médico	-11.8782
▁investisseurs	-11.8782
▁triennale	-11.8783
▁SPA	-11.8785
ax	-11.8792
ologie	-11.8796
▁acquisition	-11.8797
▁Maroc	-11.88
ues	-11.8801
▁concrètement	-11.8801
▁prorogée	-11.8804
▁5°	-11.8817
▁199	-11.8822
▁variables	-11.8822
▁contenue	-11.883
cha	-11.8832
établissait	-11.8838
▁885	-11.8838
née	-11.8843
▁4)	-11.8853
▁FAI	-11.8854
CT	-11.8854
▁fermage	-11.8857
Loire	-11.8862
mar	-11.8872
▁Life	-11.8875
▁couverte	-11.8886
Eure	-11.8893
▁trouver	-11.8897
▁Ver	-11.89
▁ap	-11.8907
▁[7],	-11.8911
▁prescriv	-11.8914
act	-11.8915
onne	-11.8915
▁appliquer	-11.8915
▁définis	-11.8917
▁750	-11.892
rocureur	-11.892
Drusch	-11.8922
Prigent	-11.8922
effectivité	-11.8922
exequatur	-11.8922
traitance	-11.8922
▁Concept	-11.8922
▁Melka	-11.8922
▁gardiennage	-11.8922
▁guerre	-11.8922
▁management	-11.8922
▁répression	-11.8922
▁voisinage	-11.8923
guet	-11.8923
▁repas	-11.8924
interroger	-11.8925
▁propreté	-11.8925
▁Champagne	-11.8929
ores	-11.8933
▁plannings	-11.8939
▁revendiqué	-11.8941
▁médecins	-11.8947
▁appelante	-11.8958
▁abouti	-11.8958
▁parking	-11.8964
▁CFP	-11.8969
▁108	-11.897
▁imputé	-11.8982
▁taire	-11.8987
▁souhait	-11.8989
▁meublé	-11.9
fin	-11.9023
OM	-11.9025
▁fichiers	-11.9032
▁appelées	-11.9035
▁gérants	-11.904
▁spécialisée	-11.9041
ain	-11.9041
▁envisagé	-11.9045
▁apporter	-11.9047
ç	-11.9054
▁capacités	-11.9055
▁actif	-11.9057
▁CJUE	-11.9058
élément	-11.9062
Ehpad	-11.9065
Essonne	-11.9065
amplitude	-11.9065
▁1234-9	-11.9065
▁Nederland	-11.9065
▁People	-11.9065
▁bornait	-11.9065
▁confidentialité	-11.9065
▁démonstration	-11.9065
▁rectificatif	-11.9065
▁vigilance	-11.9065
▁matin	-11.9065
▁connaissait	-11.9066
▁détenait	-11.9068
▁travaillées	-11.907
SP	-11.9075
▁provisions	-11.9075
▁formel	-11.9075
▁trouvent	-11.9076
-01	-11.9077
ite	-11.9082
▁186	-11.9087
▁Savoie	-11.9088
▁équipement	-11.909
▁placer	-11.9092
▁conservatoires	-11.9092
4),	-11.9102
▁possibilités	-11.9104
nelle	-11.9107
▁performance	-11.9112
inscriv	-11.9115
▁Cet	-11.912
hospitalisation	-11.9126
allouer	-11.9126
Aquitaine	-11.9126
intérieur	-11.9126
temps	-11.9126
Montpellier	-11.9126
»	-11.9126
ka	-11.9136
▁énoncés	-11.9137
▁préjudicielle	-11.9145
▁pécuniaire	-11.9145
▁redevance	-11.9145
▁vaine	-11.9148
▁allouer	-11.915
▁viser	-11.916
▁envisagée	-11.9164
▁généré	-11.9171
▁écart	-11.9172
▁source	-11.9176
ator	-11.9195
▁terrains	-11.92
▁émise	-11.9201
conseil	-11.9208
▁Guadeloupe	-11.921
▁dérogatoire	-11.921
▁venderesse	-11.921
▁pause	-11.921
▁résidents	-11.921
▁haine	-11.921
▁QBE	-11.9211
▁003	-11.9214
▁Pacifica	-11.9216
▁reprochait	-11.9216
▁financer	-11.9216
▁mensuels	-11.9216
équipement	-11.9219
▁mentionnent	-11.9219
▁largement	-11.9219
▁petit	-11.922
▁actuellement	-11.9224
▁connexes	-11.923
▁requêtes	-11.923
▁Immobilière	-11.9231
▁dates	-11.9232
▁accompagné	-11.9253
▁identifiés	-11.9259
auraient	-11.926
▁cliente	-11.9264
tour	-11.9272
omission	-11.9273
octobre	-11.9273
accueilli	-11.9275
ani	-11.9286
so	-11.9289
▁trajet	-11.9292
▁spécialité	-11.9293
▁causer	-11.9294
▁Act	-11.9294
▁dommageable	-11.9295
▁remplies	-11.9296
▁passée	-11.9296
▁09	-11.9297
▁souverain	-11.9297
▁Sol	-11.9297
jo	-11.9306
▁extérieure	-11.9307
▁municipal	-11.9311
▁interromp	-11.9315
▁apparente	-11.9319
3)	-11.9319
tendre	-11.9328
▁réalis	-11.9329
oire	-11.9336
▁([	-11.9346
▁anormal	-11.9346
▁prévisionnel	-11.9349
MP	-11.9354
rotocole	-11.9355
linique	-11.9356
efficacité	-11.9357
▁Lloyd	-11.9357
▁caractérisant	-11.9357
▁dolosive	-11.9357
▁hypothétique	-11.9357
▁introductif	-11.9357
▁organique	-11.9357
▁syndrome	-11.9357
▁km	-11.9357
▁silence	-11.9357
arbot	-11.9357
▁généralisée	-11.9357
▁récapitulatif	-11.9357
▁Colas	-11.9357
▁revenant	-11.9358
inéligibilité	-11.9358
▁Martinique	-11.9359
▁bonus	-11.936
ssement	-11.9363
▁objective	-11.9364
▁mobilières	-11.9366
▁disposent	-11.9371
FF	-11.9372
HPM	-11.9377
▁1990	-11.9379
▁déterminante	-11.9386
▁concurrente	-11.9396
ient	-11.9396
▁similaires	-11.94
▁194	-11.9401
▁responsabilités	-11.9403
▁signe	-11.9408
▁importante	-11.9416
▁po	-11.9421
Toulouse	-11.9423
▁dénoncés	-11.9431
▁Pas	-11.9433
▁CS	-11.9438
▁subséquente	-11.9446
▁inscrits	-11.9447
3-7	-11.9459
▁acceptée	-11.9462
▁Tr	-11.9462
établit	-11.947
▁compar	-11.9479
expliqu	-11.948
▁pénalement	-11.9481
▁habilité	-11.9482
▁Son	-11.9487
▁irrégularités	-11.9495
0]),	-11.9502
▁97	-11.9502
▁détermine	-11.9502
1-8	-11.9506
instrument	-11.9506
probation	-11.9506
▁Larzul	-11.9506
▁Métropole	-11.9506
▁significative	-11.9506
▁socio	-11.9506
▁montage	-11.9506
▁programme	-11.9507
▁faiblesse	-11.9507
inclu	-11.951
▁serment	-11.951
Unedic	-11.9515
▁signer	-11.9517
▁concernent	-11.9523
mptoir	-11.9525
appelante	-11.9525
▁atelier	-11.9529
▁nécessités	-11.953
▁SELA	-11.953
▁extérieur	-11.9531
incit	-11.9531
▁femmes	-11.9534
▁GMF	-11.954
▁impositions	-11.9547
▁organis	-11.9549
▁issu	-11.955
▁affecte	-11.955
▁honoraire	-11.955
▁88	-11.9555
▁apportées	-11.9562
▁médicaments	-11.9562
expérience	-11.9574
tenu	-11.9577
▁producteur	-11.9593
▁virement	-11.9593
▁manoeuvre	-11.9593
▁offres	-11.9595
▁98	-11.9602
▁alloués	-11.9609
▁énergies	-11.961
▁134	-11.9611
▁Lyonnais	-11.9613
▁ambigu	-11.9616
▁73	-11.9622
▁communique	-11.9626
éna	-11.9627
▁convenue	-11.963
▁requérante	-11.9632
FO	-11.9637
▁intérieure	-11.9649
▁relevai	-11.9654
▁témoign	-11.9655
exonérer	-11.9658
▁curateur	-11.9658
▁délégataire	-11.9658
▁ouvrant	-11.9658
▁portefeuille	-11.9658
▁1132-1	-11.9658
▁22-15.4	-11.9658
▁terroriste	-11.9658
▁paritaire	-11.9658
▁4121-2	-11.9658
▁confort	-11.9658
▁disparition	-11.9658
▁amené	-11.9659
▁93/42	-11.9659
▁intervient	-11.9659
ouz	-11.9666
▁provisionnelle	-11.967
Isère	-11.9671
▁procédurale	-11.9671
▁servant	-11.9672
▁garantit	-11.9674
▁familles	-11.9681
▁étay	-11.9688
▁génér	-11.9695
▁majeur	-11.9716
▁[12]	-11.9721
exclu	-11.9726
▁stipulé	-11.9733
▁87	-11.9739
▁1131	-11.9742
▁224	-11.9747
Maritime	-11.9747
▁Service	-11.9747
▁ouverture	-11.9749
▁2012.	-11.9754
▁scolaire	-11.9754
▁industries	-11.9763
▁FR	-11.9765
▁assimilée	-11.9767
▁constatés	-11.9777
▁566	-11.9779
entraîne	-11.9783
▁disciplinaires	-11.9787
▁1989	-11.9789
▁résolutions	-11.979
▁suspend	-11.9801
▁extrait	-11.9802
▁évalue	-11.981
exactitude	-11.9812
▁Global	-11.9812
▁STATUER	-11.9812
▁Selarl	-11.9812
▁demandant	-11.9812
▁détient	-11.9812
▁pertinence	-11.9812
▁taxation	-11.9812
▁Saulnier	-11.9812
▁3123-14	-11.9812
▁séance	-11.9812
▁gendarmerie	-11.9812
▁énumérées	-11.9812
▁tardif	-11.9812
▁Didier	-11.9813
▁révélation	-11.9813
▁définir	-11.9816
▁affirme	-11.9816
▁Réseau	-11.9818
▁compléter	-11.9819
▁intervenues	-11.9819
fars	-11.9822
▁Ord	-11.9822
▁SCCV	-11.9823
▁unilatéralement	-11.9832
▁voyageurs	-11.9836
▁rappelle	-11.9841
▁commerçants	-11.9853
▁excède	-11.9857
▁recueillir	-11.9857
immo	-11.986
ELEC	-11.9877
▁dommageables	-11.9882
▁composant	-11.9883
époque	-11.9883
appartenance	-11.9884
▁futur	-11.9884
▁attachés	-11.9888
gée	-11.9891
▁subrogé	-11.9896
▁j	-11.9896
▁identifiée	-11.9898
▁Man	-11.9902
▁18/0	-11.9902
▁téléphonique	-11.9903
▁réquisition	-11.9903
▁exige	-11.9904
▁130	-11.9904
Institut	-11.9917
▁transmise	-11.9932
▁encourt	-11.9941
▁bas	-11.9941
▁subie	-11.9951
MS	-11.9954
ST	-11.9955
▁acceptation	-11.9957
ord	-11.9958
11-2	-11.9959
observation	-11.996
▁PART	-11.996
PB	-11.9962
illes	-11.9964
▁Char	-11.9967
éserve	-11.9968
▁Issas	-11.9968
▁biais	-11.9968
▁certitude	-11.9968
▁dénigrement	-11.9968
▁extraordinaire	-11.9968
▁matérialité	-11.9968
▁métropole	-11.9968
▁prescrire	-11.9968
▁remédier	-11.9968
▁résistance	-11.9968
▁soustraire	-11.9968
▁accéléré	-11.9968
▁promettant	-11.9969
▁quasi	-11.9969
▁quinquennale	-11.9969
instaur	-11.997
▁Bel	-11.9974
▁monnaie	-11.9977
TF	-11.9977
▁Déchéance	-11.998
▁tendait	-11.9984
▁inopposables	-11.9985
▁cré	-11.9996
▁porterait	-11.9998
▁occuper	-12.0005
auto	-12.0007
appliqu	-12.0008
▁contrôlée	-12.0012
PG	-12.0013
▁employé	-12.0015
▁indications	-12.0017
éli	-12.0019
▁informés	-12.0021
▁entraînerait	-12.0026
▁express	-12.0031
▁inc	-12.0032
▁08	-12.0033
▁issus	-12.0036
▁comptabilis	-12.0037
▁consacré	-12.0042
▁erronés	-12.0042
onn	-12.0042
incendie	-12.0042
▁disponibles	-12.0046
▁émises	-12.0048
▁qualifiés	-12.0055
emp	-12.0056
▁bus	-12.0058
▁requises	-12.006
▁5)	-12.0061
▁différend	-12.0061
▁négociations	-12.0065
WK	-12.0067
▁immobilières	-12.0091
▁livres	-12.0095
▁vendue	-12.0095
▁via	-12.0101
app	-12.0102
courir	-12.0107
▁biennal	-12.0111
▁importe	-12.0115
▁95	-12.0117
informations	-12.0117
investigation	-12.0126
Roussillon	-12.0127
glise	-12.0127
▁Carbonnier	-12.0127
▁Lesourd	-12.0127
▁mentionnaient	-12.0127
▁partenariat	-12.0127
▁phase	-12.0127
▁22-20.2	-12.0127
▁Henry	-12.0127
▁Blue	-12.0127
enfance	-12.0127
▁réformation	-12.0127
▁subrogation	-12.0127
▁organes	-12.0127
▁deniers	-12.0127
▁mobile	-12.0127
▁correspondance	-12.0128
▁modifiant	-12.0128
▁suffisait	-12.0129
▁Michel	-12.0129
▁chasse	-12.0132
▁infirmant	-12.0133
▁nommé	-12.0134
-557	-12.0134
▁artisanale	-12.0134
▁lundi	-12.0138
▁SMS	-12.0138
▁entièrement	-12.0139
▁fortune	-12.0139
▁rattaché	-12.0145
adopter	-12.0145
▁Guyane	-12.0146
▁identité	-12.0148
▁exprimé	-12.0148
▁ouvrables	-12.0157
ler	-12.0158
tech	-12.0162
FB	-12.0166
▁expose	-12.0167
▁offerte	-12.0168
▁enregistrements	-12.0172
▁142	-12.0175
▁espace	-12.0176
▁influence	-12.0176
▁remplir	-12.0178
2-8	-12.0179
▁livrer	-12.018
▁servir	-12.0182
entrer	-12.0185
vait	-12.0191
emprunt	-12.0203
avertissement	-12.0203
augmentation	-12.0204
industrie	-12.0204
Nîmes	-12.0204
août	-12.0204
▁supprimé	-12.0223
▁suspensive	-12.0223
▁démarche	-12.0223
▁CG	-12.0236
▁occasion	-12.0237
▁recherch	-12.0238
▁143	-12.0238
ions	-12.0247
▁entachée	-12.0251
▁option	-12.0252
▁comprises	-12.0254
▁mot	-12.0256
/01	-12.0264
▁acquittée	-12.0265
▁évaluer	-12.0266
▁Marie	-12.0266
▁1/	-12.0267
▁pratiqué	-12.027
▁représente	-12.0271
▁professions	-12.0272
▁SB	-12.0273
▁confi	-12.0277
EM	-12.028
▁ouvrage	-12.028
CF	-12.0282
▁22-19.2	-12.0283
▁350	-12.0284
▁contractant	-12.0285
▁minima	-12.0287
▁occupation	-12.0288
opérateur	-12.0288
Thieffry	-12.0288
▁Gironde	-12.0288
▁Mayotte	-12.0288
▁Vignoble	-12.0288
▁automatisé	-12.0288
▁conversion	-12.0288
▁dépréciation	-12.0288
▁soustraction	-12.0288
▁1234-5	-12.0288
▁dénué	-12.0288
▁SANS	-12.0288
▁quotidienne	-12.0289
▁clinique	-12.0289
▁poursuivant	-12.0289
▁désignant	-12.029
▁nationales	-12.0291
▁[...]	-12.0292
▁coopération	-12.0294
6-24	-12.03
ari	-12.0302
▁favorables	-12.0305
▁embauche	-12.0308
▁mentale	-12.0319
ano	-12.0319
▁collecte	-12.0319
▁rester	-12.0328
▁postérieures	-12.0329
▁fonctionnaires	-12.033
▁présumée	-12.0332
admettre	-12.0336
▁valid	-12.034
▁remboursé	-12.0347
tro	-12.0348
équipe	-12.0354
PC	-12.0362
enlèvement	-12.0367
Europe	-12.0368
jugement	-12.0374
▁imposées	-12.0377
qui	-12.0378
ouvre	-12.0385
▁menée	-12.0391
▁injonction	-12.0392
▁ultérieures	-12.0397
▁Français	-12.0397
GT	-12.0405
▁laissé	-12.0407
▁On	-12.041
▁différente	-12.041
▁recherchée	-12.0411
11-4	-12.0415
bes	-12.0418
▁Licencié	-12.0422
ien	-12.044
▁Bess	-12.044
abri	-12.0449
▁franchisé	-12.0449
▁mon	-12.045
Fitoussi	-12.0452
▁Lactalis	-12.0452
▁complexe	-12.0452
▁succès	-12.0452
▁surcroît	-12.0452
▁division	-12.0452
▁négligence	-12.0452
▁défunt	-12.0452
▁locatif	-12.0452
▁travers	-12.0452
▁voiture	-12.0452
▁Molin	-12.0453
▁bureaux	-12.0456
▁bruts	-12.0461
▁signataire	-12.0463
▁absolue	-12.0467
Charles	-12.0478
▁arabe	-12.0481
▁23],	-12.0482
roz	-12.049
▁SH	-12.0491
riche	-12.0492
▁men	-12.0494
log	-12.0501
▁appelant	-12.0503
▁2241	-12.0508
RS	-12.051
▁privatives	-12.0511
▁oppose	-12.0516
▁déférée	-12.0526
▁élus	-12.0532
utiliser	-12.0534
accéder	-12.0534
exclure	-12.0537
oli	-12.0542
▁Li	-12.055
▁Suisse	-12.0553
▁restriction	-12.0554
formant	-12.0556
▁exonération	-12.0558
▁privés	-12.0565
▁exclue	-12.0579
▁engager	-12.0581
bail	-12.0584
▁emprunt	-12.0585
▁317	-12.0587
off	-12.0597
▁payée	-12.0611
▁livré	-12.0618
arrestation	-12.0619
▁Domaine	-12.0619
▁INCIDENT	-12.0619
▁Industrie	-12.0619
▁Korian	-12.0619
▁Natixis	-12.0619
▁auparavant	-12.0619
▁confond	-12.0619
▁covid	-12.0619
▁libellé	-12.0619
▁préférence	-12.0619
▁rogatoire	-12.0619
▁Thales	-12.0619
▁caduc	-12.0619
▁travaillait	-12.0619
▁Cave	-12.0619
▁intervenant	-12.0619
opère	-12.0619
▁sportive	-12.062
▁contestant	-12.0621
▁grille	-12.0622
▁couple	-12.0623
▁successivement	-12.0624
▁opérationnelle	-12.0624
attache	-12.0624
▁fournisseurs	-12.0628
quitté	-12.0631
▁télé	-12.0632
tif	-12.0632
▁prérogatives	-12.0636
▁patrimoniale	-12.0637
▁impayées	-12.0638
▁tardivement	-12.064
▁acquitté	-12.0642
▁vols	-12.0649
▁x	-12.0658
▁reporter	-12.066
▁seing	-12.0673
abandon	-12.0674
▁corporel	-12.0677
▁plate	-12.0679
▁lésions	-12.0682
▁principalement	-12.0692
▁habilités	-12.0692
▁réunions	-12.0695
▁marine	-12.0696
▁convenues	-12.0697
▁5].	-12.0698
▁actuel	-12.0701
assister	-12.0704
avril	-12.0704
▁vendeurs	-12.0709
exploiter	-12.0709
avenir	-12.0713
▁consécutif	-12.0723
éra	-12.0723
▁citée	-12.073
▁précédentes	-12.074
▁interprétée	-12.0759
▁revendiquée	-12.0768
▁réput	-12.0771
▁exproprié	-12.0775
▁constatées	-12.0779
interdisant	-12.078
▁représentées	-12.0782
▁participe	-12.0785
eprise	-12.0788
▁Sanofi	-12.0788
affirmative	-12.0788
élève	-12.0788
▁Cofidis	-12.0788
▁caduque	-12.0788
▁démocratique	-12.0788
▁nettoyage	-12.0788
▁rythme	-12.0788
▁Public	-12.0788
▁charpente	-12.0788
▁SAJU	-12.0788
▁licite	-12.0788
▁1-5)	-12.0788
▁Annulation	-12.0788
▁patrimoniaux	-12.0788
▁énumérés	-12.0788
▁stockage	-12.0788
▁SCEA	-12.0788
▁Lille	-12.079
▁restait	-12.079
▁kilomètres	-12.0792
bourg	-12.0792
▁couvre	-12.0793
▁urgence	-12.0795
▁EXA	-12.0795
▁susvisées	-12.0797
▁servie	-12.0801
oog	-12.0805
▁prévisions	-12.0807
▁tra	-12.081
▁1184	-12.0817
été	-12.0818
▁151	-12.0818
▁rectifications	-12.0819
▁partenaires	-12.0819
▁donnés	-12.082
guen	-12.0822
▁ingérence	-12.0825
▁pratiquer	-12.0825
ity	-12.0842
▁patient	-12.0844
▁ex	-12.0845
▁communs	-12.0846
aires	-12.0853
▁constatent	-12.0856
▁observé	-12.0863
▁spécialités	-12.0864
▁figurer	-12.0866
▁expulsion	-12.087
▁apposé	-12.0874
▁postérieur	-12.0877
habitat	-12.0878
▁incendie	-12.0879
.[	-12.0885
▁servi	-12.0888
▁20],	-12.0892
▁lésion	-12.0896
▁2011.	-12.0897
▁avéré	-12.0898
▁Ex	-12.091
GS	-12.091
▁expir	-12.0916
▁signés	-12.092
▁entière	-12.0937
IR	-12.0938
tait	-12.0948
MM	-12.095
▁exigé	-12.0954
▁sanitaires	-12.0954
chaussée	-12.0961
▁22-15.3	-12.0961
▁Bulletin	-12.0961
▁Mandataires	-12.0961
▁confère	-12.0961
▁criminalité	-12.0961
▁diagnostic	-12.0961
▁dépositaire	-12.0961
▁froid	-12.0961
▁lotissement	-12.0961
▁mensualités	-12.0961
▁résulté	-12.0961
▁Press	-12.0961
▁référer	-12.0961
▁91-11	-12.0961
▁orientations	-12.0962
▁Comte	-12.0962
▁security	-12.0963
▁quantum	-12.0963
▁Catha	-12.0964
joindre	-12.0965
▁syndicaux	-12.0966
▁exposantes	-12.0967
▁développer	-12.0968
▁intentée	-12.0968
authenti	-12.0968
élevait	-12.0973
▁1386-	-12.0979
▁411-1	-12.0979
▁pourraient	-12.0982
vocation	-12.0982
▁machines	-12.0986
▁apparue	-12.0987
gées	-12.0995
je	-12.0996
▁coffre	-12.0999
▁brutale	-12.1
irection	-12.1004
▁énoncées	-12.1012
▁XL	-12.1013
▁111	-12.1014
547	-12.1017
▁jointes	-12.1026
▁gérante	-12.1034
avant	-12.1046
▁126	-12.105
expulsion	-12.1052
corps	-12.1052
location	-12.1052
suffisamment	-12.1052
argumentation	-12.1053
illot	-12.1062
▁médicament	-12.1071
▁collectivité	-12.1071
ifi	-12.1074
▁...	-12.1074
▁valide	-12.1081
viennent	-12.1084
▁vide	-12.1087
31-7	-12.1088
▁To	-12.109
▁[16]	-12.1098
év	-12.1098
▁constitués	-12.1098
affect	-12.1104
▁règlements	-12.1118
ives	-12.1124
EQU	-12.1129
inobservation	-12.113
▁réside	-12.1136
introduction	-12.1136
▁Debacq	-12.1136
▁Dolol	-12.1136
▁Présidence	-12.1136
▁Ridoux	-12.1136
▁Technologies	-12.1136
▁esthétique	-12.1136
▁interrogé	-12.1136
▁métropolitain	-12.1136
▁perspective	-12.1136
▁récépissé	-12.1136
▁651-2	-12.1136
▁camion	-12.1136
▁pilot	-12.1136
▁Haye	-12.1136
▁protéger	-12.1136
▁couvrir	-12.1137
▁prorogation	-12.1137
244	-12.1137
▁devrait	-12.1138
Garonne	-12.1139
4-8)	-12.114
▁1154-1	-12.1141
▁(...)	-12.1142
▁modifications	-12.1146
▁autorise	-12.1147
▁aspect	-12.115
▁370	-12.1159
▁artiste	-12.1159
▁bénéfices	-12.116
▁constructeurs	-12.1164
▁Keo	-12.1165
RC	-12.1174
ppe	-12.1178
▁fabriqué	-12.1178
▁soutenue	-12.118
exige	-12.119
PD	-12.1202
vision	-12.1205
▁Roche	-12.1212
▁imputés	-12.1217
▁fermages	-12.1218
▁900	-12.1223
▁380-1	-12.1227
Espagne	-12.123
propriété	-12.123
▁91	-12.123
▁insuffisant	-12.1231
▁137	-12.1232
▁électriques	-12.1233
adresser	-12.1237
▁Dem	-12.124
▁injustifié	-12.1245
éta	-12.1247
CN	-12.125
BS	-12.1258
▁importation	-12.1259
▁installation	-12.126
▁accompagnée	-12.1262
▁2009.	-12.1263
▁qualifi	-12.1268
▁ch	-12.1269
▁imputée	-12.1269
ley	-12.1276
▁376	-12.1282
énoncé	-12.1288
▁subir	-12.1291
▁majoré	-12.1296
▁supporté	-12.1313
escalier	-12.1314
allégation	-12.1314
▁Réside	-12.1315
ructidor	-12.1315
°2008-4	-12.1315
▁Feydeau	-12.1315
▁Règlement	-12.1315
▁adhéré	-12.1315
▁construit	-12.1315
▁imprévisible	-12.1315
▁reliquat	-12.1315
▁rétroactif	-12.1315
▁thèse	-12.1315
▁étage	-12.1315
▁musicien	-12.1315
▁Galy	-12.1315
errier	-12.1315
▁revente	-12.1316
▁provoquer	-12.132
venus	-12.1323
▁versait	-12.1326
▁Bruxelles	-12.1329
▁1958	-12.1334
▁articulation	-12.1335
▁accomplie	-12.1335
▁consultations	-12.1338
▁communautaire	-12.134
CX	-12.1345
▁livrée	-12.1345
9/	-12.1352
▁devise	-12.1356
▁FCP	-12.1365
ôt	-12.1368
4/	-12.1373
▁demandées	-12.1383
▁mari	-12.1383
ché	-12.1387
▁Groupement	-12.1393
▁systématique	-12.1402
▁sanctionnée	-12.1402
▁désigne	-12.1406
▁admises	-12.141
▁Arc	-12.1417
▁privative	-12.1431
▁compensateur	-12.1432
▁transférés	-12.144
▁réuni	-12.145
▁prêté	-12.1457
▁suffisants	-12.1466
20-1	-12.1469
▁481	-12.1472
▁épargne	-12.1474
▁posé	-12.1478
▁crim	-12.1479
▁filles	-12.1482
▁introduit	-12.1483
▁agréé	-12.1488
implantation	-12.1496
▁85-677	-12.1496
▁Klesia	-12.1496
▁absent	-12.1496
▁complice	-12.1496
▁détenteur	-12.1496
▁loisirs	-12.1496
▁nantissement	-12.1496
▁neuvième	-12.1496
▁notoriété	-12.1496
▁ouvrière	-12.1496
▁positif	-12.1496
▁suspect	-12.1496
▁trompeuse	-12.1496
▁Baby	-12.1496
▁Plus	-12.1496
soust	-12.1496
▁Areas	-12.1496
▁1233-6	-12.1496
▁proportionnelle	-12.1497
▁chimie	-12.1497
mmes	-12.1499
▁connaissement	-12.1502
▁compenser	-12.1503
▁subséquents	-12.1516
▁173	-12.1523
▁1979	-12.1526
▁1946	-12.1528
ingénieurs	-12.1538
▁233-1	-12.1545
▁prouve	-12.1553
▁Sophi	-12.1563
▁vérifié	-12.1571
▁chargés	-12.1585
▁138	-12.1589
▁financé	-12.1589
▁normal	-12.1592
▁cautionnements	-12.1594
Luxembourg	-12.1597
▁afférent	-12.1598
▁précédé	-12.1602
▁traite	-12.1603
▁facilit	-12.1605
▁plans	-12.1611
▁arbitral	-12.1612
▁prestataire	-12.1616
▁adverse	-12.1616
▁cédant	-12.1616
▁surabondant	-12.1617
▁rapportent	-12.1619
éa	-12.162
▁VI	-12.1621
thé	-12.1624
précontractuelle	-12.1627
don	-12.1631
▁142-1	-12.1633
/12	-12.1634
eo	-12.1639
venait	-12.164
▁agressions	-12.1642
▁agrément	-12.1646
▁ajoutée	-12.1648
▁oral	-12.1663
▁refusée	-12.1664
▁sommaire	-12.1669
▁exécutoires	-12.1672
▁sexuel	-12.1679
▁minor	-12.1681
affiliation	-12.1682
agglomération	-12.1682
ctivity	-12.1682
extorsion	-12.1682
implication	-12.1682
insolvabilité	-12.1682
▁Agrovin	-12.1682
▁LABROUSSE	-12.1682
▁acquisitive	-12.1682
▁concordants	-12.1682
▁justifiaient	-12.1682
▁nuisances	-12.1682
▁obligé	-12.1682
▁rédacteur	-12.1682
▁répressive	-12.1682
egt	-12.1682
▁2015-99	-12.1682
ose	-12.1682
▁retirer	-12.1683
▁garage	-12.1683
▁DTD	-12.1683
▁consentir	-12.1683
▁vendredi	-12.1684
▁Gue	-12.1685
▁supplément	-12.1685
▁FIVA	-12.1687
▁payeur	-12.1688
▁auditions	-12.1688
▁Hôpita	-12.1689
▁Générale	-12.1689
▁suggéré	-12.169
▁image	-12.1694
▁sud	-12.1695
De	-12.1698
▁continuer	-12.17
▁embauché	-12.1707
▁vit	-12.1708
▁inexacte	-12.1721
▁clés	-12.1721
▁violer	-12.1727
MB	-12.173
▁mail	-12.1731
▁humaines	-12.1732
▁hôtel	-12.1733
▁incidents	-12.1746
ud	-12.1749
▁apparaiss	-12.1752
lia	-12.1755
▁instituée	-12.1757
▁prolongée	-12.1762
ZM	-12.1763
▁imposent	-12.1765
▁concert	-12.1774
▁2/	-12.1775
gal	-12.1776
excès	-12.1786
Seine	-12.1786
judiciaire	-12.1787
ama	-12.1791
▁péremptoire	-12.1792
▁matières	-12.1796
▁Que	-12.1798
▁habituel	-12.1799
▁prélèvement	-12.1805
▁incriminé	-12.1805
▁plu	-12.1806
▁désordre	-12.1808
GO	-12.1811
associés	-12.1815
▁181	-12.1815
ssant	-12.1818
▁Cara	-12.1823
▁frappée	-12.1831
▁jointe	-12.1843
▁89	-12.1846
▁rejetées	-12.1847
ban	-12.1852
Loir	-12.1853
▁implicite	-12.1857
▁publiée	-12.1859
DY	-12.1859
taire	-12.1861
▁cap	-12.1869
habilitation	-12.187
esprit	-12.187
▁Bouthors	-12.187
▁Cegid	-12.187
▁Daniel	-12.187
▁conféré	-12.187
▁demeurait	-12.187
▁dissolution	-12.187
▁mécanique	-12.187
▁souscrire	-12.187
▁tribunaux	-12.187
▁Gestion	-12.187
▁1232-1	-12.187
▁Equit	-12.187
▁foyer	-12.1871
▁cuisine	-12.1871
▁TNT	-12.1871
▁dangereux	-12.1871
▁avances	-12.1872
▁quote	-12.1872
▁signifier	-12.1876
▁AXA	-12.188
▁rendent	-12.1887
▁demeuré	-12.1889
▁LAPI	-12.1891
▁débiteurs	-12.1892
358	-12.1893
▁individu	-12.1894
onc	-12.1894
▁sort	-12.1895
▁SAFER	-12.1897
▁mes	-12.1907
▁privilégié	-12.1909
▁interdis	-12.1921
▁exiger	-12.1921
▁Dom	-12.1926
▁déséquilibr	-12.1929
▁179	-12.1946
▁911	-12.1947
▁contraventions	-12.1948
▁diminu	-12.1951
▁24],	-12.1954
▁exprimée	-12.1958
contractuelle	-12.196
▁recueillis	-12.1961
ICE	-12.1966
▁reprochées	-12.1976
interprété	-12.1977
faire	-12.1981
▁hospitalisation	-12.1982
▁fi	-12.1983
▁établissait	-12.1985
▁essentielle	-12.1986
▁Mas	-12.1988
▁verbale	-12.1992
6/22	-12.1992
▁entré	-12.1998
▁gain	-12.1999
▁arrivé	-12.2
▁amont	-12.2002
▁concurrent	-12.2012
enseignement	-12.2013
PM	-12.2014
intimée	-12.2015
▁92	-12.2017
▁appliquée	-12.2026
arrière	-12.2031
▁apportée	-12.2032
EV	-12.2036
▁avenir	-12.2038
▁potentiel	-12.2041
▁arrêtée	-12.2043
exécut	-12.2051
▁Bourgogne	-12.2063
▁CARPA	-12.2063
▁Relevé	-12.2063
▁caractérisation	-12.2063
▁hiérarchie	-12.2063
▁luxembourgeois	-12.2063
▁représentatif	-12.2063
▁réfection	-12.2063
ysfonctionnement	-12.2063
▁difficile	-12.2063
anéantissement	-12.2063
▁Parquet	-12.2063
▁Engie	-12.2063
▁plénière	-12.2063
▁stage	-12.2063
anal	-12.2063
▁intimés	-12.2063
▁rendez	-12.2063
▁conservées	-12.2067
▁avenants	-12.2068
▁démontrent	-12.2072
États	-12.2072
igne	-12.2077
▁subsister	-12.2079
aff	-12.208
▁conserve	-12.2084
▁identifié	-12.2085
▁Tele	-12.209
UG	-12.209
▁sienne	-12.2108
▁175	-12.2115
ISS	-12.2119
▁informe	-12.2125
▁déboutés	-12.2125
▁annexées	-12.2128
▁cantonn	-12.2128
venir	-12.2148
▁exclues	-12.2151
surveillance	-12.2167
▁2019)	-12.2168
là	-12.2169
naise	-12.2172
insertion	-12.2173
hypothèque	-12.2174
acquérir	-12.2174
subsidiaire	-12.2175
contentieux	-12.2175
▁régi	-12.2175
▁clair	-12.2175
ZT	-12.2178
interjet	-12.2188
▁exact	-12.2189
portaient	-12.2189
▁caché	-12.2194
▁éventuelles	-12.2196
▁26],	-12.2197
▁déco	-12.2212
▁Gard	-12.2214
▁espagnole	-12.2215
1/22	-12.2222
▁spéciales	-12.2223
▁chauffeurs	-12.2233
uté	-12.2242
lectricité	-12.2256
▁HSBC	-12.2259
▁Peugeot	-12.2259
▁Président	-12.2259
▁alternative	-12.2259
▁entraînant	-12.2259
▁incomplète	-12.2259
▁infalsifiable	-12.2259
▁principaux	-12.2259
▁scission	-12.2259
▁succéder	-12.2259
▁tutrice	-12.2259
▁variation	-12.2259
▁virus	-12.2259
▁Total	-12.2259
▁américain	-12.2259
▁transitoire	-12.2259
▁chauffage	-12.2259
▁Montana	-12.2259
▁directoire	-12.2259
▁Production	-12.2259
▁Roque	-12.2259
▁Continental	-12.226
▁formulaire	-12.2261
▁intéressées	-12.2261
▁contenait	-12.2261
▁dixième	-12.2262
▁logements	-12.2264
omettant	-12.2264
▁factuelle	-12.2264
▁respectée	-12.2265
▁implicitement	-12.2272
trice	-12.2274
▁commandé	-12.2274
▁réservé	-12.2278
▁143-1	-12.2278
▁83	-12.228
concl	-12.2282
▁intégré	-12.2285
▁transférée	-12.2286
▁1978	-12.2292
▁[8],	-12.2301
▁544	-12.2309
▁pertinents	-12.231
éré	-12.2316
▁mobilités	-12.2323
▁évolution	-12.2324
▁MJS	-12.2326
éventuel	-12.2331
▁verbal	-12.2333
▁édictée	-12.234
▁régularisée	-12.2342
4/22	-12.2346
▁redevances	-12.2348
mettent	-12.2364
▁utiliser	-12.2366
▁appartenance	-12.2366
▁Ho	-12.2371
professionnel	-12.2371
▁622-2	-12.2372
architecture	-12.2374
▁régularisé	-12.2374
▁institué	-12.2378
exacte	-12.2378
imposent	-12.2381
▁informatiques	-12.2384
▁inscrire	-12.2386
▁situations	-12.2387
▁diplôme	-12.2393
▁mobilité	-12.2394
▁claires	-12.2395
▁remorque	-12.2397
▁pathologies	-12.24
isant	-12.2403
▁388	-12.2405
▁211	-12.2411
625	-12.2423
▁introduites	-12.2424
▁immatriculation	-12.2426
hui	-12.243
lou	-12.2433
assistant	-12.2434
▁reporté	-12.2437
▁exclusifs	-12.2441
héritières	-12.2443
▁198	-12.2444
▁déduite	-12.2448
▁déten	-12.2448
éité	-12.245
▁rattach	-12.245
▁manutention	-12.2453
éclair	-12.2456
▁aérien	-12.2457
évinçai	-12.2457
ATION	-12.2458
anomalie	-12.2458
habillage	-12.2459
Urssaf	-12.2459
ingenierie	-12.2459
interception	-12.2459
épreuve	-12.2459
▁2004-146	-12.2459
▁Aviva	-12.2459
▁Bouygues	-12.2459
▁Zurich	-12.2459
▁affilié	-12.2459
▁délibérative	-12.2459
▁légataire	-12.2459
▁matrimonial	-12.2459
▁pression	-12.2459
▁Alliance	-12.2459
▁instrumentaire	-12.2459
▁paisible	-12.2459
▁télécopie	-12.2459
▁Claud	-12.2459
▁Print	-12.2459
ouquet	-12.2459
▁référant	-12.2459
▁431-3	-12.2459
▁terrestre	-12.2459
▁Camp	-12.2459
▁enjoint	-12.246
9/23	-12.246
ich	-12.246
alter	-12.2461
▁transformation	-12.2461
▁atteints	-12.2461
▁JSA	-12.2464
▁111-3	-12.2469
ibilité	-12.2475
▁métiers	-12.2479
affecte	-12.2484
▁culturelles	-12.2484
illage	-12.2487
▁sonores	-12.2497
▁évaluée	-12.2502
▁interventions	-12.2503
▁estimer	-12.2507
▁psychiatriques	-12.2508
▁Nex	-12.2511
▁Fillon	-12.2512
usine	-12.2512
CGC	-12.2513
▁Louis	-12.2516
▁passer	-12.2517
▁(12	-12.2517
▁121	-12.2517
▁nue	-12.2521
▁témoignages	-12.2522
▁1989,	-12.2522
▁contradictoires	-12.2529
pé	-12.2531
inform	-12.2532
page	-12.2533
▁662	-12.2534
▁actuels	-12.2536
euro	-12.2541
▁approprié	-12.2544
ij	-12.2545
▁systèmes	-12.2546
▁intimée	-12.2549
▁fort	-12.2551
▁119	-12.2552
▁802	-12.2553
▁Sodi	-12.2555
▁insurmontables	-12.2555
▁complété	-12.2559
nce	-12.2561
▁intitulée	-12.2566
inter	-12.257
oblige	-12.2575
interrogatoire	-12.2579
CGEA	-12.2579
effectif	-12.2579
époux	-12.2579
empir	-12.2584
▁TP	-12.2585
▁employée	-12.2586
ici	-12.2589
41-4	-12.2593
▁trimestres	-12.2595
▁restitué	-12.2597
mé	-12.2603
▁adoptée	-12.2623
éventuelle	-12.2624
▁fusion	-12.2631
▁706-1	-12.2644
▁recommandé	-12.2646
▁parfait	-12.2647
▁large	-12.265
▁habituelles	-12.2653
▁précédents	-12.2657
DV	-12.266
▁313-1	-12.266
▁Mutuel	-12.2661
investisseur	-12.2662
organe	-12.2662
▁jeunes	-12.2663
▁transpos	-12.2663
Peruzzetto	-12.2663
homologation	-12.2663
opposait	-12.2663
▁1226-14	-12.2663
▁21-18.5	-12.2663
▁Deutsch	-12.2663
▁Ekip	-12.2663
▁boissons	-12.2663
▁conférer	-12.2663
▁expédié	-12.2663
▁ferroviaire	-12.2663
▁justiciable	-12.2663
▁licencier	-12.2663
▁préposé	-12.2663
▁ravalement	-12.2663
▁supprimer	-12.2663
perche	-12.2663
▁aviation	-12.2663
▁22-20.0	-12.2663
▁jardin	-12.2663
▁Clos	-12.2663
▁Fides	-12.2663
▁20-22.	-12.2663
▁actualisé	-12.2663
▁muni	-12.2663
▁préambule	-12.2664
▁acheté	-12.2664
▁Mise	-12.2665
établissaient	-12.2665
▁déroger	-12.2665
▁piscine	-12.2667
issait	-12.2668
▁bière	-12.2668
▁relaxer	-12.2672
▁révéler	-12.2672
▁distinguer	-12.2673
alité	-12.268
▁convertie	-12.2684
▁5°)	-12.2686
▁anglaise	-12.2689
▁apparent	-12.2691
▁chiffré	-12.2693
▁Delta	-12.2695
▁exécutés	-12.2696
▁justement	-12.2698
▁auxiliaires	-12.2699
9/22	-12.2703
▁explique	-12.2704
▁insérée	-12.2704
▁arriéré	-12.2706
▁orales	-12.2707
▁entrave	-12.2712
▁sites	-12.2713
▁537	-12.2715
▁intégralité	-12.2716
067	-12.2724
compte	-12.2724
▁Col	-12.2724
200	-12.2732
naire	-12.274
▁intervenants	-12.2743
TX	-12.2746
obligeant	-12.2747
▁virements	-12.2751
prod	-12.2753
▁Cham	-12.2759
▁verse	-12.2761
▁coûts	-12.2762
▁apposée	-12.2767
▁réclamés	-12.2767
▁électorale	-12.2773
▁assurées	-12.2774
▁appropriée	-12.2783
évidence	-12.2786
production	-12.2787
Corse	-12.2787
avec	-12.2787
vingt	-12.2787
▁suspendue	-12.2792
▁139	-12.2796
▁arrière	-12.2797
▁Fils	-12.2801
droit	-12.2802
▁agréée	-12.2806
▁témoignage	-12.2807
▁135	-12.2809
▁arbitraire	-12.2815
▁qualifications	-12.2829
▁rapproch	-12.2831
▁174	-12.2831
▁décerné	-12.2842
WY	-12.2843
▁virtuel	-12.2848
▁(11	-12.2851
▁contraint	-12.2853
▁rectifi	-12.2853
▁pleine	-12.2854
▁classe	-12.2858
▁Ke	-12.2866
▁précède	-12.2869
▁concept	-12.287
▁Moneta	-12.2871
▁Yvelines	-12.2871
▁apparthôtels	-12.2871
▁compagne	-12.2871
▁détourné	-12.2871
▁gauche	-12.2871
▁indifférent	-12.2871
▁parasitisme	-12.2871
▁résidant	-12.2871
▁résilier	-12.2871
▁sportif	-12.2871
▁homologué	-12.2871
▁Nantes	-12.2871
▁série	-12.2871
6/23	-12.2872
▁perdre	-12.2873
▁diriger	-12.2873
▁franchiseur	-12.2873
évinçaient	-12.2873
▁bord	-12.2873
▁saisissant	-12.2874
▁continuation	-12.2874
▁revendiquer	-12.2874
▁Garage	-12.2874
▁colis	-12.2875
▁nés	-12.2875
▁redevables	-12.2877
▁correspondaient	-12.2878
▁remettant	-12.2878
▁cite	-12.2878
▁courtier	-12.2879
▁initiative	-12.2894
▁réservation	-12.2896
▁adjoint	-12.2897
2/22	-12.2897
pli	-12.2899
▁conformer	-12.2901
group	-12.2902
19-10	-12.2903
▁affecter	-12.2906
▁gérance	-12.2913
▁Espace	-12.2915
amb	-12.2918
▁final	-12.2923
▁notariale	-12.2926
DN	-12.2932
▁trouvée	-12.2934
heure	-12.2936
gnant	-12.2937
▁565	-12.2939
Pau	-12.2943
▁déf	-12.2945
▁appliquées	-12.2948
audit	-12.2957
▁classé	-12.2962
▁pécuniaires	-12.2966
▁ouverts	-12.297
5/22	-12.2973
009	-12.2973
▁protégée	-12.2975
▁proposée	-12.2979
32-4	-12.2985
▁alimentaires	-12.2987
▁classée	-12.2991
▁reçus	-12.2994
imposait	-12.2999
quer	-12.3006
▁665,	-12.3006
CGT	-12.301
BAT	-12.3014
▁113	-12.3023
TAG	-12.3028
lire	-12.3028
▁123	-12.303
▁probant	-12.3033
▁indication	-12.3033
▁jou	-12.3046
▁461	-12.3048
▁414	-12.3052
▁dévolution	-12.3054
▁Arca	-12.3058
▁OP	-12.3071
▁lignes	-12.3078
▁régiss	-12.3081
▁criminel	-12.3082
onfédération	-12.3083
tôt	-12.3083
évasion	-12.3084
▁22-23.1	-12.3084
▁Airbus	-12.3084
▁Chubb	-12.3084
▁Sarthe	-12.3084
▁capitaux	-12.3084
▁certes	-12.3084
▁dérisoire	-12.3084
▁fuite	-12.3084
▁minute	-12.3084
▁poids	-12.3084
▁reconstruction	-12.3084
▁rugby	-12.3084
▁préconisations	-12.3084
▁soumission	-12.3084
▁corruption	-12.3084
▁messagerie	-12.3084
attitude	-12.3085
▁naître	-12.3085
▁institutions	-12.3085
▁GRD	-12.3085
▁monde	-12.3086
1/23	-12.3086
▁117	-12.3087
▁Bourge	-12.3087
7/22	-12.3089
▁1121-1	-12.3091
▁intermédiaire	-12.3093
▁dépendant	-12.3093
HLM	-12.3095
▁ordonnées	-12.3099
▁situe	-12.3101
▁allemand	-12.3102
▁confier	-12.3102
appréci	-12.3104
▁Media	-12.312
▁1980	-12.3126
▁irrévocablement	-12.3132
▁imprécise	-12.3132
▁courante	-12.3133
▁314-1	-12.3135
▁indiquée	-12.3137
PO	-12.314
ood	-12.3147
agression	-12.3152
▁obtenues	-12.3155
▁imputation	-12.3156
▁mensuelles	-12.3162
▁consécutifs	-12.3166
oyer	-12.3167
▁décomptes	-12.3168
atif	-12.3178
▁préconisé	-12.3179
▁assister	-12.3191
▁administratifs	-12.3192
cte	-12.32
échange	-12.3217
Pays	-12.3217
Colmar	-12.3217
▁réputés	-12.3218
appartient	-12.3218
exploitant	-12.322
▁110	-12.323
entité	-12.3235
▁u	-12.3242
▁interprétés	-12.3246
▁ADP	-12.3265
argument	-12.3271
0/22	-12.3273
▁calculer	-12.3285
tie	-12.3286
/2023	-12.3294
▁reconnaît	-12.3299
▁recueil	-12.3301
▁concession	-12.3301
AGRASC	-12.3301
ONIAM	-12.3301
▁Crèche	-12.3301
▁GAEC	-12.3301
▁Sodimas	-12.3301
▁allouant	-12.3301
▁fiscaux	-12.3301
▁incombant	-12.3301
▁intermittent	-12.3301
▁maternité	-12.3301
▁négative	-12.3301
▁onéreux	-12.3301
▁persona	-12.3301
▁religion	-12.3301
▁rétrocession	-12.3301
▁sciemment	-12.3301
▁scientifique	-12.3301
▁survivant	-12.3301
▁éducative	-12.3301
▁Bolt	-12.3301
▁profil	-12.3301
▁1232-6	-12.3301
▁Montfort	-12.3301
▁retiré	-12.3301
▁démontraient	-12.3302
▁préfecture	-12.3302
▁commissionnaire	-12.3302
▁compromettre	-12.3303
▁Melun	-12.3303
▁interim	-12.3303
▁Drôme	-12.3304
XM	-12.3305
▁validant	-12.3308
▁prolonger	-12.331
▁434-1	-12.331
▁choisir	-12.331
▁dessaisi	-12.3312
ESF	-12.3312
3-6	-12.3314
▁connue	-12.3317
▁torture	-12.3318
050	-12.3318
▁270	-12.332
▁biennale	-12.3323
▁clôturée	-12.3326
▁transactionnel	-12.333
▁diffamatoires	-12.3334
▁CCP	-12.3336
immobilisation	-12.3336
▁1242-1	-12.3349
▁immatriculée	-12.3358
▁contredire	-12.3362
▁échec	-12.3366
vider	-12.3374
▁évidence	-12.339
8]),	-12.3392
▁internes	-12.3393
▁23-17.	-12.3412
▁fautifs	-12.3415
▁journées	-12.3419
▁époque	-12.3421
activ	-12.3429
RY	-12.3435
▁fai	-12.3438
inscrit	-12.3439
perçu	-12.3439
▁semi	-12.3442
alys	-12.3457
▁préjudiciable	-12.3458
▁similaire	-12.3458
▁soin	-12.3461
▁médicales	-12.3464
▁intervenante	-12.3466
▁désignations	-12.3467
▁inventaire	-12.3468
Vienne	-12.3469
▁arrêtés	-12.347
▁351-1	-12.3482
▁Charente	-12.3483
▁exploite	-12.3496
tel	-12.3506
▁unilatéral	-12.3507
▁édifiée	-12.3508
▁loyale	-12.3511
accompagn	-12.3518
intim	-12.3522
▁assimilé	-12.3523
▁Brasserie	-12.3523
▁Estimant	-12.3523
▁Griel	-12.3523
▁Montreuil	-12.3523
▁collectées	-12.3523
▁multiples	-12.3523
▁soutiennent	-12.3523
▁Lidl	-12.3524
▁Palais	-12.3524
▁canalisation	-12.3524
▁Axyme	-12.3524
▁déshabillage	-12.3524
▁1226-2	-12.3524
▁Center	-12.3524
emplacement	-12.3524
▁modulation	-12.3524
▁Nice	-12.3525
▁Teva	-12.3526
▁train	-12.353
▁rétablissement	-12.353
▁impliquait	-12.3532
▁22-18.6	-12.3533
▁objectivement	-12.3543
dentistes	-12.3543
5/23	-12.3546
▁abstenue	-12.3548
tero	-12.3549
▁fausses	-12.3551
▁CEGC	-12.3551
▁originaires	-12.3552
▁fruits	-12.3554
▁1967	-12.3559
▁examens	-12.3561
fo	-12.3571
▁20-15	-12.3593
▁péremptoires	-12.3601
actionnaire	-12.3603
▁souhaité	-12.3605
▁Am	-12.3611
▁imposait	-12.3613
111	-12.3617
alcool	-12.362
▁commet	-12.362
▁objectives	-12.3624
▁placées	-12.3624
▁comprendr	-12.3627
▁couru	-12.3632
▁envoyée	-12.3633
▁for	-12.3641
▁étude	-12.3641
cours	-12.3643
▁The	-12.3649
orm	-12.3657
SMABTP	-12.3667
▁acquises	-12.3667
ologique	-12.3667
eoir	-12.3678
▁limitations	-12.3678
▁conducteurs	-12.3678
▁réceptionné	-12.3681
▁proche	-12.3687
▁situées	-12.3688
22-6	-12.369
▁écoulé	-12.3695
▁485	-12.37
▁paragraphes	-12.3711
▁crédits	-12.3714
2-6	-12.3716
apparaissait	-12.372
▁critiquée	-12.3724
▁abstenu	-12.3726
▁allemande	-12.3732
▁ministériel	-12.3736
JF	-12.3741
▁anormale	-12.3745
▁Dr	-12.3746
▁2016-1	-12.3747
▁380	-12.3748
initié	-12.375
Declère	-12.3751
▁Bobigny	-12.3751
▁Gesdom	-12.3751
▁Immobilier	-12.3751
▁Juan	-12.3751
▁crise	-12.3751
▁dignité	-12.3751
▁discuter	-12.3751
▁détaché	-12.3751
▁gagner	-12.3751
▁imposable	-12.3751
▁indifférenciée	-12.3751
▁lucratif	-12.3751
▁marketing	-12.3751
▁opératoire	-12.3751
▁perçoit	-12.3751
▁subrogatoire	-12.3751
▁discrétionnaire	-12.3751
▁spontané	-12.3751
▁chute	-12.3751
▁contentant	-12.3751
▁Energy	-12.3751
▁retranchement	-12.3751
▁fasse	-12.3751
▁313-2	-12.3751
▁taxi	-12.3751
▁Niort	-12.3751
▁suppléant	-12.3752
▁expliqué	-12.3753
▁commercialisé	-12.3753
▁procuration	-12.3753
2/23	-12.3754
▁pèse	-12.3754
ède	-12.3754
associée	-12.3756
▁facturé	-12.3766
▁contenter	-12.3769
▁échange	-12.3775
infirmière	-12.3782
▁films	-12.3782
imprécision	-12.3795
▁survenus	-12.3797
▁Capital	-12.3803
▁584	-12.3807
▁répar	-12.3808
rée	-12.3812
▁gré	-12.3812
▁essentiels	-12.3812
▁utilisées	-12.3813
issant	-12.3819
équilibre	-12.3826
▁restée	-12.3828
▁heurt	-12.3828
engendrer	-12.3833
▁annulées	-12.3837
tru	-12.3843
▁extraits	-12.3848
arr	-12.3858
7]),	-12.3859
aissent	-12.3864
389	-12.3866
▁cesse	-12.3866
▁modèles	-12.3867
▁131	-12.3868
VY	-12.3881
▁220	-12.3886
engageait	-12.3889
▁458	-12.3892
▁475	-12.3894
empêchement	-12.3899
excéd	-12.3899
Sophi	-12.3899
accomplir	-12.3899
▁Hug	-12.39
soit	-12.39
rim	-12.3901
▁Maisons	-12.391
▁impôt	-12.3912
▁journaliste	-12.3918
▁frère	-12.3918
bio	-12.3925
ze	-12.3925
▁Port	-12.3926
▁publiés	-12.3929
▁signifiées	-12.393
▁plafonds	-12.3932
TGA	-12.3932
▁2261	-12.3935
▁fourniss	-12.3939
Bas	-12.3955
▁fondation	-12.3955
▁indemnisés	-12.3967
▁dénonce	-12.3972
aptitude	-12.3982
blocage	-12.3983
érogé	-12.3983
▁AIFM	-12.3983
▁Finamur	-12.3983
▁Maitral	-12.3983
▁charte	-12.3983
▁complexité	-12.3983
▁restreint	-12.3983
▁retrouvé	-12.3983
▁suffire	-12.3983
▁débattus	-12.3983
▁22-21.5	-12.3983
▁Berry	-12.3983
▁RATP	-12.3983
▁1471-1	-12.3983
▁Tours	-12.3984
▁infiltrations	-12.3984
7/23	-12.3984
▁223-2	-12.3984
▁initiée	-12.3984
▁démissionné	-12.3984
aujour	-12.3984
▁Desport	-12.3984
▁affections	-12.3984
▁137-3	-12.3985
encadrement	-12.3986
▁désaccord	-12.3987
▁LBI	-12.3988
▁Guy	-12.3989
▁[10],	-12.3993
▁attendu	-12.3995
▁311-2	-12.3997
évacuation	-12.3998
▁édifié	-12.3999
▁[11],	-12.4001
▁armé	-12.4002
▁traduis	-12.4004
▁CARSAT	-12.4004
▁répondait	-12.4007
▁précarité	-12.4008
▁Rev	-12.4012
▁mairie	-12.4012
▁hommes	-12.4012
▁202	-12.4018
indique	-12.4027
mic	-12.403
▁chirurgiens	-12.4032
▁passagers	-12.4033
▁incrimination	-12.4035
▁attribution	-12.404
▁CFE	-12.404
▁590	-12.4041
▁réitéré	-12.4062
▁respectant	-12.4068
▁formul	-12.4081
▁109	-12.4085
▁Merc	-12.4093
▁électoral	-12.4094
▁Gar	-12.4101
▁détaill	-12.4106
endettement	-12.4107
▁emprunté	-12.4108
▁dépass	-12.4115
envisager	-12.4117
KN	-12.4133
essentiel	-12.4137
Algérie	-12.4137
Auvergne	-12.4137
service	-12.4138
point	-12.4138
Rouen	-12.4138
élud	-12.4148
▁voyage	-12.4155
▁logiciel	-12.4156
▁modalité	-12.4157
▁cédée	-12.4165
▁Royaume	-12.4166
▁mandaté	-12.4167
experts	-12.4168
interrompre	-12.4171
enfin	-12.4171
▁Med	-12.4175
▁éloignement	-12.4176
▁imposer	-12.4177
lac	-12.4178
▁recommandées	-12.4199
▁provisionnel	-12.4203
MF	-12.4203
▁rencontrée	-12.4209
itan	-12.4213
41-5	-12.4215
▁déroge	-12.4218
usufruit	-12.4219
▁utilisation	-12.4221
amélioration	-12.4221
abstenir	-12.4221
emprise	-12.4221
▁1233-4	-12.4221
▁Altamir	-12.4221
▁Bristol	-12.4221
▁Fiumarella	-12.4221
▁Syntec	-12.4221
▁abrogé	-12.4221
▁artistique	-12.4221
▁ascendant	-12.4221
▁dégénér	-12.4221
▁incomplet	-12.4221
▁méconnaissent	-12.4221
▁médiateur	-12.4221
▁prorata	-12.4221
▁reproduit	-12.4221
▁réitération	-12.4221
▁signalétiques	-12.4221
▁thérapeutique	-12.4221
▁vraisemblable	-12.4221
▁vénale	-12.4221
▁épuisé	-12.4221
AARPI	-12.4221
▁probable	-12.4221
▁CFTC	-12.4221
▁processus	-12.4221
▁interviendra	-12.4222
▁442-6	-12.4222
▁Manoir	-12.4222
▁Domino	-12.4222
▁rapprochement	-12.4222
ariel	-12.4222
▁Marine	-12.4223
▁FHB	-12.4224
▁consentis	-12.4224
inland	-12.4224
▁2019-22	-12.4225
▁1224-1	-12.4225
▁causal	-12.4226
▁FYBE	-12.4227
▁illicites	-12.4232
▁121-3	-12.4234
▁Soc	-12.4236
▁Vol	-12.4236
ITU	-12.4237
▁sollicitées	-12.4244
343-2	-12.4244
▁Sc	-12.4247
▁engage	-12.4249
▁respectifs	-12.4249
abrique	-12.425
assistante	-12.4251
▁Cie	-12.4252
attendre	-12.4253
▁21/0	-12.4254
▁souhaite	-12.4255
▁réciproques	-12.4266
▁enregistrement	-12.4267
▁signées	-12.4267
23-16	-12.4267
▁Spa	-12.4278
▁établisse	-12.4279
5/	-12.4285
▁achèvement	-12.4285
▁formations	-12.4285
▁remett	-12.4286
traité	-12.4289
hom	-12.4289
▁préjudiciables	-12.4292
▁invest	-12.4293
▁entendus	-12.4295
▁interdite	-12.4295
▁comités	-12.4296
SK	-12.4298
▁873	-12.4298
lor	-12.4306
8/22	-12.4312
▁acquérir	-12.4325
▁écartés	-12.4328
▁trajets	-12.4328
▁confiés	-12.433
▁tranches	-12.4338
▁460	-12.4348
▁matérielles	-12.4359
▁terre	-12.4371
▁juridiquement	-12.4373
827	-12.4375
▁différences	-12.4375
▁CNA	-12.4377
786	-12.4378
extrait	-12.4381
▁aboutir	-12.4381
Poitiers	-12.4381
▁consenties	-12.4391
▁importantes	-12.4396
▁militaire	-12.44
▁vexatoire	-12.44
▁ordinaire	-12.44
▁locative	-12.44
istant	-12.4402
▁humaine	-12.4404
asso	-12.4423
▁visites	-12.4434
▁remplacé	-12.4435
▁causée	-12.4439
VV	-12.4447
▁fondamental	-12.4447
▁rétroactive	-12.4452
▁annexes	-12.4454
▁153	-12.4458
▁investie	-12.4461
▁14-1	-12.4462
▁reprend	-12.4463
ê	-12.4465
▁transmet	-12.4465
EHPAD	-12.4465
▁Atalian	-12.4465
▁Ensuite	-12.4465
▁Propreté	-12.4465
▁boîte	-12.4465
▁bruit	-12.4465
▁consistait	-12.4465
▁hormis	-12.4465
▁marchand	-12.4465
▁matérialis	-12.4465
▁productivité	-12.4465
▁renvoyant	-12.4465
▁reçoit	-12.4465
▁récompense	-12.4465
▁résultaient	-12.4465
▁solidité	-12.4465
▁sommation	-12.4465
▁gardien	-12.4465
▁révèle	-12.4465
imprudence	-12.4465
▁puissance	-12.4465
▁244-2	-12.4465
▁spécificité	-12.4465
▁FGTI	-12.4465
▁Mission	-12.4465
▁répétés	-12.4465
▁définissant	-12.4465
▁liquidatrice	-12.4465
▁avenue	-12.4466
▁inapplicable	-12.4466
▁18-24.	-12.4466
▁CDR	-12.4466
0/23	-12.4467
▁continuité	-12.4467
▁remplacer	-12.4467
▁Caza	-12.4468
3/23	-12.4468
▁roulant	-12.4468
▁niveaux	-12.4469
▁réparable	-12.447
▁suppléer	-12.447
▁revers	-12.4471
▁limitativement	-12.4471
▁définit	-12.4473
▁prothèses	-12.4473
utualité	-12.4474
▁OPer	-12.4481
▁Food	-12.4484
▁321-1	-12.4484
▁essentiel	-12.4485
▁murs	-12.4488
ind	-12.4492
▁118	-12.4496
▁obtenue	-12.4497
▁quittances	-12.45
5]),	-12.4504
▁1719	-12.4504
▁stratégiques	-12.4505
ug	-12.4506
▁[8]	-12.4507
231-1	-12.451
▁opposables	-12.4515
▁140	-12.4515
dine	-12.4516
▁secours	-12.4517
▁relaté	-12.4518
▁vendus	-12.4525
allait	-12.453
▁form	-12.4531
▁réprime	-12.4537
élécommunication	-12.4539
▁espagnol	-12.454
▁sub	-12.4543
2]),	-12.4543
▁imposition	-12.4546
▁Algérie	-12.4553
12-4	-12.4554
▁avérée	-12.4555
▁corporels	-12.4561
▁464	-12.4566
▁légitimes	-12.4568
ouche	-12.4572
▁expertises	-12.4572
▁reconnus	-12.4577
▁cumulé	-12.458
▁236	-12.4581
▁octroyé	-12.4581
▁mouvements	-12.4585
▁641	-12.4589
▁concerté	-12.4592
▁notifiés	-12.4592
▁enlèvement	-12.4593
▁administrateurs	-12.4594
▁125	-12.4595
tation	-12.4599
▁propose	-12.4601
▁insuffisantes	-12.4605
▁Audi	-12.4615
▁230	-12.4616
▁réduite	-12.4618
▁prouvé	-12.4621
▁369	-12.4623
Hél	-12.463
imputation	-12.4631
▁réitérée	-12.4631
▁pertinent	-12.4631
Chambéry	-12.4631
invoquer	-12.4634
rendu	-12.4636
rice	-12.4648
▁bar	-12.465
▁ressortissant	-12.4651
▁souligne	-12.4652
▁italienne	-12.4654
▁intentionnel	-12.4656
▁fonctionnaire	-12.4659
▁No	-12.4662
/19	-12.4662
▁consultant	-12.4665
GF	-12.4666
▁accordées	-12.4671
▁annul	-12.4679
occupant	-12.4681
MAF	-12.4682
▁anglais	-12.4684
Pas	-12.4685
fic	-12.4694
▁ultérieur	-12.4697
▁centrales	-12.4697
▁petite	-12.4699
▁incluse	-12.47
▁fournie	-12.47
▁Non	-12.4701
11-5	-12.4702
ARS	-12.4704
▁suffis	-12.4707
▁tri	-12.471
endroit	-12.4711
▁concubin	-12.4715
CTION	-12.4715
▁Meurthe	-12.4715
antériorité	-12.4715
embarquement	-12.4715
incertitude	-12.4715
▁22-83.9	-12.4715
▁Beauty	-12.4715
▁Carglass	-12.4715
▁Corporation	-12.4715
▁Daiichi	-12.4715
▁Exane	-12.4715
▁Films	-12.4715
▁Hydroption	-12.4715
▁Polytiane	-12.4715
▁chirographaire	-12.4715
▁déconfiture	-12.4715
▁irrémédiable	-12.4715
▁manager	-12.4715
▁participant	-12.4715
▁préexistant	-12.4715
▁raccordement	-12.4715
▁secrétariat	-12.4715
▁soulever	-12.4715
▁exposait	-12.4715
▁instituteur	-12.4715
▁Asset	-12.4715
▁contenir	-12.4716
▁Franc	-12.4716
équité	-12.4716
▁contracter	-12.4716
▁pharmacie	-12.4716
▁percevait	-12.4716
▁contredit	-12.4716
alliance	-12.4716
▁substituant	-12.4717
4/23	-12.4717
▁2016-3	-12.4717
▁achats	-12.4718
▁Rhe	-12.4719
▁Suez	-12.4719
▁1226-10	-12.4719
▁ajout	-12.4723
▁exprès	-12.4724
▁contribuer	-12.4724
▁autoriser	-12.4725
▁entendait	-12.4726
▁indivision	-12.4727
▁régulières	-12.4728
▁infondé	-12.473
adéquation	-12.4734
257	-12.4734
▁parental	-12.4737
OPH	-12.4738
▁relat	-12.4741
▁Mone	-12.4751
Val	-12.4751
pole	-12.4753
▁exploitations	-12.4753
▁1741	-12.4757
▁1974	-12.4759
▁adversaire	-12.4764
▁441-1	-12.4765
▁veiller	-12.4769
itro	-12.4773
ouvrir	-12.4778
▁avertissement	-12.4783
▁cote	-12.4785
▁opérer	-12.4786
nova	-12.4789
▁136	-12.4792
▁145-2	-12.4793
▁critiquées	-12.4795
raient	-12.4795
▁diplômes	-12.4798
▁cédants	-12.4804
32-3	-12.4805
▁patients	-12.4812
érité	-12.4812
▁1034	-12.4813
▁détaillée	-12.4821
▁envisage	-12.4829
▁poursuivies	-12.4836
▁3.3	-12.4839
▁40],	-12.4845
▁pourvus	-12.4847
▁événements	-12.4848
258	-12.4869
5-5	-12.4871
venant	-12.4872
▁228	-12.4875
▁ajouter	-12.4879
inco	-12.4881
▁illégal	-12.4883
arrivée	-12.4887
performance	-12.4887
nalité	-12.489
inviter	-12.4895
711	-12.4897
▁détaillé	-12.4898
olf	-12.4899
▁resté	-12.4905
accepter	-12.4906
▁127	-12.4907
▁débuté	-12.4908
▁contrôlé	-12.4913
voir	-12.4916
▁séparé	-12.4922
▁atteste	-12.4923
▁départements	-12.4931
chet	-12.494
▁euro	-12.4941
flo	-12.4949
▁transfér	-12.4954
▁121-2	-12.4957
▁chaud	-12.4957
▁infirme	-12.496
▁pages	-12.4968
▁accidentel	-12.4969
▁indemnise	-12.497
arbitre	-12.4971
▁CONST	-12.4972
▁2002/58	-12.4972
▁contigu	-12.4972
Amsellem	-12.4972
Gougeon	-12.4972
Hérault	-12.4972
hôpital	-12.4972
innocence	-12.4972
offrant	-12.4972
▁22-22.0	-12.4972
▁Altarea	-12.4972
▁Communication	-12.4972
▁Consulting	-12.4972
▁Credinvest	-12.4972
▁Guérin	-12.4972
▁Mercedes	-12.4972
▁Versicherung	-12.4972
▁World	-12.4972
▁censuré	-12.4972
▁confrontation	-12.4972
▁convaincre	-12.4972
▁dimanche	-12.4972
▁disposaient	-12.4972
▁inutile	-12.4972
▁majoritaire	-12.4972
▁permanence	-12.4972
▁pourcentage	-12.4972
▁restreindre	-12.4972
▁plancher	-12.4972
EPFR	-12.4972
▁HPVI	-12.4972
Anneau	-12.4972
▁Carrier	-12.4972
▁mines	-12.4972
▁grossesse	-12.4972
▁créatif	-12.4972
▁sortir	-12.4972
apparence	-12.4972
Allier	-12.4972
▁Solar	-12.4972
▁regroup	-12.4972
▁revenir	-12.4972
aménager	-12.4973
8/23	-12.4973
▁Location	-12.4973
▁tableaux	-12.4975
▁répétée	-12.4977
▁caractérisent	-12.4978
harmacie	-12.4981
▁distingue	-12.4982
▁[14],	-12.4984
▁session	-12.4985
▁Thé	-12.4985
▁exemple	-12.4986
▁humains	-12.4986
▁coup	-12.4991
▁échéancier	-12.4997
▁hausse	-12.5002
conseils	-12.5003
▁actionnaire	-12.5004
▁import	-12.5009
opér	-12.501
▁2017-1	-12.5014
oris	-12.5016
▁1973	-12.5018
▁souligné	-12.5022
aters	-12.5034
▁écoulée	-12.5035
▁extension	-12.5036
▁engendré	-12.504
cent	-12.5041
▁Investment	-12.5043
▁(8	-12.5043
▁Rameix	-12.5047
▁(15	-12.5049
▁Vic	-12.505
▁Française	-12.5059
▁hôtels	-12.5063
▁Hugo	-12.5066
hon	-12.5075
▁installé	-12.5076
▁langues	-12.5076
interdire	-12.508
▁scolaires	-12.5082
▁haute	-12.5084
125	-12.5088
▁271	-12.5089
▁rappelait	-12.5094
dic	-12.51
ieu	-12.5103
▁Sch	-12.5106
▁Mutuelles	-12.5113
▁adapté	-12.5119
▁réservée	-12.5126
▁concour	-12.513
▁immunité	-12.5131
cas	-12.5134
ification	-12.5137
▁exploiter	-12.514
invoque	-12.5148
invest	-12.515
type	-12.5151
international	-12.5151
restitution	-12.5151
▁copies	-12.5153
▁bilans	-12.5156
1]),	-12.5168
▁155	-12.5169
▁psychiatrique	-12.517
▁simples	-12.5172
▁élevée	-12.5177
▁révélée	-12.5186
▁adoption	-12.5186
▁majorée	-12.5193
▁intégrée	-12.5199
évoque	-12.5201
▁885-	-12.5203
▁explication	-12.5205
▁intéress	-12.5206
▁116	-12.5209
1-3)	-12.5215
▁désignées	-12.5215
▁anticipé	-12.5217
Cons	-12.5219
▁échapp	-12.5221
▁renonce	-12.5224
▁Gui	-12.5228
▁délictuel	-12.5231
▁JUST	-12.5235
entretenir	-12.5235
▁244-9	-12.5235
▁Gaillardot	-12.5235
▁IRRECEVABILITE	-12.5235
▁PRIORITAIRE	-12.5235
▁QUESTION	-12.5235
▁Sogea	-12.5235
▁calomnieuse	-12.5235
▁comportaient	-12.5235
▁compréhensible	-12.5235
▁marche	-12.5235
▁micro	-12.5235
▁multirisque	-12.5235
▁russe	-12.5235
Ardenne	-12.5235
▁22-21.2	-12.5235
▁OPerOff	-12.5235
▁incontestable	-12.5235
▁praticien	-12.5235
▁réplique	-12.5235
▁susmentionné	-12.5235
Opale	-12.5235
▁Music	-12.5235
▁3253-	-12.5235
▁abandonné	-12.5235
▁LMNJ	-12.5235
balance	-12.5235
▁football	-12.5235
▁mettait	-12.5235
▁gaz	-12.5235
▁Multi	-12.5235
▁chaîne	-12.5235
allye	-12.5236
▁rue	-12.5236
▁38,5	-12.5236
▁Fiducial	-12.5236
▁apte	-12.5236
CEDH	-12.5236
ITÉ	-12.5237
▁3253-8	-12.5237
▁Indi	-12.5238
▁utilisant	-12.5238
▁concernaient	-12.5238
▁rang	-12.5239
▁1411-1	-12.5239
▁emportant	-12.524
▁récupérer	-12.5241
▁inégalité	-12.5247
▁universelle	-12.5249
▁circonstanciés	-12.5252
Ass	-12.5253
▁répare	-12.5255
▁punis	-12.5255
cation	-12.5257
▁1245-1	-12.526
▁plaidoiries	-12.526
▁induit	-12.5262
▁alerte	-12.5263
édition	-12.5265
▁naturelle	-12.5266
▁plaques	-12.5267
22-21	-12.5268
▁1969	-12.5274
▁atteindre	-12.5275
▁mariés	-12.5276
▁CESEDA	-12.5279
▁emport	-12.5288
▁stocks	-12.529
▁reprocher	-12.5291
▁1234	-12.5294
▁conclues	-12.5296
essai	-12.5296
▁réglées	-12.5303
▁locatives	-12.5306
▁431	-12.5306
▁stricte	-12.5308
▁Ax	-12.5309
lais	-12.5313
▁connus	-12.5314
▁IDE	-12.5324
▁[19]	-12.5326
▁équipe	-12.5326
▁444	-12.5329
▁mails	-12.5339
hé	-12.5348
imo	-12.5349
loc	-12.5354
▁col	-12.5355
404	-12.5358
▁contour	-12.5365
▁représentés	-12.5374
▁fa	-12.5377
▁substitués	-12.5379
apporte	-12.5382
▁admet	-12.5393
11-1	-12.5394
▁affirmations	-12.5396
14-3	-12.5402
▁Haut	-12.5417
▁propositions	-12.5418
exproprié	-12.5421
espace	-12.5421
influence	-12.5421
première	-12.5421
épouse	-12.5421
qualités	-12.5421
▁128	-12.5424
▁dispensée	-12.5429
▁concerner	-12.543
▁3/	-12.5433
500	-12.5434
ambert	-12.5437
▁tutelle	-12.5439
▁collaborateur	-12.544
▁intercommunal	-12.5446
▁267	-12.5464
rot	-12.5465
▁indice	-12.5474
acl	-12.5474
▁augmenté	-12.5476
42-1	-12.5477
▁concurrentielle	-12.5482
vant	-12.5483
354	-12.5485
lev	-12.5485
▁exposée	-12.5486
▁DESIGN	-12.5495
▁ADMI	-12.55
▁inadapté	-12.5502
Assurance	-12.5505
▁dévolu	-12.5505
analysait	-12.5505
aéroport	-12.5505
▁2008-561	-12.5505
▁22-24.5	-12.5505
▁Gefco	-12.5505
▁Guedj	-12.5505
▁Tendances	-12.5505
▁aménagé	-12.5505
▁endurées	-12.5505
▁fortiori	-12.5505
▁president	-12.5505
▁réticence	-12.5505
▁Fidal	-12.5505
▁Signature	-12.5505
▁jury	-12.5505
▁signalé	-12.5505
▁22-21.6	-12.5505
▁Logi	-12.5505
▁disparaître	-12.5505
▁constructible	-12.5505
▁bassin	-12.5505
▁18-25.	-12.5505
▁samedi	-12.5505
▁promu	-12.5505
▁occulte	-12.5505
▁soeur	-12.5505
▁433-4	-12.5505
▁utilisateurs	-12.5506
▁jouir	-12.5506
▁améliorations	-12.5506
▁Eden	-12.5506
▁nécessitant	-12.5506
▁questionnaire	-12.5507
▁fut	-12.5507
▁jeux	-12.5508
▁occasionné	-12.5508
intéressement	-12.5508
▁souhaitait	-12.5512
ater	-12.5512
▁explicitement	-12.5514
▁211-1	-12.5514
▁entente	-12.5515
▁recouvrer	-12.5515
tenait	-12.5516
indivisaire	-12.552
▁déni	-12.5522
▁Orange	-12.5527
▁exposer	-12.5527
▁figurai	-12.5529
sceau	-12.5531
▁numéroté	-12.5532
▁Dis	-12.5536
▁Loiret	-12.5536
▁Blan	-12.554
▁FCT	-12.5541
▁bateau	-12.5542
ace	-12.5542
nom	-12.5542
▁assurés	-12.5546
321	-12.5547
▁134-1	-12.5549
▁1986	-12.5551
▁globalement	-12.5552
▁1972	-12.5555
accorder	-12.5558
expose	-12.5561
▁annoncé	-12.5567
▁échapper	-12.5569
690	-12.557
inverse	-12.5572
822	-12.5576
▁incluses	-12.5585
▁fondations	-12.5585
pour	-12.5586
▁adverses	-12.5602
opposent	-12.5609
▁mots	-12.5616
▁suspensives	-12.5616
▁différends	-12.5618
▁producteurs	-12.5624
▁Tri	-12.5626
▁command	-12.5627
/200	-12.5628
▁proposées	-12.5631
▁Luxembourg	-12.5631
▁messages	-12.564
▁643	-12.5641
▁réintégré	-12.5641
king	-12.5646
▁Im	-12.5653
▁annuelles	-12.5656
actifs	-12.5661
▁3211-	-12.5663
▁tentatives	-12.5666
▁cou	-12.5667
▁techniciens	-12.5669
▁tire	-12.5677
ampleur	-12.5698
aggravation	-12.5698
Metz	-12.5699
pourvoi	-12.5699
affirmer	-12.5701
ode	-12.5704
▁Loc	-12.5706
▁formalisé	-12.5711
▁détruit	-12.5713
▁Cev	-12.5713
▁invers	-12.5719
▁dépassé	-12.5721
▁médecine	-12.5723
6]),	-12.573
lutter	-12.5732
▁autonomie	-12.5733
▁certifi	-12.5734
▁381	-12.5737
▁effectu	-12.5738
▁apparu	-12.574
venti	-12.5743
▁dén	-12.5751
▁5-1	-12.5757
▁1251	-12.5765
▁adhérent	-12.5777
cro	-12.5777
▁pén	-12.5779
icité	-12.578
▁utilisée	-12.578
▁Déclar	-12.5782
ouvrier	-12.5782
▁permuta	-12.5783
SUBSIDIAIRE	-12.5783
▁22-21.8	-12.5783
▁22-22.9	-12.5783
▁Corporate	-12.5783
▁Dépakine	-12.5783
▁Empreinte	-12.5783
▁LVMH	-12.5783
▁MACIF	-12.5783
▁Menuiserie	-12.5783
▁Patrimoine	-12.5783
▁Success	-12.5783
▁billet	-12.5783
▁conjugal	-12.5783
▁consisté	-12.5783
▁disposé	-12.5783
▁insusceptible	-12.5783
▁manipulation	-12.5783
▁menuiserie	-12.5783
▁périodique	-12.5783
▁répressif	-12.5783
▁réversion	-12.5783
▁signalement	-12.5783
▁vétusté	-12.5783
▁19-16.	-12.5783
▁Synergie	-12.5783
échelle	-12.5783
▁séquelles	-12.5783
évince	-12.5783
▁Trois	-12.5783
▁3121-3	-12.5783
▁Offer	-12.5783
▁Messer	-12.5783
▁stable	-12.5783
▁reprenant	-12.5783
▁TGB	-12.5783
▁panne	-12.5783
▁geste	-12.5784
▁trace	-12.5784
▁remont	-12.5784
▁PME	-12.5785
▁biologique	-12.5787
▁sortant	-12.579
▁comparable	-12.5792
▁TM	-12.5792
▁revêtu	-12.5794
▁132-5-	-12.5797
▁rétroactivement	-12.5798
talis	-12.5801
▁accordés	-12.5803
arbre	-12.5806
▁33],	-12.5809
▁1844	-12.5813
▁adresser	-12.5817
▁1957	-12.582
▁confisqués	-12.5821
▁distributeurs	-12.5825
ICA	-12.5825
▁demeurent	-12.5826
▁implants	-12.583
▁Moulins	-12.583
▁diffusé	-12.5833
▁[9],	-12.5835
▁const	-12.5836
▁Spi	-12.5836
effectue	-12.5839
▁médias	-12.5839
▁Ast	-12.5841
▁398	-12.5847
▁collaborateurs	-12.5851
▁1383	-12.5851
4]),	-12.5855
▁32],	-12.5857
5-2	-12.586
▁552	-12.5862
▁politiques	-12.5865
EPA	-12.5867
▁fixes	-12.5867
▁permanents	-12.5869
1076	-12.5871
IME	-12.5873
▁tranchée	-12.5881
▁prestataires	-12.5882
▁temporaires	-12.5885
3]),	-12.5886
▁Mond	-12.589
▁autorisées	-12.5896
▁exprimés	-12.5898
▁facilité	-12.5901
▁architecture	-12.5902
▁sources	-12.591
▁meublés	-12.5912
▁temporairement	-12.5915
▁Espagne	-12.5917
lage	-12.5922
élevage	-12.5928
▁remet	-12.5929
▁710	-12.5932
▁2312-8	-12.5934
eco	-12.5938
▁restaurants	-12.5952
▁1165	-12.5952
▁392	-12.5962
▁plaintes	-12.5967
ancienne	-12.5982
échec	-12.5984
excède	-12.5984
automobile	-12.5985
Hôtel	-12.5985
▁reçues	-12.5987
▁642	-12.5992
outre	-12.5995
indiquer	-12.5996
empêcher	-12.5997
adame	-12.6002
▁compatible	-12.6003
▁culture	-12.6003
▁prohibée	-12.6004
ingénieur	-12.6004
32-2	-12.6005
▁requi	-12.6005
▁test	-12.6006
▁190	-12.6013
▁voté	-12.6013
8-23	-12.6015
▁défaillant	-12.6018
▁révél	-12.6023
▁réparti	-12.6024
▁Scea	-12.6025
▁Morel	-12.6025
▁prorogé	-12.6028
▁fric	-12.6031
▁567	-12.6039
bis	-12.6041
▁procéd	-12.6044
enquêteur	-12.6045
▁voul	-12.6049
▁réglée	-12.605
insu	-12.6055
▁paye	-12.6057
▁Pacific	-12.6058
éca	-12.606
▁132-5	-12.6061
nterruption	-12.6068
▁gouvern	-12.6068
Portugal	-12.6069
adoptant	-12.6069
▁Ambulance	-12.6069
▁Commercial	-12.6069
▁Mulhouse	-12.6069
▁Omega	-12.6069
▁Sankyo	-12.6069
▁Strasbourg	-12.6069
▁aggravante	-12.6069
▁brigade	-12.6069
▁calendrier	-12.6069
▁confronté	-12.6069
▁disparu	-12.6069
▁divulgation	-12.6069
▁fouille	-12.6069
▁guide	-12.6069
▁insurance	-12.6069
▁interpellé	-12.6069
▁mutualiste	-12.6069
▁privilège	-12.6069
▁province	-12.6069
▁prévoyaient	-12.6069
▁reconduit	-12.6069
▁renouvelable	-12.6069
▁restructuration	-12.6069
▁répercussion	-12.6069
▁semble	-12.6069
▁soutenaient	-12.6069
▁stratégie	-12.6069
▁transposition	-12.6069
▁Diane	-12.6069
▁Vassal	-12.6069
▁cedex	-12.6069
▁Vinci	-12.6069
▁fédérale	-12.6069
▁susénoncé	-12.6069
▁2017-89	-12.6069
▁efforts	-12.6069
▁priorité	-12.6069
▁ouvriers	-12.6069
allonge	-12.6069
▁retenait	-12.6069
▁CBM	-12.6069
▁Action	-12.607
altération	-12.607
impôts	-12.607
▁assujettie	-12.607
▁carré	-12.607
▁réclamait	-12.6071
▁133-4	-12.6071
IDI	-12.6072
▁Seul	-12.6072
▁4-5	-12.6072
▁conteneur	-12.6072
▁alléguées	-12.6073
▁remploi	-12.6073
▁annule	-12.6075
▁procèdent	-12.6076
entrent	-12.6079
▁conseillé	-12.6079
core	-12.6081
histo	-12.6084
▁Rep	-12.6086
▁réguliers	-12.6087
▁finale	-12.6087
▁MDD	-12.6091
lak	-12.6097
▁SPL	-12.6097
▁encaissé	-12.6097
▁Dub	-12.61
▁sélection	-12.6102
▁hypermarchés	-12.6112
▁interpellation	-12.6114
▁gardée	-12.6117
lation	-12.6118
▁psychologiques	-12.6121
▁Cut	-12.6122
▁proposant	-12.6122
▁fonctionnelle	-12.6123
▁remboursables	-12.6127
▁multi	-12.613
▁description	-12.6131
▁prohibées	-12.6135
▁147	-12.6143
▁domaines	-12.6143
▁012	-12.6144
▁divise	-12.6144
▁ordinaires	-12.6146
▁voyages	-12.6148
tori	-12.6155
▁avancée	-12.6157
énoncer	-12.6158
▁réservés	-12.6164
▁Plan	-12.6166
▁argué	-12.6174
▁empêchement	-12.6175
▁nord	-12.6175
▁351	-12.6175
entraînement	-12.618
▁concurrentiel	-12.6183
▁tôt	-12.6184
▁électricité	-12.6189
▁adaptée	-12.6196
oulet	-12.6199
246	-12.6202
aille	-12.6202
100	-12.6202
▁entretiens	-12.6209
11-7	-12.621
▁rectifiée	-12.6225
▁agit	-12.6227
oger	-12.6228
▁pratiquées	-12.6231
718	-12.6247
▁Office	-12.6255
▁adhésion	-12.6262
▁déclenche	-12.6264
▁Star	-12.6264
▁170	-12.6273
évalu	-12.6277
▁158	-12.6277
Opéra	-12.6277
Futuna	-12.6278
Louis	-12.6278
employé	-12.6278
extérieur	-12.6278
Reims	-12.6279
▁arrivée	-12.6281
▁311-1	-12.6281
dix	-12.6287
▁706-3	-12.6296
▁structures	-12.6297
rand	-12.6302
▁consult	-12.6311
▁enseigne	-12.6312
▁gardé	-12.6314
▁fondamentale	-12.6318
enseignant	-12.6318
accept	-12.632
opposabilité	-12.6323
▁(17	-12.6327
▁KS	-12.6335
▁refuse	-12.634
▁arriv	-12.6341
▁borné	-12.6344
▁maximal	-12.6344
▁330	-12.6347
lever	-12.6349
▁agissait	-12.6356
issaient	-12.6357
assujetti	-12.6361
explicit	-12.6362
expropriant	-12.6363
èvre	-12.6363
habilleuse	-12.6363
appréhender	-12.6363
▁22-21.3	-12.6363
▁8221-6	-12.6363
▁Amundi	-12.6363
▁Benelux	-12.6363
▁Business	-12.6363
▁Central	-12.6363
▁Créteil	-12.6363
▁Limousin	-12.6363
▁Médicale	-12.6363
▁Prévoyance	-12.6363
▁Socotec	-12.6363
▁conduisant	-12.6363
▁couvrait	-12.6363
▁créancière	-12.6363
▁emphytéotique	-12.6363
▁flagrance	-12.6363
▁laboratoire	-12.6363
▁transparence	-12.6363
▁évident	-12.6363
▁23-12.2	-12.6363
▁DESSAIS	-12.6363
▁FGAO	-12.6363
▁Mayol	-12.6363
▁syrien	-12.6363
▁22-21.1	-12.6363
▁Aditem	-12.6363
▁indéfini	-12.6363
▁négatif	-12.6363
▁Aciers	-12.6363
▁captation	-12.6363
▁numérique	-12.6363
]/[	-12.6363
▁244-1	-12.6363
▁assermenté	-12.6363
▁2020-30	-12.6363
▁trentenaire	-12.6363
▁taille	-12.6364
▁Lors	-12.6364
actionnaires	-12.6364
'[1]	-12.6364
▁114-1	-12.6365
▁intérimaire	-12.6366
agressions	-12.6368
▁211-9	-12.637
▁indiquent	-12.6373
▁exploitée	-12.6375
agne	-12.6377
mon	-12.6377
▁2004/	-12.6378
▁Automobiles	-12.6379
▁dispenser	-12.638
▁surtout	-12.638
estimation	-12.638
▁pleinement	-12.6384
▁nomination	-12.6384
▁administrer	-12.6394
174	-12.6394
▁appliqu	-12.6395
▁Net	-12.6395
offres	-12.6395
▁négocié	-12.6397
▁1215/2012	-12.6397
▁gratuite	-12.6398
aute	-12.6399
▁retrouver	-12.6403
▁323	-12.6404
▁CSEE	-12.6405
▁station	-12.6407
▁délivrées	-12.6409
▁énoncent	-12.6416
▁chantiers	-12.642
▁concrets	-12.6421
▁touch	-12.6436
▁avertissements	-12.644
▁journalistes	-12.6446
▁450	-12.6447
▁Futuna	-12.6448
▁Europ	-12.6449
nam	-12.6453
▁ampleur	-12.6454
amen	-12.6459
ncé	-12.6461
▁3141-3	-12.6462
▁accepter	-12.6463
9]),	-12.6466
exist	-12.6468
▁durable	-12.6471
isme	-12.6472
▁supprimés	-12.6484
227	-12.6487
ool	-12.6494
▁concluant	-12.6501
▁extérieures	-12.6501
▁complét	-12.6502
▁[21]	-12.6504
erriat	-12.6506
523	-12.6508
attribue	-12.6511
▁traitant	-12.6515
▁1224	-12.6519
▁631-1	-12.6528
▁abusives	-12.6531
rth	-12.6543
▁consta	-12.6545
▁conflits	-12.6554
▁acheteur	-12.6562
ttes	-12.6562
▁CHAM	-12.6567
▁réduis	-12.6577
contrefaçon	-12.6582
dans	-12.6586
407	-12.6589
▁326	-12.6597
opérer	-12.6597
▁pharmaceutique	-12.66
▁Toute	-12.6602
▁clé	-12.6606
▁isolé	-12.6608
▁strict	-12.6613
▁passager	-12.6621
▁délivrés	-12.6622
▁perd	-12.6626
▁conten	-12.6638
écriture	-12.6648
▁assume	-12.6648
▁universel	-12.665
▁343	-12.666
▁recev	-12.6663
intégration	-12.6665
▁dégrad	-12.6665
èvement	-12.6666
▁music	-12.6666
applicabilité	-12.6666
dépressif	-12.6666
imposaient	-12.6666
éventualité	-12.6666
▁243-59	-12.6666
▁Aparisi	-12.6666
▁Benoit	-12.6666
▁Justice	-12.6666
▁Londres	-12.6666
▁Lugano	-12.6666
▁Monceau	-12.6666
▁alcoolique	-12.6666
▁appartiennent	-12.6666
▁belge	-12.6666
▁brasserie	-12.6666
▁codébiteur	-12.6666
▁consignes	-12.6666
▁consistance	-12.6666
▁conversation	-12.6666
▁expansion	-12.6666
▁eût	-12.6666
▁faillite	-12.6666
▁fissures	-12.6666
▁guérison	-12.6666
▁inéluctable	-12.6666
▁métallique	-12.6666
▁placier	-12.6666
▁sollicitaient	-12.6666
▁symptômes	-12.6666
▁universitaire	-12.6666
institue	-12.6666
▁Alcatel	-12.6666
▁Poly	-12.6666
▁audiovisuelle	-12.6666
▁22-20.5	-12.6666
▁Corp	-12.6666
▁Marketing	-12.6666
▁masse	-12.6666
▁race	-12.6666
▁adultes	-12.6666
▁récusation	-12.6666
▁706-141	-12.6666
XXXXXXXXX	-12.6666
NIER	-12.6666
▁214-1	-12.6666
▁loueur	-12.6668
ight	-12.6668
Earl	-12.6668
▁IBM	-12.6668
utilisateur	-12.6668
▁3121-2	-12.6669
▁aérienne	-12.667
ong	-12.6671
▁permette	-12.6671
▁LTD	-12.6674
star	-12.6675
opportunité	-12.6675
▁exigeant	-12.6675
▁1]),	-12.6678
▁CGG	-12.6679
▁successorale	-12.6681
▁484	-12.6681
▁officielle	-12.6685
pay	-12.6686
▁commercialise	-12.6693
▁sise	-12.6697
485	-12.6697
pprovisionnement	-12.6701
▁parisiens	-12.6707
▁créditeur	-12.6708
▁pertinentes	-12.6708
▁émettre	-12.671
1-10	-12.6723
▁obstruction	-12.6725
▁mobiliers	-12.6726
3-9	-12.6728
▁561	-12.6737
pposition	-12.6741
▁Hautes	-12.6752
▁déroulé	-12.6762
▁inspecteur	-12.6764
▁1452-	-12.6773
▁correcte	-12.6774
▁accordant	-12.678
▁dressée	-12.678
▁empêchée	-12.678
▁imputées	-12.6784
▁545	-12.6789
▁regardée	-12.6793
▁Mans	-12.6804
▁dénoncer	-12.6806
brogeant	-12.6814
dre	-12.6816
▁renouvelée	-12.6817
▁subit	-12.6817
▁relevées	-12.6827
▁individuels	-12.6829
mast	-12.6833
ling	-12.6835
▁Dev	-12.6864
▁375	-12.6865
▁fais	-12.6873
▁356	-12.6875
empêch	-12.6877
posant	-12.6878
▁entrer	-12.6881
▁Chai	-12.6884
▁géré	-12.6889
allègue	-12.6893
affirmation	-12.6894
Nancy	-12.6894
président	-12.6895
Basse	-12.6895
alors	-12.6895
aléa	-12.6895
▁Vie	-12.6897
▁665	-12.6898
▁interjet	-12.6902
explique	-12.6905
▁souscrites	-12.6908
▁chirurgien	-12.6913
▁stock	-12.6919
▁129	-12.6924
ork	-12.6928
▁déloyal	-12.6943
▁arrêtées	-12.6944
▁dénoncée	-12.6952
▁décennal	-12.6962
▁Lorsqu	-12.6963
627	-12.6964
▁520	-12.6971
▁Côtes	-12.6973
ribunal	-12.6974
▁comparaît	-12.6976
éligibilité	-12.6977
▁transit	-12.6978
▁22-22.4	-12.6978
iogaz	-12.6978
ordinateur	-12.6978
éolia	-12.6978
▁742-5	-12.6978
▁Champalaune	-12.6978
▁Cimeo	-12.6978
▁Derivatives	-12.6978
▁Forêt	-12.6978
▁Marketset	-12.6978
▁Reinier	-12.6978
▁Taurus	-12.6978
▁Transdev	-12.6978
▁béton	-12.6978
▁clerc	-12.6978
▁coiffure	-12.6978
▁company	-12.6978
▁compromissoire	-12.6978
▁conçu	-12.6978
▁descriptif	-12.6978
▁disponibilité	-12.6978
▁douanier	-12.6978
▁douzième	-12.6978
▁déchargé	-12.6978
▁dépossession	-12.6978
▁détachable	-12.6978
▁fictive	-12.6978
▁infructueuse	-12.6978
▁injurieux	-12.6978
▁inopinée	-12.6978
▁instituant	-12.6978
▁intégrant	-12.6978
▁maçonnerie	-12.6978
▁papier	-12.6978
▁prenait	-12.6978
▁produisaient	-12.6978
▁rectificative	-12.6978
▁réussi	-12.6978
▁succinctement	-12.6978
▁suspensif	-12.6978
▁séquestre	-12.6978
▁téléphonie	-12.6978
▁échangés	-12.6978
▁énonçait	-12.6978
pharm	-12.6978
▁23-11.5	-12.6978
▁Tefa	-12.6978
▁efficace	-12.6978
▁gên	-12.6978
▁littéra	-12.6978
▁payable	-12.6978
▁Nexity	-12.6978
▁TOUT	-12.6978
élaboration	-12.6978
▁Dyna	-12.6978
▁comparative	-12.6978
▁tromperie	-12.6979
▁TFC	-12.6979
▁Ipso	-12.6979
▁concouru	-12.6979
▁reproduction	-12.6979
▁peinture	-12.6979
ske	-12.6979
▁452-3	-12.6979
▁immobilisé	-12.698
positionnement	-12.698
▁théorique	-12.698
▁handicapées	-12.6981
▁Oper	-12.6981
ebon	-12.6982
▁RSI	-12.6983
▁441-14	-12.6983
eva	-12.6985
▁péril	-12.6985
CHE	-12.6986
▁640	-12.699
▁avisée	-12.6991
▁1225-	-12.6992
▁invoquaient	-12.6993
▁ininterrompue	-12.6995
▁exclusions	-12.6995
▁déclin	-12.6995
▁211-2	-12.7001
▁recouvré	-12.7003
▁(21	-12.7007
▁(19	-12.7007
▁chiffrer	-12.7008
isserie	-12.7009
user	-12.7011
cord	-12.7018
▁annuités	-12.7019
▁rest	-12.7028
équipements	-12.7036
▁discutée	-12.7044
annu	-12.7047
▁Ope	-12.7048
▁nommée	-12.7051
▁qualifie	-12.7053
▁consommé	-12.7054
euses	-12.7062
▁réclamations	-12.7065
▁Cher	-12.7069
▁proches	-12.707
▁1455-	-12.7073
▁patiente	-12.7073
▁160	-12.7075
▁22-20.3	-12.7077
▁Entre	-12.708
▁respecte	-12.7084
▁trait	-12.7084
▁Hél	-12.7086
abi	-12.7091
▁heurté	-12.7092
Cou	-12.7093
▁priv	-12.7096
▁335	-12.7096
zo	-12.7111
▁courses	-12.7112
▁contractée	-12.7117
187	-12.712
▁Unis	-12.7128
525	-12.713
alisation	-12.7139
▁qualifiées	-12.7141
▁crée	-12.715
▁PRO	-12.7153
196	-12.7174
▁annexée	-12.7176
ciel	-12.7179
conformités	-12.7195
fort	-12.7203
▁export	-12.7205
61-2	-12.7207
Moselle	-12.7217
Bourges	-12.7217
société	-12.7217
aussi	-12.7218
▁développ	-12.722
▁Hér	-12.722
▁406	-12.722
anciennement	-12.7232
▁remboursable	-12.7235
▁représentative	-12.7242
▁lésé	-12.7248
▁média	-12.725
▁orale	-12.7251
▁urbain	-12.7267
▁demeurée	-12.7269
vallée	-12.7271
▁absolu	-12.7272
▁subsiste	-12.7278
▁salarial	-12.7282
▁marqu	-12.7282
▁successoral	-12.7285
tatuant	-12.7289
isol	-12.7293
tenter	-12.7295
▁satisf	-12.7297
iance	-12.7298
habita	-12.7299
nçant	-12.73
bit	-12.73
▁plén	-12.7301
▁valpro	-12.7301
absorption	-12.7301
alimentation	-12.7301
humidité	-12.7301
ignorance	-12.7301
isslife	-12.7301
écoute	-12.7301
▁22-21.0	-12.7301
▁22-21.4	-12.7301
▁22-83.7	-12.7301
▁Akka	-12.7301
▁Corsica	-12.7301
▁Cpam	-12.7301
▁Cytoo	-12.7301
▁Foncia	-12.7301
▁IRRECEVABILITÉ	-12.7301
▁Senior	-12.7301
▁Veritas	-12.7301
▁Winkhaus	-12.7301
▁contamination	-12.7301
▁extinctive	-12.7301
▁meubles	-12.7301
▁préélectoral	-12.7301
▁statuait	-12.7301
▁stratagème	-12.7301
▁ternoise	-12.7301
▁RPVA	-12.7301
▁synergie	-12.7301
▁Mondial	-12.7301
▁Ship	-12.7301
▁Gaec	-12.7301
▁mépris	-12.7301
▁Medical	-12.7301
▁dotation	-12.7301
▁Intel	-12.7301
▁Innovation	-12.7301
▁professionnalis	-12.7301
▁Saisi	-12.7301
▁contenté	-12.7301
▁TGI	-12.7301
▁triparti	-12.7302
▁revenait	-12.7302
▁parisienne	-12.7303
▁696-1	-12.7303
▁Traité	-12.7304
▁IRM	-12.7304
▁précèdent	-12.7304
▁Sales	-12.7304
mobil	-12.7306
terie	-12.7306
ituait	-12.7308
▁dissimuler	-12.7308
▁libérer	-12.7308
▁Thai	-12.7309
▁louer	-12.7309
▁progressive	-12.7309
Indre	-12.731
▁comparant	-12.7312
▁Herm	-12.7315
▁correspondent	-12.7315
▁policiers	-12.7317
▁documentation	-12.7318
IPP	-12.7321
▁examin	-12.7326
▁Occitanie	-12.7327
▁Lux	-12.7328
▁Direc	-12.7328
impliqu	-12.7335
▁tacitement	-12.7337
▁circonstanciée	-12.7338
13-3	-12.7339
▁constituées	-12.734
▁vend	-12.7342
▁substituée	-12.7344
butoir	-12.7346
▁équipé	-12.7348
▁1981	-12.735
▁interprète	-12.7358
▁accroissement	-12.7361
700	-12.7364
ota	-12.7368
/5	-12.7368
élevant	-12.7373
▁dénoncées	-12.7376
138	-12.738
23-5	-12.738
54-1	-12.7381
▁433	-12.7382
▁Arm	-12.7388
▁188	-12.739
▁Opéra	-12.7395
▁bl	-12.7396
▁assimilés	-12.7397
▁189	-12.7402
▁restitués	-12.7405
▁égales	-12.7409
▁459	-12.742
▁592	-12.7432
▁148	-12.7439
▁énoncée	-12.744
eign	-12.7452
▁493	-12.7458
▁louées	-12.7472
▁prévisibles	-12.748
▁haut	-12.7489
▁assortis	-12.75
▁employ	-12.7509
▁indivise	-12.7513
ker	-12.7513
3-84	-12.7515
rablement	-12.7516
▁réglés	-12.7521
▁impliqués	-12.753
▁différé	-12.7537
▁Od	-12.7548
événement	-12.755
intitulé	-12.755
Riom	-12.755
énonçant	-12.755
▁36],	-12.7555
▁meilleur	-12.7557
priseur	-12.7561
019	-12.7564
▁concret	-12.7568
▁Acte	-12.7568
▁mobilier	-12.7569
▁posté	-12.7569
▁journalière	-12.757
▁412	-12.7571
651	-12.7577
▁formalis	-12.7581
▁discussions	-12.7591
▁lieudit	-12.7591
▁distingu	-12.7603
▁normales	-12.7615
ige	-12.7622
▁jus	-12.7624
▁déport	-12.7629
▁soupçonn	-12.763
▁transform	-12.763
▁liquidé	-12.763
▁quotidien	-12.7632
onsidérant	-12.7633
▁prépondéran	-12.7634
Irlande	-12.7634
acheminement	-12.7634
arrérage	-12.7634
installer	-12.7634
introduire	-12.7634
▁21-24.95	-12.7634
▁22-22.7	-12.7634
▁22-86.1	-12.7634
▁Arcelormittal	-12.7634
▁Bouzonville	-12.7634
▁CEPAC	-12.7634
▁Demanderesse	-12.7634
▁Extenso	-12.7634
▁Ferracin	-12.7634
▁Heineken	-12.7634
▁Kartesis	-12.7634
▁THQ	-12.7634
▁adjudicateur	-12.7634
▁affirmait	-12.7634
▁banquier	-12.7634
▁carrelage	-12.7634
▁comprenait	-12.7634
▁confrère	-12.7634
▁externe	-12.7634
▁falsifié	-12.7634
▁génériques	-12.7634
▁mammaires	-12.7634
▁paulienne	-12.7634
▁portugais	-12.7634
▁possède	-12.7634
▁posteriori	-12.7634
▁protectrice	-12.7634
▁proxénétisme	-12.7634
▁prévenance	-12.7634
▁périmée	-12.7634
▁renouveler	-12.7634
▁repreneur	-12.7634
▁scrutin	-12.7634
▁sodium	-12.7634
▁suffrages	-12.7634
▁traduit	-12.7634
Vilaine	-12.7634
opathie	-12.7634
▁22-22.5	-12.7634
▁22-84.3	-12.7634
▁22-85.7	-12.7634
▁Dream	-12.7634
▁Flandre	-12.7634
▁Garantie	-12.7634
▁Grasse	-12.7634
▁TFUE	-12.7634
▁Vega	-12.7634
▁avez	-12.7634
▁supplétive	-12.7634
▁box	-12.7634
▁testament	-12.7634
▁férié	-12.7634
éducatif	-12.7634
▁consigné	-12.7634
UDAF	-12.7634
▁parallèle	-12.7634
▁photographique	-12.7634
▁récapitulative	-12.7634
▁détect	-12.7634
herbe	-12.7634
▁consulaire	-12.7634
▁éteinte	-12.7634
▁Edec	-12.7634
▁SHEM	-12.7634
injure	-12.7635
▁avantageuse	-12.7635
▁sexe	-12.7635
▁censé	-12.7635
▁tabac	-12.7635
▁commissariat	-12.7635
▁Africa	-12.7635
▁Home	-12.7635
▁Mark	-12.7635
▁nosocomiales	-12.7635
▁minorité	-12.7635
▁réhabilitation	-12.7635
accession	-12.7635
▁464-2	-12.7636
▁SPT	-12.7637
usufruitier	-12.7638
illic	-12.7638
▁434-2	-12.764
▁revêtent	-12.764
▁linge	-12.7642
▁6°)	-12.7644
▁38],	-12.7644
▁consacrer	-12.7647
▁attribuer	-12.7648
▁pneu	-12.7649
▁121-6	-12.7649
▁défendu	-12.7649
▁CIPAV	-12.765
▁Express	-12.765
▁Sea	-12.7654
▁427	-12.7658
▁pulmonaire	-12.7659
▁fixent	-12.766
▁renseign	-12.7664
▁visent	-12.7664
▁240	-12.7665
bioma	-12.7669
lectro	-12.7669
acqu	-12.7674
▁gar	-12.7676
▁332-1	-12.7676
acide	-12.7679
▁coté	-12.7682
▁opinion	-12.7691
▁Etienne	-12.7693
▁quantités	-12.7696
ulle	-12.7705
▁pharmaceutiques	-12.7707
▁3141-2	-12.7708
5.000	-12.7715
▁hypothèque	-12.7715
▁montre	-12.772
▁exposées	-12.7725
▁logiciels	-12.7727
691	-12.7742
▁137-1	-12.7746
▁217	-12.7751
▁incriminés	-12.7752
attacher	-12.7754
En	-12.7757
▁équilibre	-12.7759
▁Beau	-12.7768
interprétées	-12.777
eve	-12.7776
▁respectées	-12.7776
EPIC	-12.7778
▁majeurs	-12.778
▁attribu	-12.7783
▁of	-12.7784
▁envisagés	-12.779
▁cie	-12.7791
▁attache	-12.7795
▁2315-8	-12.7797
▁financée	-12.7804
CAP	-12.781
▁opérées	-12.7811
rrière	-12.7812
▁indirectes	-12.7817
▁623	-12.7835
loo	-12.786
▁indépendance	-12.7865
▁protégés	-12.7871
çon	-12.7873
46-1	-12.7873
ndre	-12.7894
paiement	-12.7895
624-2	-12.7896
▁314-16	-12.7897
▁débit	-12.7913
▁mensongère	-12.7913
▁ouvrable	-12.7914
▁femme	-12.7914
▁corrobor	-12.7914
▁sentences	-12.7918
▁dégr	-12.7925
▁travaillés	-12.7925
partit	-12.7928
traient	-12.793
▁Arte	-12.793
▁cotée	-12.7945
▁aménagements	-12.7946
▁vin	-12.7952
43-5	-12.7956
▁compens	-12.7964
▁supposé	-12.7964
▁réciproque	-12.7967
293	-12.7971
▁dirige	-12.7971
▁persist	-12.7974
▁consent	-12.7977
▁compromett	-12.7977
altér	-12.7977
▁régul	-12.7978
ollège	-12.7978
quérir	-12.7979
▁retranch	-12.7979
Guyonnet	-12.7979
ackaging	-12.7979
aliénation	-12.7979
anticipation	-12.7979
ivresse	-12.7979
▁1235-4	-12.7979
▁22-11.26	-12.7979
▁22-13.26	-12.7979
▁22-23.5	-12.7979
▁3323-14	-12.7979
▁Bochaton	-12.7979
▁CoRDiS	-12.7979
▁FFEC	-12.7979
▁Solvadis	-12.7979
▁Toulon	-12.7979
▁banqueroute	-12.7979
▁diplômé	-12.7979
▁dividendes	-12.7979
▁démarchage	-12.7979
▁frontière	-12.7979
▁grève	-12.7979
▁juifs	-12.7979
▁psychique	-12.7979
▁rentabilité	-12.7979
▁reproduire	-12.7979
▁représentait	-12.7979
▁routière	-12.7979
▁souffert	-12.7979
▁spectacle	-12.7979
▁sujétion	-12.7979
▁éolien	-12.7979
Saône	-12.7979
▁Logo	-12.7979
▁ultra	-12.7979
▁idem	-12.7979
▁style	-12.7979
▁22-21.7	-12.7979
▁Plast	-12.7979
▁existé	-12.7979
▁river	-12.7979
▁soustrait	-12.7979
▁appris	-12.7979
▁approuvant	-12.7979
▁22-20.1	-12.7979
▁portail	-12.7979
UBAF	-12.7979
▁élaboré	-12.7979
▁arbitres	-12.798
▁CNP	-12.798
▁Cavi	-12.798
▁concreto	-12.798
▁Pack	-12.798
▁TTT	-12.798
▁tardiveté	-12.798
jard	-12.7981
▁gage	-12.7981
11-00	-12.7981
▁Chaud	-12.7982
▁certification	-12.7982
▁SUR	-12.7983
▁déficitaire	-12.7983
▁ESR	-12.7983
▁Vendée	-12.7983
▁Représenté	-12.7984
▁ethni	-12.7985
▁132-19	-12.7987
▁simultanément	-12.7987
▁Finistère	-12.7987
acheter	-12.7987
▁potentiellement	-12.7988
▁habitude	-12.799
▁452-2	-12.7991
▁Ham	-12.7991
▁MPH	-12.7992
▁Textiles	-12.7992
Accord	-12.7994
▁correspondre	-12.7997
▁LGA	-12.7997
▁néerlandaise	-12.8003
OUR	-12.8004
▁confidentielle	-12.8011
▁outrage	-12.8011
▁forclose	-12.8011
▁écriture	-12.8012
▁augmentée	-12.8017
▁auditeur	-12.8019
▁original	-12.802
▁handicapés	-12.802
666	-12.8027
otel	-12.8034
▁UJA	-12.8035
▁lésée	-12.8042
exprim	-12.8044
▁rattachement	-12.8048
509	-12.8055
▁compatibles	-12.8059
▁tutelles	-12.8064
▁installés	-12.8067
▁dotée	-12.8069
▁cotes	-12.807
PIC	-12.8079
▁différée	-12.808
21-2	-12.8081
stes	-12.8083
rava	-12.8084
▁aggravation	-12.8086
▁CCI	-12.8086
▁heurte	-12.8087
GSE	-12.8088
▁apparents	-12.8092
▁réintégr	-12.8093
▁73],	-12.8094
▁aff	-12.8096
▁médicalement	-12.8097
▁1142-1	-12.8099
▁livr	-12.8101
▁prélèvements	-12.8101
▁280	-12.8102
▁ski	-12.8108
ditions	-12.8112
▁usine	-12.8124
143	-12.8126
▁Institut	-12.8136
▁préjudicielles	-12.8139
▁requérantes	-12.8146
▁corroboré	-12.8147
▁journaliers	-12.8155
▁145-1	-12.8157
▁646	-12.8158
systématiquement	-12.8162
43-4	-12.8164
▁596	-12.8171
▁coemployeur	-12.8174
▁survenues	-12.8179
nnes	-12.818
▁associées	-12.8195
/08	-12.8202
▁compt	-12.8209
û	-12.8219
▁communal	-12.8226
▁corroborée	-12.8232
▁133-1	-12.8236
ènes	-12.8249
8-3	-12.8249
apparaiss	-12.8249
▁624-1	-12.825
occuper	-12.8252
restaurant	-12.8252
Bastia	-12.8252
clients	-12.8252
Pôle	-12.8252
entrave	-12.8253
▁rémunér	-12.8264
▁partenaire	-12.8271
▁accessible	-12.8271
▁psychologique	-12.8271
▁ressource	-12.8272
▁345	-12.8273
▁1154	-12.8279
▁quantité	-12.8279
ande	-12.8279
48/	-12.8282
CIC	-12.8295
▁consacr	-12.8298
nimaux	-12.8299
prime	-12.8314
▁recouvre	-12.8315
▁206	-12.8317
sorts	-12.832
estime	-12.8321
▁toit	-12.8335
▁invalid	-12.8336
graphe	-12.8336
▁dépériss	-12.8336
Ajaccio	-12.8336
Leclerc	-12.8336
artisan	-12.8336
indexation	-12.8336
▁21-22.90	-12.8336
▁Akiva	-12.8336
▁Apatae	-12.8336
▁Brouchot	-12.8336
▁Cedrus	-12.8336
▁Hobbes	-12.8336
▁Jules	-12.8336
▁Olivier	-12.8336
▁Pavanello	-12.8336
▁Poitou	-12.8336
▁Pontoise	-12.8336
▁Promotion	-12.8336
▁RECTIFI	-12.8336
▁Safran	-12.8336
▁Shellac	-12.8336
▁Teezily	-12.8336
▁Velcorex	-12.8336
▁cancer	-12.8336
▁circons	-12.8336
▁conférant	-12.8336
▁coobligé	-12.8336
▁dissociée	-12.8336
▁déménagement	-12.8336
▁escompté	-12.8336
▁exemplaire	-12.8336
▁extrinsèque	-12.8336
▁malfaçons	-12.8336
▁ouvrés	-12.8336
▁réservataire	-12.8336
▁échoir	-12.8336
▁689-11	-12.8336
▁attrait	-12.8336
▁Joiner	-12.8336
▁ménage	-12.8336
▁satisfaisant	-12.8336
enrichi	-12.8336
▁climatisation	-12.8336
▁Macif	-12.8336
▁Tessi	-12.8336
▁inclut	-12.8336
▁Locam	-12.8336
▁médiation	-12.8336
▁Appart	-12.8336
▁déchets	-12.8337
▁réunionnaise	-12.8337
▁fictif	-12.8337
▁infections	-12.8337
▁défère	-12.8337
▁20/05	-12.8337
▁GTM	-12.8337
▁148-2	-12.8337
▁rétracter	-12.8337
▁déontologique	-12.8337
▁produisent	-12.8337
▁conjointement	-12.8337
▁récupération	-12.8338
▁conditionnée	-12.8338
▁échues	-12.8338
▁barreaux	-12.8339
▁éclairé	-12.8339
▁plage	-12.8339
UNSA	-12.8339
▁FCR	-12.8339
▁dépendantes	-12.8341
▁admettant	-12.8341
▁importait	-12.8341
▁citer	-12.8341
▁hall	-12.8341
▁dériv	-12.8343
Benz	-12.8343
▁dépendent	-12.8344
agisse	-12.8345
▁coauteur	-12.8347
▁1251-4	-12.8348
▁dangereuse	-12.8351
▁dépendait	-12.8351
▁321-2	-12.8352
▁prévisionnelle	-12.8357
▁Nationale	-12.8361
▁371	-12.8362
13-8	-12.8366
▁223-1	-12.8367
▁2]),	-12.8368
▁prima	-12.8371
▁manifester	-12.8372
urement	-12.8373
▁recettes	-12.8381
▁rapidement	-12.8381
▁assurant	-12.8381
ITM	-12.8384
▁jonction	-12.8385
▁bloqué	-12.8385
▁EST	-12.8392
▁certifiée	-12.8398
midi	-12.8401
intégrer	-12.8402
▁isolée	-12.8405
▁débits	-12.8405
▁mensongères	-12.8405
étr	-12.8418
▁équipes	-12.8428
▁1134-1	-12.8431
▁italiennes	-12.8431
▁aléa	-12.8436
▁FDG	-12.844
acompte	-12.8446
▁647	-12.8449
▁Sav	-12.845
▁arbitraires	-12.8451
▁ouvrir	-12.8458
▁voisine	-12.8462
461-2	-12.8464
▁endettement	-12.8467
▁confirm	-12.8467
▁critiquer	-12.8467
▁rentr	-12.8469
ddition	-12.847
nor	-12.8479
▁583	-12.848
▁conserv	-12.8481
▁défenseur	-12.8494
▁insertion	-12.8495
▁553	-12.8498
ping	-12.85
▁vain	-12.8509
och	-12.8519
▁divisé	-12.8528
inactivité	-12.8539
640	-12.8539
▁proratisé	-12.8544
eria	-12.8558
▁3141-	-12.8565
▁répartie	-12.8587
▁demeurer	-12.8587
ajout	-12.8603
▁habilitée	-12.8605
▁Bard	-12.8609
exigent	-12.8611
▁ha	-12.8616
Capital	-12.8622
impayés	-12.8622
Dijon	-12.8623
représentation	-12.8623
Q	-12.8623
cription	-12.8623
▁1384	-12.8623
▁discuté	-12.8629
▁façade	-12.8641
MON	-12.8651
▁112-1	-12.8652
▁patrimonial	-12.8664
▁encouru	-12.8675
▁colle	-12.8679
berg	-12.868
▁contribu	-12.869
▁vid	-12.8694
▁BRM	-12.8703
▁auxiliaire	-12.8704
▁prénom	-12.8705
▁brutal	-12.8705
approuv	-12.8705
▁disparit	-12.8706
appropri	-12.8706
Buchheit	-12.8707
Evry	-12.8707
cohérence	-12.8707
ebradios	-12.8707
oeufs	-12.8707
optimis	-12.8707
▁22-23.9	-12.8707
▁22-24.7	-12.8707
▁23-10.8	-12.8707
▁Adrexo	-12.8707
▁Biogaran	-12.8707
▁Carcelles	-12.8707
▁Croix	-12.8707
▁Débout	-12.8707
▁Europipe	-12.8707
▁Girardin	-12.8707
▁Maniac	-12.8707
▁Mermet	-12.8707
▁Morbihan	-12.8707
▁Pibarot	-12.8707
▁Populaire	-12.8707
▁Predictis	-12.8707
▁Retail	-12.8707
▁Scheuten	-12.8707
▁Sécurité	-12.8707
▁Vanuxeem	-12.8707
▁Waroude	-12.8707
▁admissibles	-12.8707
▁congrès	-12.8707
▁domiciliation	-12.8707
▁débours	-12.8707
▁fiabilité	-12.8707
▁flagrant	-12.8707
▁forêt	-12.8707
▁fussent	-12.8707
▁légitimité	-12.8707
▁phénomène	-12.8707
▁probabilité	-12.8707
▁racisme	-12.8707
▁répertoire	-12.8707
▁spéciaux	-12.8707
▁tension	-12.8707
▁télétravail	-12.8707
▁vaccin	-12.8707
▁vulnérable	-12.8707
▁étape	-12.8707
▁étroit	-12.8707
▁Confirme	-12.8707
▁Univers	-12.8707
▁forestier	-12.8707
▁revue	-12.8707
CGSS	-12.8707
▁19-21.	-12.8707
▁20/02	-12.8707
▁Echange	-12.8707
▁Essex	-12.8707
▁minière	-12.8707
▁133-4-5	-12.8707
▁assimilable	-12.8707
▁promis	-12.8707
▁photocopie	-12.8707
▁2005-15	-12.8707
▁4-6)	-12.8707
▁climatique	-12.8707
▁divisionnaire	-12.8707
▁Bardoul	-12.8707
▁4614-1	-12.8707
▁Santé	-12.8707
▁revendiquant	-12.8707
▁souhaitez	-12.8707
▁([3])	-12.8708
▁conduisait	-12.8708
▁186-3	-12.8708
▁DSS	-12.8708
encaissement	-12.8708
abot	-12.8709
▁receveur	-12.8709
▁franco	-12.8709
▁palli	-12.871
▁Nous	-12.871
▁instauré	-12.871
▁Engineering	-12.871
ectification	-12.871
▁déterminent	-12.8713
▁rétablir	-12.8713
usée	-12.8715
▁solaire	-12.8716
▁Prop	-12.8716
▁assurent	-12.8718
valait	-12.8719
▁prescrivant	-12.872
▁3121-1	-12.8725
▁nouveauté	-12.8726
illégalité	-12.8727
▁495	-12.8727
▁133-3	-12.8728
▁SIFA	-12.8729
▁FTA	-12.8729
▁dépasser	-12.873
▁Jacques	-12.8731
▁neige	-12.8735
▁satisfaites	-12.874
▁récurrente	-12.874
▁immixtion	-12.8741
▁rencontrer	-12.8743
▁tendaient	-12.8743
▁trimestrielle	-12.8747
▁Pub	-12.8751
▁remplacée	-12.8753
▁reposent	-12.8754
▁34-1	-12.8755
▁estimait	-12.876
▁assigner	-12.8761
▁décernée	-12.8762
admis	-12.8764
▁futures	-12.8764
▁IDF	-12.8766
▁1945	-12.8766
▁Sans	-12.8767
▁liquidée	-12.8772
▁CGM	-12.8773
24-3	-12.8776
▁intercommunale	-12.8788
▁cultures	-12.8793
▁passible	-12.8802
cole	-12.8804
▁ressortissants	-12.8805
▁consultants	-12.8805
▁majorées	-12.8806
▁vexatoires	-12.8808
appareil	-12.8809
▁rencontre	-12.8812
▁candidate	-12.8818
▁dégagé	-12.8822
traitante	-12.8829
▁adoptées	-12.8836
▁agréés	-12.8842
▁Viv	-12.8848
▁expropriés	-12.8853
▁précontractuel	-12.8855
▁menées	-12.8861
onnent	-12.8868
roche	-12.89
▁contourn	-12.8903
▁marin	-12.8911
ALL	-12.8918
cima	-12.8919
école	-12.892
▁638	-12.8934
rité	-12.8935
PCA	-12.8944
▁Fabr	-12.8957
▁impartial	-12.8967
énonciation	-12.8973
▁modifie	-12.8985
«	-12.8994
▁doté	-12.8997
juge	-12.8997
propriétaire	-12.9006
interdis	-12.9007
ingérence	-12.9007
source	-12.9007
interdit	-12.9008
▁pens	-12.9016
▁développé	-12.9019
athieu	-12.9024
▁Moulin	-12.9026
Su	-12.9033
oncentr	-12.9039
ION	-12.9049
▁mauvais	-12.9061
exploit	-12.9072
▁délivr	-12.9073
enjoindre	-12.9081
remier	-12.9089
assimil	-12.909
aggrav	-12.909
infiltration	-12.9091
▁85/374	-12.9091
-02.02.	-12.9091
ANGDM	-12.9091
adhérer	-12.9091
échantillon	-12.9091
▁21-23.84	-12.9091
▁22-22.6	-12.9091
▁22-23.7	-12.9091
▁22-24.4	-12.9091
▁23-84.1	-12.9091
▁44/2001	-12.9091
▁Communauté	-12.9091
▁Eurotitrisation	-12.9091
▁Goudale	-12.9091
▁Heerema	-12.9091
▁Kotan	-12.9091
▁Médiapost	-12.9091
▁Observer	-12.9091
▁Photo	-12.9091
▁Texatop	-12.9091
▁Vaucluse	-12.9091
▁Zanni	-12.9091
▁concomitamment	-12.9091
▁demandaient	-12.9091
▁fixait	-12.9091
▁fraudés	-12.9091
▁hospitalisé	-12.9091
▁illusoire	-12.9091
▁islamique	-12.9091
▁justificatives	-12.9091
▁législatif	-12.9091
▁magazine	-12.9091
▁maintenant	-12.9091
▁mensonge	-12.9091
▁moratoire	-12.9091
▁musique	-12.9091
▁négoce	-12.9091
▁phrase	-12.9091
▁profane	-12.9091
▁prohibition	-12.9091
▁promoteur	-12.9091
▁psychiatre	-12.9091
▁ruisseaux	-12.9091
▁surcharge	-12.9091
▁sévère	-12.9091
▁22-86.4	-12.9091
▁basket	-12.9091
▁blessé	-12.9091
▁décisoire	-12.9091
▁déplacé	-12.9091
▁quiconque	-12.9091
▁vicié	-12.9091
▁visible	-12.9091
animateur	-12.9091
▁artificielle	-12.9091
▁locateur	-12.9091
infère	-12.9091
▁23-11.3	-12.9091
▁23-11.6	-12.9091
▁recommandations	-12.9091
▁Rémy	-12.9091
▁cru	-12.9091
▁semestr	-12.9091
▁EPSI	-12.9091
▁nuire	-12.9091
assujettissement	-12.9091
▁télévision	-12.9091
▁commettant	-12.9091
▁Warn	-12.9091
ignorai	-12.9091
extraction	-12.9091
▁22-87.3	-12.9091
211-40	-12.9091
▁libéraux	-12.9092
▁intervenait	-12.9092
▁coopératif	-12.9092
▁entrait	-12.9092
▁contiennent	-12.9092
▁89-4	-12.9092
gramme	-12.9092
actualisation	-12.9092
▁privatif	-12.9093
▁FHF	-12.9094
expliquaient	-12.9095
▁bénéficiaient	-12.9095
▁1237-1	-12.9095
▁dédit	-12.9096
▁148-1	-12.9098
▁441-11	-12.9098
▁dominante	-12.9099
▁VRP	-12.9101
empiétement	-12.9103
▁soupçons	-12.9103
▁Cler	-12.9105
▁1251-3	-12.9106
▁Patr	-12.9106
▁offrai	-12.9106
▁432	-12.9107
▁décal	-12.9108
▁gratuitement	-12.9109
▁[18],	-12.911
▁Products	-12.9111
▁CPS	-12.9111
▁Ligue	-12.9112
▁contrevenant	-12.9113
▁différemment	-12.9113
▁assumer	-12.9114
▁Tha	-12.9114
▁prévalue	-12.9118
▁inexacts	-12.9119
▁abattement	-12.912
▁provoquée	-12.9122
▁111-4	-12.9123
▁tête	-12.9123
▁graphique	-12.9127
▁nets	-12.9128
▁terrassement	-12.9133
▁2021-17	-12.9138
auf	-12.9142
▁cogérants	-12.9144
▁contributives	-12.9147
▁impact	-12.915
▁Collectionneurs	-12.9152
▁successives	-12.9152
▁1982	-12.9153
▁avertie	-12.9154
▁immatériels	-12.9155
▁développés	-12.9158
▁marins	-12.9158
Charentes	-12.9163
▁Licenciée	-12.9163
▁hypothèques	-12.9168
assise	-12.9175
▁accepte	-12.9179
▁revendique	-12.9181
▁précisées	-12.9182
atifs	-12.9187
atant	-12.9195
▁militaires	-12.9196
org	-12.9197
▁allègue	-12.9198
▁111-2	-12.9198
▁Real	-12.9199
▁310	-12.9203
exportation	-12.9207
▁distribué	-12.921
▁paraît	-12.9218
11-13	-12.9223
▁concluait	-12.9229
▁infligée	-12.9229
bra	-12.9234
▁497	-12.924
invocation	-12.9246
▁Pap	-12.9249
entreprendre	-12.9252
▁votée	-12.9259
▁proratis	-12.9262
▁[15]	-12.9267
aise	-12.9276
▁objectiv	-12.9278
▁subrogée	-12.9279
engin	-12.928
▁472	-12.928
Iran	-12.9303
of	-12.9311
▁541	-12.9319
▁668	-12.932
cteurs	-12.9331
yba	-12.9345
▁415	-12.9346
▁édicté	-12.9348
▁365	-12.9351
heb	-12.9351
▁Grande	-12.9378
élu	-12.9382
▁notarial	-12.9385
▁offert	-12.9388
▁réglementé	-12.9403
2-14	-12.9405
adhérent	-12.9406
incrimination	-12.9406
Espace	-12.9407
arriéré	-12.9407
Besançon	-12.9407
ajoutant	-12.9412
▁immatériel	-12.9425
▁stratégique	-12.9426
▁collègue	-12.9426
▁Transport	-12.9427
▁territorial	-12.9431
itter	-12.9449
▁utilis	-12.945
indemnis	-12.945
▁attesté	-12.9455
▁inhérente	-12.9469
▁emportera	-12.9469
076	-12.947
2-25	-12.9474
▁explicite	-12.9477
vêtements	-12.9491
▁roul	-12.9491
▁prospect	-12.9491
Ardèche	-12.9491
Aéroport	-12.9491
CRAMA	-12.9491
Exploitation	-12.9491
esdames	-12.9491
espoir	-12.9491
unanimité	-12.9491
▁22-22.8	-12.9491
▁22-24.6	-12.9491
▁22-83.5	-12.9491
▁23-10.6	-12.9491
▁23-10.9	-12.9491
▁23-80.3	-12.9491
▁Agricole	-12.9491
▁Chavanoz	-12.9491
▁Coffee	-12.9491
▁Creacard	-12.9491
▁Emploi	-12.9491
▁Financo	-12.9491
▁Ingénierie	-12.9491
▁QUATRIEME	-12.9491
▁Sociale	-12.9491
▁Système	-12.9491
▁Tokio	-12.9491
▁Wesina	-12.9491
▁buc	-12.9491
▁concédé	-12.9491
▁contraindre	-12.9491
▁contrebande	-12.9491
▁dialogue	-12.9491
▁détérioration	-12.9491
▁iatrog	-12.9491
▁impératif	-12.9491
▁incorporels	-12.9491
▁nomenclature	-12.9491
▁pandémie	-12.9491
▁probité	-12.9491
▁reconduction	-12.9491
▁technologiques	-12.9491
▁tolérance	-12.9491
▁île	-12.9491
▁21-24.67	-12.9491
▁22-87.2	-12.9491
▁23-14.3	-12.9491
▁23-80.4	-12.9491
▁331-2	-12.9491
▁fidèle	-12.9491
▁Olymp	-12.9491
▁alerté	-12.9491
▁phonogra	-12.9491
▁Jura	-12.9491
▁USIC	-12.9491
▁470-1	-12.9491
▁unitaire	-12.9491
▁déclaratif	-12.9491
▁informatif	-12.9491
▁21-25.94	-12.9491
▁finition	-12.9491
▁Investissements	-12.9491
▁Lido	-12.9491
▁3-3)	-12.9491
▁165-1	-12.9491
▁Puis	-12.9491
▁1152-3	-12.9492
▁Green	-12.9492
▁131-4	-12.9492
▁jouit	-12.9492
chures	-12.9492
▁arguments	-12.9492
▁anomalies	-12.9492
pave	-12.9492
▁RGPD	-12.9492
▁cave	-12.9493
▁instruments	-12.9493
▁Menco	-12.9493
▁formulation	-12.9493
▁réputation	-12.9494
accessi	-12.9494
ncid	-12.9494
▁déroulées	-12.9495
▁HBS	-12.9495
▁péri	-12.9495
SIPO	-12.9496
▁bain	-12.9496
▁212-1	-12.9496
infér	-12.9497
▁fournissait	-12.9498
▁19-14.	-12.9498
▁hôtelier	-12.9498
▁irré	-12.9499
▁sauv	-12.9499
-498	-12.9499
énumération	-12.95
▁expirant	-12.9503
▁incertaine	-12.9504
▁legs	-12.951
▁322-2	-12.9512
▁1116	-12.9515
▁Jour	-12.9516
▁verbalement	-12.9519
▁voulu	-12.9519
enregistrer	-12.952
ssortissant	-12.9521
▁relance	-12.9521
▁marocaine	-12.9526
▁Yo	-12.953
▁intérim	-12.9535
▁viticoles	-12.9536
▁22/0	-12.954
nergie	-12.9546
▁voisins	-12.955
▁attaque	-12.9553
▁aller	-12.9557
▁1950	-12.9561
▁façades	-12.9563
▁substitue	-12.9574
▁BSA	-12.9587
▁3211-12	-12.9592
▁650	-12.9601
▁laissée	-12.9606
▁réclam	-12.9607
▁implantée	-12.9626
tam	-12.9627
▁sinc	-12.9631
▁installée	-12.9636
▁bras	-12.9639
entraîner	-12.9642
arch	-12.9657
coup	-12.9657
▁2016-18	-12.9666
▁conc	-12.9673
▁traiter	-12.9678
▁645	-12.9684
▁Cama	-12.9694
communications	-12.9698
▁23-10.3	-12.9699
▁chargeur	-12.9715
▁consacrée	-12.974
▁révoqué	-12.9749
▁procur	-12.9757
▁rétabli	-12.977
▁avancé	-12.9779
égi	-12.9787
▁diligenté	-12.9788
▁243-6	-12.9788
▁spécifi	-12.9803
établisse	-12.9811
gérance	-12.9822
apparent	-12.9824
Normandie	-12.9824
obstacle	-12.9824
transmis	-12.9824
Georges	-12.9827
▁successive	-12.9829
▁diffus	-12.9833
▁franc	-12.9839
salariés	-12.984
▁échu	-12.984
▁douane	-12.9843
▁voyageur	-12.9844
hn	-12.9846
▁Collectionneur	-12.9851
aisant	-12.9853
élices	-12.9859
EDF	-12.9863
▁projetée	-12.9869
▁néerlandais	-12.9878
▁considér	-12.9882
▁forcé	-12.9887
▁désiste	-12.9893
▁corporat	-12.9896
▁énumér	-12.9897
▁circul	-12.9902
▁biologi	-12.9902
oteurs	-12.9903
▁délimit	-12.9904
métrique	-12.9906
infection	-12.9907
Océan	-12.9907
onnait	-12.9907
échelon	-12.9908
▁technolog	-12.9908
▁néglige	-12.9908
▁êtes	-12.9908
AFUL	-12.9908
Canada	-12.9908
Dôme	-12.9908
Omnium	-12.9908
Orientales	-12.9908
alcoolémie	-12.9908
indisponibilité	-12.9908
éroportuaire	-12.9908
▁21-19.03	-12.9908
▁22-12.44	-12.9908
▁22-84.2	-12.9908
▁22-85.6	-12.9908
▁Automation	-12.9908
▁Corning	-12.9908
▁Dometic	-12.9908
▁Hainaut	-12.9908
▁Innovassur	-12.9908
▁Keating	-12.9908
▁Mercialys	-12.9908
▁Montargis	-12.9908
▁Mouchottes	-12.9908
▁Opteven	-12.9908
▁Pellenc	-12.9908
▁Solférino	-12.9908
▁Teisseire	-12.9908
▁boycott	-12.9908
▁campagne	-12.9908
▁changé	-12.9908
▁cliché	-12.9908
▁comprenne	-12.9908
▁conductrice	-12.9908
▁contestaient	-12.9908
▁coordonnées	-12.9908
▁curatelle	-12.9908
▁curatrice	-12.9908
▁endommagé	-12.9908
▁gratification	-12.9908
▁habitable	-12.9908
▁irréfragable	-12.9908
▁minoritaire	-12.9908
▁permettrait	-12.9908
▁pluviales	-12.9908
▁08-86.	-12.9908
▁23-11.7	-12.9908
▁PHARM	-12.9908
▁barrage	-12.9908
▁flous	-12.9908
igny	-12.9908
▁opté	-12.9908
▁DÉSIGNE	-12.9908
▁Team	-12.9908
▁surprise	-12.9908
▁délaissées	-12.9908
▁Guiban	-12.9908
▁couleur	-12.9908
intervalle	-12.9908
annonce	-12.9908
▁Pascal	-12.9908
▁persistance	-12.9908
▁laitiers	-12.9908
▁2020-31	-12.9908
▁viagère	-12.9908
▁2009-9	-12.9909
▁Chef	-12.9909
▁dilatoire	-12.9909
isolation	-12.9909
▁341-3	-12.9909
▁pharmacien	-12.9909
▁Tous	-12.9909
▁tracteur	-12.991
▁poursuivait	-12.9911
▁FFJ	-12.9911
▁ample	-12.9911
▁supposant	-12.9912
▁représentent	-12.9913
▁conservant	-12.9914
▁franchisées	-12.9915
▁Maine	-12.9915
▁411-35	-12.9919
▁CNAM	-12.9919
▁(1009-1)	-12.992
▁5424-	-12.992
▁bout	-12.9921
▁131-2	-12.9922
▁Mobilit	-12.9924
oz	-12.9925
▁poser	-12.9926
▁épisode	-12.9928
▁renforcée	-12.9928
▁usurp	-12.9932
▁loyalement	-12.9932
▁UAT	-12.9934
▁incombent	-12.9935
▁péremptoirement	-12.9937
▁préférentielle	-12.9937
▁abstention	-12.994
▁diligente	-12.9945
▁expédition	-12.9946
appliquerait	-12.9947
▁supposée	-12.995
▁facteurs	-12.9952
▁rencontré	-12.9954
▁60-1	-12.9957
▁emportait	-12.9959
Ordre	-12.9966
▁sages	-12.9978
▁1648	-12.9984
▁précisée	-12.9988
concurrentielles	-12.9993
ANT	-12.9995
▁encadré	-12.9999
▁revêtue	-13.001
▁575	-13.0026
▁727	-13.0031
main	-13.0032
▁municipale	-13.0043
▁appréhendée	-13.0044
▁commencer	-13.0045
▁659	-13.0048
▁commandit	-13.0051
barre	-13.0056
étay	-13.0068
678	-13.0072
quoi	-13.0082
.497	-13.0086
▁1000	-13.0093
▁Han	-13.011
▁marié	-13.0125
▁2232	-13.0137
▁comptabilisé	-13.015
▁émane	-13.0156
viendra	-13.0162
▁990	-13.0192
▁réserver	-13.0203
édic	-13.0211
irecteur	-13.0225
33-10	-13.0229
Aube	-13.0245
llers	-13.025
obstruction	-13.0258
adversaire	-13.0258
▁persistant	-13.0258
ingénierie	-13.0258
équivalent	-13.0259
Papeete	-13.0259
République	-13.0259
dernier	-13.0259
intervenir	-13.0259
anda	-13.0262
accepte	-13.0268
▁distributeur	-13.0277
▁diffamatoire	-13.0277
▁machine	-13.0278
▁minimal	-13.0287
▁astreint	-13.0298
▁hypermarché	-13.0302
livreur	-13.0316
▁signifi	-13.0322
▁395	-13.0326
▁transportée	-13.0326
▁subsist	-13.0336
▁exonéré	-13.034
réambule	-13.0341
éritiers	-13.0341
▁Agirc	-13.0343
▁badge	-13.0343
Avignon	-13.0343
affichage	-13.0343
alléguait	-13.0343
appuyant	-13.0343
effacement	-13.0343
emphytéote	-13.0343
extrême	-13.0343
océan	-13.0343
▁22-84.6	-13.0343
▁22-85.9	-13.0343
▁411-69	-13.0343
▁Akjol	-13.0343
▁Carclassic	-13.0343
▁Diffusion	-13.0343
▁Distritec	-13.0343
▁Effigest	-13.0343
▁Eurial	-13.0343
▁Eurimex	-13.0343
▁Fauveder	-13.0343
▁Foncier	-13.0343
▁Gmbh	-13.0343
▁Prestige	-13.0343
▁Roquette	-13.0343
▁Vosges	-13.0343
▁bénévole	-13.0343
▁cigarettes	-13.0343
▁circonscrit	-13.0343
▁contagion	-13.0343
▁différer	-13.0343
▁dissoute	-13.0343
▁déclaratives	-13.0343
▁délictueux	-13.0343
▁fatigue	-13.0343
▁fibrose	-13.0343
▁pavillon	-13.0343
▁rouge	-13.0343
▁résiduel	-13.0343
▁similitude	-13.0343
▁soutènement	-13.0343
▁vibrations	-13.0343
▁évoquant	-13.0343
▁21-20.70	-13.0343
▁22-23.0	-13.0343
▁22-85.1	-13.0343
▁23-13.0	-13.0343
▁Club	-13.0343
▁présidé	-13.0343
▁verts	-13.0343
autorisait	-13.0343
imprimé	-13.0343
▁22-13.50	-13.0343
▁23-12.4	-13.0343
▁blocs	-13.0343
▁situant	-13.0343
▁tonnes	-13.0343
▁77-1-1	-13.0343
▁Remis	-13.0343
▁VIII	-13.0343
▁soulève	-13.0343
▁22-20.4	-13.0343
▁milieu	-13.0343
▁Vidal	-13.0343
▁acceptant	-13.0343
kog	-13.0343
épaule	-13.0343
▁décelé	-13.0343
▁notable	-13.0343
▁concessionnaire	-13.0343
▁sachant	-13.0343
▁NACC	-13.0343
▁nationaux	-13.0343
▁bijoux	-13.0343
▁fauteuil	-13.0343
▁Royal	-13.0343
Aude	-13.0343
▁raisonnement	-13.0343
isolement	-13.0343
▁légèreté	-13.0343
▁différentiel	-13.0343
▁Uber	-13.0343
▁outils	-13.0343
▁patronales	-13.0343
▁Villa	-13.0344
▁recouvreur	-13.0344
▁gouvernementale	-13.0344
▁poursuivent	-13.0344
▁Duic	-13.0344
▁DSV	-13.0344
▁provenance	-13.0344
▁prennent	-13.0344
▁JBA	-13.0344
ariat	-13.0344
▁233-2	-13.0346
▁coiffe	-13.0346
▁pareille	-13.0346
▁canal	-13.0346
jac	-13.0346
▁monté	-13.0346
▁dispensant	-13.0347
▁portion	-13.0347
▁Bouvet	-13.0347
mann	-13.0348
▁maintenue	-13.0348
▁3-4)	-13.0349
Arc	-13.0349
▁810,	-13.035
▁BRMJ	-13.035
▁Technic	-13.0351
▁SCA	-13.0354
▁comparait	-13.0354
▁NAO	-13.0355
ito	-13.0356
▁Active	-13.0356
mable	-13.0358
▁répondaient	-13.0359
▁rédiger	-13.036
▁ponctuelle	-13.0367
315-1	-13.0367
▁passive	-13.0369
issage	-13.0373
.211-1	-13.0374
▁Bord	-13.0379
▁BCF	-13.038
expos	-13.038
▁infirmiers	-13.0392
▁Hall	-13.0396
▁Avenir	-13.0404
▁Nova	-13.0415
▁Réa	-13.0416
▁documentaire	-13.0426
▁unies	-13.0427
▁séparée	-13.0427
341-1	-13.0428
▁déchargement	-13.0434
algérienne	-13.0438
penser	-13.0439
EGI	-13.0445
▁Tec	-13.0448
lav	-13.0454
▁affirmée	-13.0454
34-2	-13.0457
hic	-13.0458
venaient	-13.0482
▁4132-	-13.0506
▁désign	-13.0518
prendre	-13.0524
pprécia	-13.0525
▁notifie	-13.0526
▁précédée	-13.0547
lem	-13.0566
▁voisin	-13.0572
▁Carre	-13.0573
▁notifi	-13.0583
▁558	-13.059
igue	-13.0647
assage	-13.0666
▁[22]	-13.0667
atteint	-13.0674
▁veu	-13.068
invit	-13.07
710	-13.0707
autorise	-13.071
accroissement	-13.0712
échapper	-13.0712
alimentaire	-13.0713
conciliation	-13.0713
Groupama	-13.0713
agissements	-13.0713
familiales	-13.0713
prix	-13.0713
▁mental	-13.0718
451-1	-13.0724
▁prouv	-13.0727
▁contributive	-13.0731
▁quittance	-13.0732
vin	-13.0735
▁retrouve	-13.0735
▁manuscrit	-13.0739
▁inexistant	-13.074
▁prévalu	-13.0766
▁connaisse	-13.0767
▁provoqu	-13.0771
▁intégral	-13.0779
▁remplace	-13.0782
▁opportun	-13.0783
chauffe	-13.079
▁posséd	-13.0793
▁enjoi	-13.0795
▁Alexand	-13.0795
▁modul	-13.0796
▁General	-13.0796
adulte	-13.0797
▁méconnaissan	-13.0797
▁priori	-13.0797
▁résolu	-13.0797
influ	-13.0797
▁23-80.6	-13.0797
▁contraignant	-13.0797
Anjou	-13.0797
Epargne	-13.0797
Restaurant	-13.0797
abrogation	-13.0797
adapter	-13.0797
démarrage	-13.0797
instruire	-13.0797
▁22-82.9	-13.0797
▁22-84.8	-13.0797
▁22-85.5	-13.0797
▁22-86.8	-13.0797
▁23-11.4	-13.0797
▁23-12.6	-13.0797
▁23-12.9	-13.0797
▁23-80.8	-13.0797
▁23-81.1	-13.0797
▁23-83.5	-13.0797
▁23-84.3	-13.0797
▁Arbeit	-13.0797
▁Astek	-13.0797
▁Cheuvreux	-13.0797
▁Chronopost	-13.0797
▁JIRS	-13.0797
▁Kiloutou	-13.0797
▁Laulhère	-13.0797
▁Lemouel	-13.0797
▁Novandie	-13.0797
▁Rolesco	-13.0797
▁Sojag	-13.0797
▁Vincent	-13.0797
▁abrégée	-13.0797
▁albanais	-13.0797
▁appuyé	-13.0797
▁chaussures	-13.0797
▁clarté	-13.0797
▁compatibilité	-13.0797
▁conférai	-13.0797
▁coutumier	-13.0797
▁croire	-13.0797
▁cycle	-13.0797
▁dangerosité	-13.0797
▁défectueuse	-13.0797
▁déguisée	-13.0797
▁intrinsèque	-13.0797
▁modificatif	-13.0797
▁pathologique	-13.0797
▁plastiques	-13.0797
▁plomberie	-13.0797
▁programmation	-13.0797
▁résidait	-13.0797
▁territoriaux	-13.0797
▁timbre	-13.0797
▁vignerons	-13.0797
▁énumère	-13.0797
▁chronologi	-13.0797
▁1233-5	-13.0797
▁21-20.35	-13.0797
▁Ferjac	-13.0797
▁vaste	-13.0797
▁Livre	-13.0797
▁Micro	-13.0797
▁excip	-13.0797
▁4-7)	-13.0797
▁vague	-13.0797
▁aboutissant	-13.0797
accumul	-13.0797
▁fermé	-13.0797
▁rayon	-13.0797
▁235-1	-13.0797
▁containers	-13.0797
▁Elite	-13.0797
▁OIL	-13.0798
administratrice	-13.0798
▁2016-66	-13.0798
▁1242-2	-13.0798
▁chants	-13.0798
▁1152-2	-13.0798
harmonis	-13.0798
▁déplacer	-13.0798
▁CBF	-13.0798
▁distinctif	-13.0799
▁Adam	-13.0799
'[3]	-13.0799
▁Stur	-13.08
▁DHL	-13.08
▁démenti	-13.0801
▁Corum	-13.0801
▁706-154	-13.0802
▁Stella	-13.0802
▁rail	-13.0802
▁2314-3	-13.0803
▁chiffrées	-13.0803
▁2-5	-13.0805
▁distribuer	-13.0807
▁dépendre	-13.0809
▁USIM	-13.0811
▁édicte	-13.0812
▁[17],	-13.0816
▁évolué	-13.0817
▁connaiss	-13.0817
rochant	-13.0818
▁622-21	-13.0819
génie	-13.082
▁logistics	-13.082
▁Energie	-13.0821
▁soumet	-13.0831
▁EAD	-13.0833
▁4-1)	-13.0833
▁SCT	-13.0839
▁Bati	-13.0843
▁urbaine	-13.0845
▁SBS	-13.0848
▁monte	-13.0852
city	-13.0856
1334	-13.0857
▁1955	-13.0866
121-4	-13.0873
▁communiqu	-13.0873
▁défaillante	-13.0879
▁809	-13.0902
mm	-13.0905
▁dédiée	-13.0915
▁attestée	-13.0916
▁corporelle	-13.0922
indiqu	-13.093
6-5	-13.0939
ô	-13.0942
▁jouiss	-13.0945
▁1153	-13.0955
éenne	-13.0978
▁communale	-13.0988
angle	-13.0999
111-2	-13.1009
▁Optic	-13.1013
lta	-13.1016
▁perdur	-13.1046
oteaux	-13.1055
▁2411-1	-13.1063
▁dépasse	-13.1068
▁diminué	-13.1069
jeter	-13.1075
▁format	-13.1083
▁sign	-13.1084
0-9	-13.1086
▁Madr	-13.1101
▁correct	-13.1104
▁infligé	-13.1104
▁932	-13.1114
Ille	-13.1115
▁141-1	-13.1116
▁déroul	-13.1117
▁relate	-13.1123
émis	-13.1134
▁706-15	-13.1145
montrent	-13.1152
▁occasionnel	-13.1156
dont	-13.1163
▁cadastré	-13.1165
▁inséré	-13.1177
▁3221-	-13.1185
interprète	-13.1188
écart	-13.1188
continu	-13.1189
Entreprise	-13.1189
invoquait	-13.1189
administratif	-13.1189
2016-131	-13.119
▁achevé	-13.1195
▁parisien	-13.1205
ajouter	-13.1206
▁confisqué	-13.1208
▁fruit	-13.1208
▁commerçant	-13.1208
▁mètre	-13.1208
▁cogérant	-13.1208
▁connexe	-13.1209
▁film	-13.121
hoc	-13.1215
▁Safi	-13.1237
trum	-13.1244
▁Natural	-13.1245
▁suggér	-13.1252
▁évolu	-13.1252
▁Général	-13.1253
▁varie	-13.1256
▁future	-13.1258
▁3141-1	-13.1261
IDE	-13.1265
▁Caste	-13.1269
▁prévalai	-13.127
incrimine	-13.127
▁constructi	-13.1272
▁journal	-13.1273
▁récapitul	-13.1273
▁démoli	-13.1273
▁Studio	-13.1273
Architecture	-13.1273
Auxiliaire	-13.1273
Exea	-13.1273
Iraq	-13.1273
avère	-13.1273
incompatibilité	-13.1273
intensité	-13.1273
ombrelle	-13.1273
▁22-10.94	-13.1273
▁22-84.4	-13.1273
▁23-80.2	-13.1273
▁Bastien	-13.1273
▁CLMCE	-13.1273
▁Clemessy	-13.1273
▁Développement	-13.1273
▁Eaudiofuite	-13.1273
▁Faurecia	-13.1273
▁GrdF	-13.1273
▁Gémie	-13.1273
▁Jaulin	-13.1273
▁Kugel	-13.1273
▁Martigues	-13.1273
▁Matmut	-13.1273
▁Mediserres	-13.1273
▁Monoprix	-13.1273
▁Pacifique	-13.1273
▁Prince	-13.1273
▁Rapido	-13.1273
▁SUBSIDIAIREMENT	-13.1273
▁Sodexo	-13.1273
▁Soetaert	-13.1273
▁Soltechnic	-13.1273
▁Soulard	-13.1273
▁Syndex	-13.1273
▁Tejarat	-13.1273
▁Thierry	-13.1273
▁articulés	-13.1273
▁béret	-13.1273
▁clandestin	-13.1273
▁collision	-13.1273
▁colloque	-13.1273
▁collégiale	-13.1273
▁coordonnateur	-13.1273
▁délégant	-13.1273
▁faisabilité	-13.1273
▁flux	-13.1273
▁inexploitable	-13.1273
▁inhabituel	-13.1273
▁interbancaire	-13.1273
▁introductive	-13.1273
▁offrir	-13.1273
▁onzième	-13.1273
▁percevr	-13.1273
▁potable	-13.1273
▁produira	-13.1273
▁réflexion	-13.1273
▁souffrai	-13.1273
▁successeur	-13.1273
▁tapis	-13.1273
▁touristique	-13.1273
▁urgent	-13.1273
▁échangées	-13.1273
Pièce	-13.1273
empiète	-13.1273
▁22-12.5	-13.1273
▁Facebook	-13.1273
▁Tarn	-13.1273
▁23-13.4	-13.1273
▁Catal	-13.1273
▁Citya	-13.1273
▁notoire	-13.1273
▁ramené	-13.1273
▁divergence	-13.1273
▁PACA	-13.1273
▁133-8	-13.1273
inquiétude	-13.1273
▁lisible	-13.1273
▁930-1	-13.1273
▁380-3-1	-13.1273
▁agro	-13.1273
▁malade	-13.1273
▁limine	-13.1273
▁Cybe	-13.1273
▁peuple	-13.1274
sphère	-13.1274
▁commentaire	-13.1274
▁Acim	-13.1274
▁Pochet	-13.1274
▁légère	-13.1274
▁gliss	-13.1274
▁East	-13.1274
▁Charras	-13.1274
▁perçoivent	-13.1274
▁Systems	-13.1274
▁déposant	-13.1274
▁Juri	-13.1274
▁pesée	-13.1274
▁paysages	-13.1274
▁Générali	-13.1274
▁Sams	-13.1274
▁Market	-13.1274
▁connect	-13.1274
▁malaise	-13.1275
▁choc	-13.1275
▁1-7)	-13.1275
▁bordereaux	-13.1275
▁vécu	-13.1276
▁[11]	-13.1276
▁tradition	-13.1276
▁2143-3	-13.1276
▁provient	-13.1276
▁2315-86	-13.1277
▁245-5-	-13.1277
▁324-1-1	-13.1277
▁Castel	-13.1278
elui	-13.128
▁envisageait	-13.128
▁absorbée	-13.1281
▁Clever	-13.1281
▁découlent	-13.1282
▁Sade	-13.1284
▁313-12	-13.1284
▁TEG	-13.1285
Artois	-13.1286
▁Trade	-13.1292
▁DESIGNE	-13.1292
exprimer	-13.1292
▁dentaire	-13.1293
▁restent	-13.1295
xtant	-13.1302
▁porteuse	-13.1303
tz	-13.1304
▁132-4	-13.1304
ayon	-13.1307
▁révoqu	-13.1308
▁56-1	-13.1308
262-1	-13.1312
▁Fev	-13.1319
oix	-13.132
▁recouvr	-13.1322
▁Sub	-13.1328
▁HPH	-13.1328
/17	-13.1333
▁1927	-13.1333
▁sanctionne	-13.1341
▁provenai	-13.1345
62-3	-13.1346
réparateur	-13.1348
lèse	-13.1357
42-18	-13.1364
▁Adou	-13.1368
▁persistante	-13.1374
▁détruite	-13.1397
▁gérée	-13.1413
▁Gam	-13.1422
▁changer	-13.1422
▁111-1	-13.1426
limited	-13.1429
▁manifest	-13.1433
aveu	-13.1483
▁réprimé	-13.1491
▁reportée	-13.152
▁composante	-13.1545
enante	-13.1575
114-10	-13.1576
▁Mille	-13.1582
▁Arr	-13.1583
▁suppos	-13.1588
▁programmé	-13.1596
▁Axes	-13.1608
TAT	-13.1629
mettaient	-13.1687
attest	-13.1688
auxiliaire	-13.1688
opinion	-13.1688
Etienne	-13.1688
implants	-13.1688
CESEDA	-13.1689
exerçait	-13.1689
Art	-13.1691
▁respective	-13.1701
▁caus	-13.1702
▁annuité	-13.1708
▁originaire	-13.1708
▁culturelle	-13.1708
Sud	-13.171
1-7	-13.1718
▁édict	-13.1731
▁contente	-13.1735
▁pertinente	-13.1741
▁145-4	-13.1744
▁convoqu	-13.1745
opter	-13.1763
▁term	-13.1764
▁perturb	-13.1765
▁délégu	-13.177
.581	-13.177
▁dépose	-13.177
▁usé	-13.1771
institut	-13.1772
assembl	-13.1772
▁collabor	-13.1772
▁tromper	-13.1773
occult	-13.1773
▁retranscri	-13.1773
audiovisuel	-13.1773
▁polyc	-13.1773
Officiel	-13.1773
Touraine	-13.1773
animosité	-13.1773
assiduité	-13.1773
débauchage	-13.1773
fumures	-13.1773
innovation	-13.1773
écoulement	-13.1773
▁1210/2003	-13.1773
▁22-22.2	-13.1773
▁22-83.6	-13.1773
▁22-84.5	-13.1773
▁23-10.5	-13.1773
▁23-13.2	-13.1773
▁23-81.2	-13.1773
▁Aboud	-13.1773
▁Audilab	-13.1773
▁Coopérative	-13.1773
▁Corep	-13.1773
▁Documenta	-13.1773
▁Dunkerque	-13.1773
▁IMGHC	-13.1773
▁Lafarge	-13.1773
▁Montluçon	-13.1773
▁Méridien	-13.1773
▁Périgal	-13.1773
▁Russie	-13.1773
▁Sodec	-13.1773
▁Wavestone	-13.1773
▁antécédent	-13.1773
▁boucle	-13.1773
▁bracelet	-13.1773
▁cellule	-13.1773
▁chronique	-13.1773
▁combattre	-13.1773
▁confisquer	-13.1773
▁consigner	-13.1773
▁différenci	-13.1773
▁déductible	-13.1773
▁déjeuner	-13.1773
▁déraisonnable	-13.1773
▁fréquent	-13.1773
▁intensif	-13.1773
▁internationaux	-13.1773
▁irrésistible	-13.1773
▁limitait	-13.1773
▁ménagères	-13.1773
[...]
